<pad>	0
</s>	0
<unk>	0
,	-3.47067
▁	-3.96483
।	-4.22779
ের	-4.60091
-	-4.62126
র	-4.65525
▁ও	-4.70745
▁করে	-5.0518
▁(	-5.12855
)	-5.2149
▁না	-5.2687
▁থেকে	-5.29359
▁এ	-5.36811
▁করা	-5.43062
▁এই	-5.47809
▁হয়	-5.48825
ই	-5.52575
ও	-5.56219
কে	-5.59057
▁এবং	-5.59835
:	-5.65373
.	-5.68807
ে	-5.71903
▁‘	-5.72351
▁হয়েছে	-5.73939
▁জন্য	-5.74284
▁তিনি	-5.81266
▁হবে	-5.81892
▁এক	-5.88073
’	-5.90072
▁বলেন	-5.93988
▁নিয়ে	-5.96711
▁একটি	-5.96757
▁করতে	-5.99352
▁আর	-6.08131
▁তার	-6.10915
▁করেন	-6.12384
▁যে	-6.18474
▁সঙ্গে	-6.20691
▁এর	-6.23302
▁হয়ে	-6.24478
▁মধ্যে	-6.33711
?	-6.35954
▁বলে	-6.36006
▁সময়	-6.38356
▁কিন্তু	-6.43586
▁পর	-6.43688
▁যায়	-6.45189
▁দিয়ে	-6.45877
▁কথা	-6.46382
▁বা	-6.48134
▁বিভাগ	-6.51446
▁কোনো	-6.53028
▁তাদের	-6.53563
▁তা	-6.56299
▁ছিল	-6.58393
▁করার	-6.58985
▁তাঁর	-6.59035
তে	-6.59552
▁তবে	-6.6186
▁করেছে	-6.64917
▁আমি	-6.70078
▁প্রথম	-6.70727
▁হচ্ছে	-6.70788
▁বাংলাদেশ	-6.71665
▁আমার	-6.72455
▁শুরু	-6.72544
▁আমাদের	-6.73056
▁আমরা	-6.76556
▁কাজ	-6.78504
▁আছে	-6.78851
▁সেই	-6.79449
▁কিছু	-6.79479
▁টাকা	-6.80676
▁সে	-6.81033
সহ	-6.81205
▁দুই	-6.81225
▁বছর	-6.81474
▁’	-6.82058
▁গত	-6.82698
▁ঢাকা	-6.8332
▁তারা	-6.83481
▁করেছেন	-6.83554
▁পারে	-6.8418
▁ওই	-6.84964
▁কি	-6.85861
▁পুলিশ	-6.87637
▁বিভিন্ন	-6.88156
▁হিসেবে	-6.88651
টি	-6.88792
▁হাজার	-6.89672
▁সব	-6.89679
▁অনেক	-6.90529
▁রয়েছে	-6.92337
▁আগে	-6.9284
▁নয়	-6.95084
▁নেই	-6.95997
▁কাছে	-6.97621
▁গেছে	-6.97973
/	-6.98276
▁এখন	-6.98368
▁দিন	-6.99162
▁হতে	-6.99958
...	-7.00245
ন	-7.00348
▁আজ	-7.01695
!	-7.01753
▁নতুন	-7.01835
▁সম্পাদক	-7.02186
দের	-7.02556
▁দেওয়া	-7.02841
▁বেশি	-7.03221
▁জানান	-7.03226
▁মনে	-7.04709
▁জন	-7.05561
▁জাতীয়	-7.06122
▁পর্যন্ত	-7.06673
▁ইসলাম	-7.0824
▁কোন	-7.08272
▁দেখা	-7.0838
▁ছিলেন	-7.09582
▁বড়	-7.099
▁প্রধান	-7.12293
▁সাথে	-7.12603
▁শেষ	-7.13409
▁দেশের	-7.13674
▁সালে	-7.14783
▁দিকে	-7.1509
▁রহমান	-7.16843
▁হলে	-7.17413
▁জেলা	-7.18055
▁একটা	-7.18093
▁তাই	-7.18477
▁আরও	-7.19201
▁হোসেন	-7.19987
▁গতকাল	-7.20636
▁মাধ্যমে	-7.24263
▁দিতে	-7.252
▁এমন	-7.25296
ক	-7.25925
▁মতো	-7.26783
▁বাংলাদেশের	-7.27275
য়	-7.27779
▁প্রায়	-7.28212
▁পরে	-7.28727
ি	-7.28761
▁যা	-7.29173
▁আওয়ামী	-7.29798
▁ধরে	-7.30097
▁সরকার	-7.3093
▁মো	-7.31076
▁যাবে	-7.31319
▁থাকে	-7.32411
▁কারণে	-7.32587
▁নির্বাচন	-7.32651
;	-7.33039
▁বিরুদ্ধে	-7.33342
▁নাম	-7.33503
▁প্রতি	-7.33773
▁তথ্য	-7.33996
রা	-7.34313
▁উপজেলা	-7.34795
▁একজন	-7.34878
▁দেন	-7.35117
▁সাধারণ	-7.37338
▁১	-7.37688
▁সভাপতি	-7.37941
▁আপনার	-7.38212
▁ব্যবহার	-7.38604
▁বিষয়ে	-7.38962
▁তিন	-7.39147
▁দলের	-7.39227
▁তো	-7.39371
▁ভালো	-7.40542
▁ছাড়া	-7.40628
▁বলা	-7.41399
▁অভিযোগ	-7.41948
▁যদি	-7.42492
▁হলো	-7.42824
▁সালের	-7.42977
▁২	-7.43763
▁জানা	-7.44122
▁মানুষ	-7.44344
▁দল	-7.44865
▁১০	-7.45106
▁পাওয়া	-7.45376
▁উপজেলার	-7.47044
▁ওপর	-7.47253
▁তাকে	-7.47301
▁লাখ	-7.49801
া	-7.5019
▁শেখ	-7.50647
▁...	-7.50727
▁তখন	-7.50943
এর	-7.51035
▁কর্মকর্তা	-7.52453
▁কারণ	-7.52508
▁বছরের	-7.52691
▁করছে	-7.52897
▁দাবি	-7.53817
▁তৈরি	-7.5397
▁এসব	-7.54236
▁অংশ	-7.55056
▁খবর	-7.55143
▁এতে	-7.55186
▁কী	-7.5535
▁কেউ	-7.55441
▁তাঁদের	-7.55543
▁কোটি	-7.56043
▁সদস্য	-7.56288
▁সদর	-7.56564
স	-7.57132
▁প্রকাশ	-7.57235
▁আপনি	-7.5903
▁অন্য	-7.5906
▁পড়ে	-7.59235
▁হওয়ার	-7.59303
ী	-7.59784
টা	-7.59978
▁গিয়ে	-7.60524
▁বিশেষ	-7.61159
▁ছবি	-7.61713
▁এটা	-7.6193
▁সংবাদ	-7.61977
▁নেতা	-7.62003
▁এলাকায়	-7.62419
▁দেশে	-7.62865
▁মানুষের	-7.64382
▁নিজের	-7.65155
▁হত্যা	-7.65815
▁প্রধানমন্ত্রী	-7.66843
▁৫	-7.6728
▁খান	-7.67508
▁৩	-7.67663
▁এটি	-7.67763
▁লীগের	-7.67851
▁খুব	-7.68372
▁আবার	-7.68781
▁সেখানে	-7.68781
▁নিহত	-7.68935
▁তাঁরা	-7.69117
▁বলেছেন	-7.69953
'	-7.70578
▁বিশ্ববিদ্যালয়	-7.70609
▁চেষ্টা	-7.71148
▁একই	-7.71233
▁ধরনের	-7.71403
▁ঘটনা	-7.7225
▁সামনে	-7.72302
▁শিক্ষা	-7.726
▁দিয়েছে	-7.72886
▁যখন	-7.73252
▁চৌধুরী	-7.73405
▁স্থানীয়	-7.7341
▁সরকারের	-7.73557
▁করবে	-7.73936
▁বেশ	-7.74106
▁শুধু	-7.74643
▁নামে	-7.74759
▁চেয়ারম্যান	-7.74884
▁তুলে	-7.74942
▁৪	-7.74947
▁অনুষ্ঠিত	-7.75049
▁ঘোষণা	-7.75082
▁পারেন	-7.7589
▁বিএনপির	-7.76972
▁মামলা	-7.77042
এ	-7.77292
▁হক	-7.77392
▁কম	-7.77898
▁ফলে	-7.78109
▁"""	-7.78242
—	-7.78587
▁তাঁকে	-7.78597
▁দেয়	-7.7864
▁নিতে	-7.79412
▁সরকারি	-7.79418
▁করছেন	-7.79451
▁যাচ্ছে	-7.79644
▁বন্ধ	-7.79672
▁নভেম্বর	-7.79688
▁ক্ষেত্রে	-7.80001
▁চট্টগ্রাম	-7.80184
▁নারী	-7.80747
▁ব্যবস্থা	-7.8077
▁হয়নি	-7.80986
▁চলে	-7.81011
▁উত্তর	-7.813
▁হন	-7.81547
▁হয়েছিল	-7.81607
▁সাবেক	-7.82059
▁হাতে	-7.82418
১	-7.82651
▁এবার	-7.83165
▁থাকা	-7.8391
▁যেতে	-7.83958
▁দেশ	-7.84546
▁২০	-7.84586
▁বাংলা	-7.84631
▁সুযোগ	-7.84874
▁এরপর	-7.84905
▁২০১৮	-7.85081
▁করুন	-7.85134
▁দিয়েছেন	-7.86412
▁দেয়া	-7.86482
▁আলী	-7.8675
▁গ্রামের	-7.87198
▁দুটি	-7.87331
▁বিএনপি	-7.8747
▁আল	-7.87575
▁ভারতের	-7.87816
▁চার	-7.88001
"	-7.8812
▁১৫	-7.88607
▁আগামী	-7.89044
▁শতাংশ	-7.89198
▁প্রকাশিত	-7.89361
▁হল	-7.89486
▁মে	-7.8975
▁এখানে	-7.90126
▁আন্তর্জাতিক	-7.90366
▁মা	-7.90718
▁যান	-7.91047
▁এম	-7.91288
▁কে	-7.92837
▁করি	-7.92977
),	-7.93214
▁৬	-7.93278
▁কেন	-7.93409
▁তাহলে	-7.93508
▁দু	-7.93788
▁যেন	-7.94274
▁বিষয়টি	-7.94308
▁সবচেয়ে	-7.9434
▁নির্বাচনে	-7.95382
▁নেওয়া	-7.95473
▁ছেলে	-7.95645
▁“	-7.95869
▁উদ্ধার	-7.95909
▁কলেজ	-7.96227
▁দ্বিতীয়	-7.96397
▁করবেন	-7.96462
▁বৃহস্পতিবার	-7.96475
▁উপস্থিত	-7.97016
▁বুধবার	-7.975
▁আরো	-7.97624
▁নিশ্চিত	-7.97777
▁'	-7.97879
▁পুলিশের	-7.98017
▁সেপ্টেম্বর	-7.98447
▁রাতে	-7.98503
▁(1)	-7.98795
▁সোমবার	-7.99042
▁অক্টোবর	-7.99239
▁মঙ্গলবার	-7.99322
▁জুন	-7.99562
▁জুলাই	-7.99926
▁ঘটনায়	-8.00159
▁হওয়া	-8.00216
▁শেষে	-8.00418
ল	-8.00484
▁ঠিক	-8.00567
▁২০১৭	-8.00567
▁সকাল	-8.01044
▁আইন	-8.01516
▁মার্চ	-8.01827
▁থানার	-8.02426
▁রাজনৈতিক	-8.02582
▁হয়েছেন	-8.02585
▁আলোচনা	-8.02624
ত	-8.0269
▁করলে	-8.02698
▁দেখে	-8.03785
ঃ	-8.03797
▁প্রশ্ন	-8.03839
▁এলাকার	-8.04136
▁অনুষ্ঠানে	-8.04199
▁এসে	-8.04549
▁বাড়ি	-8.04796
▁থাকবে	-8.04827
▁মোহাম্মদ	-8.04951
▁নানা	-8.04974
▁দেওয়ার	-8.05084
▁আলম	-8.05183
▁অর্থ	-8.05337
৷	-8.05606
▁শনিবার	-8.05626
▁আহমেদ	-8.05929
▁ডিসেম্বর	-8.06036
▁আহত	-8.06171
▁শিক্ষক	-8.06368
▁হাসপাতালে	-8.06667
▁বিভাগের	-8.06696
▁শুক্রবার	-8.06717
▁মুছলিম	-8.06921
▁সময়ে	-8.07108
▁যারা	-8.07382
▁পক্ষে	-8.07411
▁চলছে	-8.07437
▁সিদ্ধান্ত	-8.07903
▁সম্পর্কে	-8.08445
▁বক্তব্য	-8.0856
২	-8.08701
▁রাত	-8.08831
▁৩০	-8.08866
▁আটক	-8.08916
▁চেয়ে	-8.08936
▁৭	-8.0898
▁পাশাপাশি	-8.09125
▁এপ্রিল	-8.0939
▁জানতে	-8.09462
▁জানিয়েছেন	-8.09496
▁দক্ষিণ	-8.10174
▁মাস	-8.10308
▁ছোট	-8.10573
▁৮	-8.10693
s	-8.10714
▁ব্যাপারে	-8.10754
▁থেকেই	-8.10759
ম	-8.10838
▁পরিচালক	-8.10953
▁১২	-8.11172
▁উদ্দিন	-8.11437
▁কমিটির	-8.11583
▁২০১৬	-8.11835
গুলো	-8.12255
▁মাত্র	-8.12312
▁যেমন	-8.12392
▁দেখতে	-8.12632
▁পাঁচ	-8.12864
▁যাওয়ার	-8.13041
▁সেটা	-8.13296
▁গ্রেপ্তার	-8.13384
▁অনুযায়ী	-8.13667
▁পানি	-8.13867
▁বের	-8.13984
▁রাখা	-8.14088
▁হলেও	-8.14095
▁সকালে	-8.14153
▁পরীক্ষা	-8.1447
▁সকল	-8.15032
▁দায়িত্ব	-8.15206
▁অন্যান্য	-8.15493
▁উপর	-8.1556
▁ব্যাংক	-8.15818
▁গ্রহণ	-8.15966
▁সমস্যা	-8.16311
▁ভর্তি	-8.16607
▁রেখে	-8.16666
▁নির্বাহী	-8.17116
▁শিশু	-8.1722
▁নামের	-8.17454
▁১১	-8.17902
▁বলতে	-8.1828
▁সাড়ে	-8.18708
▁লেখা	-8.19083
▁হাত	-8.19138
▁আমাকে	-8.1945
▁সম্ভব	-8.20128
▁৯	-8.20209
▁আগস্ট	-8.20412
▁বিষয়	-8.20465
▁অব	-8.2086
▁পালন	-8.21259
▁লীগ	-8.21331
▁সংসদ	-8.2149
▁আছেন	-8.21732
▁খালেদা	-8.21757
▁ভারত	-8.21994
▁বাংলাদেশে	-8.22571
▁(1	-8.22797
▁আদালত	-8.23163
▁হাসান	-8.23239
▁উন্নয়ন	-8.2344
▁ইউনিয়নের	-8.23516
▁"	-8.23682
▁প্রার্থী	-8.23737
▁আসে	-8.23932
▁বাবা	-8.23977
▁সবাই	-8.24044
▁পেয়ে	-8.24271
▁এগিয়ে	-8.24548
▁সৃষ্টি	-8.24861
▁ইছলাম	-8.24967
▁পরিবারের	-8.24971
▁পারবেন	-8.25524
▁কাজে	-8.25603
▁ভোট	-8.25636
▁সংখ্যা	-8.25796
▁আবদুল	-8.25828
▁টি	-8.2627
▁মন্তব্য	-8.26302
▁অবস্থায়	-8.26499
▁কয়েক	-8.26566
▁সড়ক	-8.26676
▁দিনের	-8.26862
▁থাকতে	-8.26877
▁ইউনিয়ন	-8.26931
▁হামলা	-8.27206
▁গেল	-8.27241
"""	-8.27265
▁একটু	-8.27417
▁রান	-8.27822
▁কেন্দ্রীয়	-8.28036
▁জীবন	-8.28115
▁নম্বর	-8.28494
▁প্রাথমিক	-8.28611
▁নিউজ	-8.28655
▁যাওয়া	-8.28748
▁ঘটে	-8.28752
▁রাখতে	-8.29132
▁2018	-8.29474
▁ফোন	-8.29654
▁১৪	-8.29693
▁বর্তমান	-8.29741
▁এখনো	-8.30039
▁জানায়	-8.30067
▁রায়	-8.30106
▁বাইরে	-8.30241
▁এলাকা	-8.30356
▁যার	-8.30764
▁রোববার	-8.31309
▁প্রয়োজন	-8.31424
▁আয়োজন	-8.3174
▁–	-8.31776
▁যোগাযোগ	-8.31808
▁গড়ে	-8.31838
▁ফিরে	-8.31864
▁মার্কিন	-8.32139
▁স্বাস্থ্য	-8.32197
▁প্রতিনিধি	-8.3282
▁ডেস্ক	-8.32849
▁ড	-8.33179
▁চাই	-8.33502
▁মাঠে	-8.3356
▁প্রদান	-8.34223
▁নিজেদের	-8.34368
▁ম্যাচে	-8.34836
▁১৮	-8.35211
▁আলোকে	-8.35564
▁বর্তমানে	-8.35631
▁ঘটনার	-8.35632
▁বিপক্ষে	-8.35779
▁আবেদন	-8.35865
▁মারা	-8.36105
▁ভাই	-8.36155
▁ভিডিও	-8.36259
▁মাসে	-8.36502
▁উল্লেখ	-8.37014
▁ম্যাচ	-8.37247
▁অবস্থান	-8.37638
▁ফেব্রুয়ারি	-8.37733
▁যোগ	-8.37959
▁মত	-8.38088
▁বেগম	-8.38268
▁আশা	-8.38463
▁কোনও	-8.38502
▁প্রেসিডেন্ট	-8.38521
▁গান	-8.38555
▁স্ত্রী	-8.38579
▁জানুয়ারি	-8.38652
▁কাছ	-8.38671
▁প্রতিষ্ঠান	-8.38768
▁the	-8.38823
▁বিক্রি	-8.38912
▁১৬	-8.38931
▁২৫	-8.38964
▁গেলে	-8.39149
▁মূল	-8.39154
ভাবে	-8.39586
▁কিংবা	-8.39656
▁গুরুত্বপূর্ণ	-8.4013
▁২০১৫	-8.4019
▁সভায়	-8.4033
▁করেছিলেন	-8.40482
▁মাঝে	-8.4061
▁মোবাইল	-8.4062
▁১৩	-8.40667
▁ভারতীয়	-8.40858
▁শহরের	-8.41149
▁আ	-8.41608
▁বসে	-8.41963
▁পথে	-8.42101
▁অথবা	-8.42318
▁জেলার	-8.4248
▁পাশে	-8.4275
▁মামলার	-8.42998
▁ক্রিকেট	-8.43318
▁এসেছে	-8.4341
▁অধ্যাপক	-8.43497
▁বাড়িতে	-8.43715
▁মামলায়	-8.43746
আ	-8.44008
▁পক্ষ	-8.44076
▁ডলার	-8.4424
▁সহ	-8.44286
▁ব্যক্তি	-8.44971
▁আসা	-8.45025
▁২৪	-8.45115
”	-8.45297
▁জানিয়েছে	-8.45359
▁•	-8.45417
▁তদন্ত	-8.45428
▁পরিষদের	-8.45586
▁নিরাপত্তা	-8.45683
▁বাস	-8.45728
▁বিশ্বাস	-8.45793
▁দাম	-8.45856
▁স্কুল	-8.46147
▁সম্প্রতি	-8.46325
▁সিটি	-8.46499
▁এত	-8.46506
▁হাসিনা	-8.46583
▁কমিটি	-8.46654
▁খেলা	-8.46759
▁নির্দেশ	-8.46967
▁আদালতে	-8.47075
▁সারা	-8.4713
▁সহকারী	-8.47189
▁ছাত্র	-8.47262
▁বাজার	-8.47365
▁থানায়	-8.47385
▁লাশ	-8.47736
টির	-8.47774
▁অভিযান	-8.47787
▁অতিরিক্ত	-8.48187
▁মোট	-8.48436
▁সিলেট	-8.48463
▁সামাজিক	-8.48893
▁আগের	-8.48977
▁চান	-8.49129
▁থাকার	-8.49343
▁মৃত্যু	-8.49771
▁জানানো	-8.50079
▁কর্তৃক	-8.50099
▁টাকার	-8.5031
▁তাতে	-8.5051
না	-8.50547
▁কামাল	-8.51076
▁চাইলে	-8.51206
▁সূত্রে	-8.51412
▁সর্বোচ্চ	-8.51451
▁নং	-8.51495
▁হয়তো	-8.51586
▁সবার	-8.51783
▁পরিকল্পনা	-8.52145
▁শিক্ষার্থীদের	-8.5229
▁of	-8.52363
৩	-8.5239
▁মেয়ে	-8.52499
▁১৭	-8.52584
▁দিনে	-8.52628
▁সূত্র	-8.52803
▁দ্রুত	-8.5283
▁বই	-8.52976
▁জয়	-8.53188
▁চালিয়ে	-8.53222
▁যেখানে	-8.5339
▁***	-8.53701
▁কয়েকটি	-8.53766
▁হলেন	-8.53809
▁বেলা	-8.53831
–	-8.53908
▁মিয়া	-8.5391
ঢাকা	-8.53982
▁এদিকে	-8.54032
▁নির্বাচনের	-8.54159
▁আবু	-8.54233
▁মোঃ	-8.54313
▁পরিবার	-8.54459
▁রাজধানীর	-8.54697
▁উপলক্ষে	-8.54788
▁দুপুরে	-8.54889
▁অবশ্য	-8.54994
▁ঢাকার	-8.55081
▁কেন্দ্র	-8.55253
▁মনোনয়ন	-8.55308
▁মেডিকেল	-8.55374
▁নেন	-8.5543
▁অন্যতম	-8.55513
▁মুখে	-8.55899
▁বিশ্বের	-8.56092
▁সভা	-8.56121
(	-8.56179
▁পরিবর্তন	-8.5623
▁গল্প	-8.56321
▁পান	-8.56338
▁উচিত	-8.5637
▁ছেড়ে	-8.56387
▁বাজারে	-8.56716
▁+	-8.56741
▁পেতে	-8.56845
▁আবুল	-8.56962
▁হার	-8.57025
▁থাকলে	-8.57598
ব	-8.58082
▁৫০	-8.58413
▁বছরে	-8.58414
▁খ	-8.58666
▁নিজ	-8.58824
▁ভারপ্রাপ্ত	-8.59119
]	-8.59416
▁সংস্থা	-8.59756
▁যাতে	-8.5979
▁তিনটি	-8.59899
▁অ	-8.60279
▁প্রতিটি	-8.60405
▁[	-8.60527
▁ভাগ	-8.60698
▁গাড়ি	-8.61209
▁প্রতিবেদন	-8.61285
▁বিয়ে	-8.61306
▁করেছিল	-8.61347
▁বিশ্ব	-8.6167
▁করেছি	-8.61768
▁থাকেন	-8.61795
▁ভুল	-8.61805
▁উঠে	-8.61824
▁২১	-8.61941
▁বললেন	-8.62172
▁গ্রামে	-8.62414
▁অ্যান্ড	-8.62434
▁ব্যাংকের	-8.62513
▁শিকার	-8.62861
▁অবস্থা	-8.629
▁পায়	-8.63058
▁ধরা	-8.63323
▁বিস্তারিত	-8.63334
▁পুরস্কার	-8.6353
▁মধ্য	-8.63591
▁মিডিয়া	-8.63855
▁মুক্তি	-8.63921
▁সেবা	-8.63997
▁মেয়র	-8.64108
▁পাঠানো	-8.64122
▁পরিচালনা	-8.64177
▁প্রযুক্তি	-8.6418
▁আহমদ	-8.64211
▁পড়তে	-8.64475
▁অধিকার	-8.64713
▁জমা	-8.64764
▁গোল	-8.64979
▁দলীয়	-8.6512
▁২০১৪	-8.65296
▁ধারণা	-8.65388
ো	-8.6543
▁নেওয়ার	-8.65469
▁এছাড়া	-8.65543
▁রোড	-8.65591
▁জানিয়ে	-8.65988
▁করছি	-8.66061
▁লক্ষ্য	-8.66196
▁আগেই	-8.66266
▁চায়	-8.66444
▁ছয়	-8.66479
▁১৯	-8.66541
▁রকম	-8.66578
▁বার্তা	-8.66612
▁উচ্চ	-8.66619
▁স্থানে	-8.66721
▁বঙ্গবন্ধু	-8.6678
▁মাসের	-8.66834
▁তৃতীয়	-8.66842
▁পুরো	-8.67004
▁সচিব	-8.67244
▁হামলার	-8.67316
▁পদে	-8.67329
▁২২	-8.67571
▁কর্তৃপক্ষ	-8.67606
▁দীর্ঘ	-8.678
▁যদিও	-8.67871
▁ধর্ম	-8.67913
▁উইকেট	-8.67941
▁হওয়ায়	-8.68031
▁লাভ	-8.68296
▁অভিযোগে	-8.68348
▁কর	-8.68359
▁হিসাবে	-8.68862
▁সম্পর্ক	-8.68869
▁অতিথি	-8.68878
▁সম্মেলনে	-8.68955
▁কার্যক্রম	-8.6897
▁অভিনয়	-8.69037
▁আসছে	-8.69103
▁নির্মাণ	-8.69117
▁*	-8.69172
▁সাত	-8.69195
▁স	-8.69259
▁অনুমতি	-8.69265
▁ফেলে	-8.69524
▁বিচার	-8.69731
▁শেয়ার	-8.69986
▁কুমার	-8.7012
▁অনলাইন	-8.70227
▁পরিমাণ	-8.7024
▁ঘরে	-8.70246
▁সেরা	-8.70257
▁খাবার	-8.70711
▁পড়েছে	-8.70829
▁চালু	-8.7085
▁শিক্ষার্থী	-8.70951
▁নেয়া	-8.71026
▁পরীক্ষার	-8.71461
▁অনুষ্ঠান	-8.71566
▁কখনো	-8.71863
শ	-8.71869
▁সৌদি	-8.72055
▁নির্বাচিত	-8.7209
সিলেট	-8.72189
▁নিয়োগ	-8.7226
▁বার	-8.72384
▁পাওয়ার	-8.72385
▁সাংবাদিক	-8.72393
▁পথ	-8.72562
▁২৩	-8.72731
ময়মনসিংহ	-8.73148
▁নাকি	-8.73212
ুল	-8.7325
▁কাদের	-8.73462
▁পারবে	-8.73487
▁ভাল	-8.73675
▁চিকিৎসা	-8.73714
▁পারি	-8.73874
▁আসলে	-8.7399
▁প্রমুখ	-8.74023
▁অফিস	-8.74325
গুলি	-8.74375
▁বিশ্ববিদ্যালয়ে	-8.74455
▁সেটি	-8.74508
▁কক্সবাজার	-8.7459
▁বি	-8.74603
▁কমিশন	-8.74821
▁বিকেলে	-8.74928
▁লোক	-8.74941
▁2017	-8.75022
▁2016	-8.75054
▁মালিক	-8.75344
▁সময়ের	-8.75354
▁মন্ত্রী	-8.75424
▁সম্পূর্ণ	-8.75712
▁আহ্বান	-8.75737
▁জিয়া	-8.75794
▁দ্বারা	-8.75838
▁সংশ্লিষ্ট	-8.76226
▁হারিয়ে	-8.76425
▁পূর্ব	-8.76447
▁ভূমিকা	-8.76454
▁নিয়েছে	-8.76463
▁লিমিটেড	-8.76472
▁মহিলা	-8.76482
▁ছবির	-8.76734
▁ফুটবল	-8.76863
▁হোক	-8.76966
▁দরকার	-8.77018
▁এস	-8.77052
▁ফল	-8.77166
▁ভাবে	-8.77174
▁ঢাকায়	-8.77354
▁পাকিস্তান	-8.77581
▁নিজস্ব	-8.77761
খুলনা	-8.77869
▁স্থান	-8.77875
▁কত	-8.77957
▁বাকি	-8.77973
▁কীভাবে	-8.78367
▁জনপ্রিয়	-8.78582
রংপুর	-8.78584
▁পর্যায়ে	-8.78619
▁সংগ্রহ	-8.78622
▁দো	-8.78985
▁মুখ	-8.79103
▁করলেন	-8.7913
▁পরিষদ	-8.79143
▁সুপার	-8.79262
▁গ	-8.79386
▁যায়নি	-8.79439
▁কাজের	-8.79516
▁নিন	-8.79522
▁গ্রেফতার	-8.79612
▁নেয়	-8.79705
▁তারপর	-8.7979
▁খুবই	-8.79792
▁কৃষি	-8.79832
▁আব্দুল	-8.7987
▁মুসলিম	-8.79901
বরিশাল	-8.80253
▁যুক্তরাষ্ট্রের	-8.80279
▁লোকজন	-8.80362
▁সাহায্য	-8.8039
▁গুলি	-8.80686
▁বয়সী	-8.81055
রাজশাহী	-8.81069
▁বল	-8.81264
▁জন্ম	-8.8128
▁অপরাধ	-8.81343
▁বৃদ্ধি	-8.81345
▁বিজ্ঞপ্তি	-8.81351
▁আন্দোলন	-8.81446
▁কলেজের	-8.81804
▁২০১৩	-8.81871
▁থাকায়	-8.81998
▁অথচ	-8.82005
▁হতো	-8.82072
‘	-8.82117
▁পণ্য	-8.82353
▁তুমি	-8.82544
▁গঠন	-8.82631
▁পরিস্থিতি	-8.82786
▁এমনকি	-8.82871
▁বিদ্যুৎ	-8.82887
▁পরিবেশ	-8.829
গ	-8.82955
হ	-8.82964
▁জড়িত	-8.8297
▁বেড়ে	-8.83156
▁জায়গা	-8.83222
▁কয়েকজন	-8.83271
▁শহীদ	-8.83366
▁ঘ	-8.83576
▁সংগঠন	-8.83711
▁জনকে	-8.8378
▁শিল্প	-8.83784
▁রাখার	-8.83834
▁টেস্ট	-8.83908
▁জায়গায়	-8.83962
▁ভাষা	-8.84102
আমি	-8.84126
▁২৭	-8.84133
▁আয়	-8.8415
▁দলে	-8.84431
▁আলো	-8.84495
▁পাকিস্তানের	-8.8451
▁ঋণ	-8.84538
▁ক্ষমতা	-8.84574
▁অনেকেই	-8.84756
▁অন্তত	-8.84825
▁রাজশাহী	-8.84913
---	-8.85043
▁২৮	-8.85127
▁মন	-8.85199
▁আসতে	-8.85229
▁দ্য	-8.85241
▁প্রকল্প	-8.85251
▁কর্মসূচি	-8.85294
▁কঠিন	-8.85319
▁বিজ্ঞাপন	-8.85329
▁অবশ্যই	-8.85399
▁পা	-8.8555
▁নিয়মিত	-8.85591
▁উদ্যোগ	-8.85621
▁দিক	-8.85697
▁উদ্বোধন	-8.85795
▁গেছেন	-8.86021
▁সুবিধা	-8.86146
▁২৬	-8.86506
▁বিজ্ঞান	-8.86552
▁কোম্পানি	-8.86642
▁ভেঙে	-8.86648
▁নেতৃত্বে	-8.87084
▁প্রস্তাব	-8.87105
▁উঠেছে	-8.87129
▁থানা	-8.87147
▁গ্রুপ	-8.87196
▁শীর্ষ	-8.87199
▁পরিচয়	-8.87215
▁বাহিনীর	-8.8724
▁ইতিহাস	-8.87245
▁ইত্যাদি	-8.87345
▁স্বামী	-8.87413
ার	-8.87775
▁৪০	-8.87812
▁পেয়েছে	-8.87825
▁বেসরকারি	-8.87834
▁প্রতিদিন	-8.8788
▁খরচ	-8.87889
▁নেমে	-8.87979
▁ব্যবসা	-8.88005
্	-8.88047
▁বয়স	-8.88165
▁চলতি	-8.88203
▁বাড়ির	-8.8845
তা	-8.88498
▁প্রশ্নের	-8.88532
▁সংক্রান্ত	-8.88774
▁অনেকে	-8.88835
▁অর্থাৎ	-8.89087
▁পরিচিত	-8.89225
৩০	-8.89316
▁শ্রমিক	-8.89391
▁দিবস	-8.89403
▁জীবনের	-8.89425
▁নিজেকে	-8.89463
▁যুক্ত	-8.89553
▁মাদক	-8.89677
▁চলচ্চিত্র	-8.89731
▁সঠিক	-8.89804
▁আগুন	-8.8995
▁দেয়ার	-8.90114
▁সাল	-8.90118
▁কাল	-8.90151
৫	-8.90186
▁বলছেন	-8.90203
▁গ্রাম	-8.90235
▁পাবেন	-8.90337
▁ব্যবসায়ী	-8.9037
▁রাখেন	-8.90417
▁মাহমুদ	-8.90527
▁ফেসবুক	-8.90573
▁মাথায়	-8.90579
▁and	-8.91001
▁কার্যালয়	-8.9124
গুলোর	-8.91319
▁প্রচার	-8.91471
▁জমি	-8.91475
▁মন্ত্রণালয়ের	-8.91524
▁পেয়েছেন	-8.91585
▁দেশটির	-8.91678
▁মডেল	-8.92054
▁রয়েছেন	-8.92086
▁তারিখ	-8.92404
▁তালিকা	-8.92463
▁কোম্পানির	-8.92554
▁জেনারেল	-8.92636
▁শাহ	-8.92796
▁কাজী	-8.92867
▁প্রমাণ	-8.92897
▁অধিনায়ক	-8.92949
▁মৃত	-8.93019
▁দেবে	-8.93024
▁ছাত্রলীগের	-8.93214
▁মহানগর	-8.93313
▁ছড়িয়ে	-8.93381
▁তোমার	-8.93577
▁কমে	-8.93675
рж	-8.93894
▁(2)	-8.93929
▁আনা	-8.94014
▁আপনাকে	-8.94018
▁সহজ	-8.9413
▁জনের	-8.94293
▁দশমিক	-8.94325
▁অর্জন	-8.94331
▁হত্যার	-8.94341
▁আসার	-8.94447
▁সৈয়দ	-8.94481
▁নদী	-8.94491
▁উদ্যোগে	-8.94502
▁সাংবাদিকদের	-8.94504
▁নিচে	-8.94616
▁বিরোধী	-8.94843
▁৩১	-8.9491
▁কোচ	-8.95012
▁ব্যবস্থাপনা	-8.95079
▁মেনে	-8.95169
▁বলেছে	-8.9518
▁প্রধানমন্ত্রীর	-8.95203
▁পরামর্শ	-8.95332
▁উপজেলায়	-8.95361
▁শহর	-8.95377
▁প্রথমে	-8.95395
▁প্রস্তুতি	-8.95436
▁জিয়ার	-8.95657
▁২৯	-8.9571
▁গবেষণা	-8.95855
▁বুঝতে	-8.95867
৪	-8.95924
▁আইনজীবী	-8.95937
▁আর্থিক	-8.96048
▁ব্যাপক	-8.96257
▁মূল্য	-8.96402
▁চিন্তা	-8.96462
▁চুক্তি	-8.96573
▁কিছুটা	-8.96599
▁দৈনিক	-8.96708
▁আল্লাহ	-8.96763
▁প্রভাব	-8.96808
▁থাকলেও	-8.9688
▁খুঁজে	-8.9691
▁সহায়তা	-8.97112
ড	-8.97141
▁কোথাও	-8.9735
▁মাছ	-8.97469
▁আলাদা	-8.97472
▁যত	-8.978
▁আসামি	-8.97862
▁বরং	-8.97876
▁তরুণ	-8.98036
▁আয়োজিত	-8.9813
▁হামলায়	-8.98195
▁সি	-8.98299
▁দাবিতে	-8.98359
▁প্রতিষ্ঠানের	-8.98363
▁বৈঠক	-8.98586
▁কার্যালয়ে	-8.98595
▁সংগঠনের	-8.98688
▁করব	-8.98759
▁সরাসরি	-8.98802
▁স্বাভাবিক	-8.98927
▁উপ	-8.98942
▁আদায়	-8.99106
▁দিলে	-8.99109
▁আসেন	-8.99386
▁কেবল	-8.99491
▁বিষয়ক	-8.995
▁শহরে	-8.99536
তম	-8.99659
▁মন্ত্রণালয়	-8.99789
▁নিয়ন্ত্রণ	-9.00181
▁ওঠে	-9.00188
▁সুন্দর	-9.0044
▁খারাপ	-9.00491
▁অস্ত্র	-9.00495
▁to	-9.00622
▁লক্ষ্যে	-9.00629
▁বাধা	-9.00821
▁বৈঠকে	-9.00986
▁চোখ	-9.0099
▁ব্লক	-9.01015
▁বন্ধু	-9.01163
▁ডি	-9.01201
▁পরবর্তী	-9.01227
▁স্বপ্ন	-9.01232
▁নাগরিক	-9.0135
▁বাসায়	-9.01379
▁”	-9.01395
▁আসনে	-9.01539
▁দূর	-9.01572
▁নিয়েছেন	-9.01628
▁সন্তান	-9.01643
▁ইসলামী	-9.01933
চট্রগ্রাম	-9.02041
▁জঙ্গি	-9.02049
নি	-9.02189
▁মিনিটে	-9.02321
▁২০১২	-9.02372
▁যুগ্ম	-9.02393
▁আদেশ	-9.02488
▁সভাপতিত্বে	-9.0255
▁খেলার	-9.02564
▁করায়	-9.02582
▁চা	-9.02602
▁কবির	-9.02684
▁রক্ষা	-9.02713
▁কমিশনার	-9.02786
▁a	-9.02918
▁আনন্দ	-9.03219
▁৯৮২	-9.03224
▁১০০	-9.03256
পুর	-9.03265
▁যেকোনো	-9.03381
▁অন্যদিকে	-9.0341
▁বহু	-9.03453
▁ঘণ্টা	-9.03474
▁চাপ	-9.03603
▁দিচ্ছে	-9.03604
▁এন্ড	-9.03636
▁মিনিট	-9.03672
▁চূড়ান্ত	-9.03692
▁অফিসার	-9.0376
▁কারও	-9.03828
▁বলছে	-9.03903
▁আরেক	-9.0393
▁একাধিক	-9.03937
▁বাদ	-9.03993
▁একমাত্র	-9.04005
০	-9.04309
▁পয়েন্ট	-9.04315
▁নজরুল	-9.04424
▁শিশুদের	-9.04528
▁বিদ্যালয়ের	-9.04541
▁বিদ্যালয়	-9.04744
▁যেসব	-9.04819
▁প্রশাসন	-9.05125
▁ভবন	-9.05155
▁রোহিঙ্গা	-9.05169
▁কেটে	-9.05232
▁সহযোগিতা	-9.05285
▁পড়া	-9.05326
▁দিলেন	-9.05349
▁ভেতরে	-9.05611
▁২০১১	-9.05645
▁বিমান	-9.05719
▁সম্মেলন	-9.06048
▁কিভাবে	-9.06118
▁রাজনীতি	-9.06322
সি	-9.06438
ট	-9.06521
▁আপনাদের	-9.06562
▁ঘটেছে	-9.0659
▁কিলোমিটার	-9.06646
▁হঠাৎ	-9.06696
▁পরিবহন	-9.07005
▁জনগণের	-9.07008
▁সদস্যরা	-9.07058
▁ভিত্তিতে	-9.07135
▁পেছনে	-9.07145
▁আইনে	-9.0715
▁হাসপাতালের	-9.07284
▁অর্থনৈতিক	-9.07364
২০	-9.07394
▁সমিতির	-9.07395
▁নারীদের	-9.07542
▁ইসলামের	-9.07705
▁রহমানের	-9.08006
▁স্বাধীনতা	-9.08039
▁পার	-9.08116
▁ছবিতে	-9.08129
▁আদালতের	-9.08154
▁চোখে	-9.08155
▁পার্টির	-9.08246
▁খুলনা	-9.08258
▁এভাবে	-9.08371
▁স্বীকার	-9.08448
▁সন্ধ্যায়	-9.08772
▁রানের	-9.08772
▁আইনের	-9.08833
▁নিষিদ্ধ	-9.08944
দ	-9.09066
▁in	-9.09085
▁বিয়ের	-9.09218
▁নদীর	-9.09234
▁লাগে	-9.09299
▁নির্বাচনী	-9.09316
▁কবি	-9.09473
▁দাঁড়িয়ে	-9.09491
%	-9.09494
▁শব্দ	-9.0952
▁পোশাক	-9.09582
▁কবিতা	-9.09624
▁এদের	-9.09657
▁বিশাল	-9.09856
▁ব্যক্তিগত	-9.10021
▁মাথা	-9.10092
▁লাল	-9.10125
▁যৌন	-9.10261
▁সর্বশেষ	-9.10363
▁জরুরি	-9.10412
▁2015	-9.10441
▁সম্ভাবনা	-9.10457
▁প্রয়োজনীয়	-9.10512
▁বাহিনী	-9.10666
৬	-9.10735
▁ওয়েবসাইট	-9.10785
▁সম্পন্ন	-9.10918
▁প্রশিক্ষণ	-9.11133
▁ব্যক্তির	-9.11262
▁পারেনি	-9.11294
▁খুলে	-9.11337
▁বোর্ড	-9.114
▁করতেন	-9.11479
▁এখনও	-9.11503
▁তেমন	-9.11589
▁খেলতে	-9.11647
▁ঘুরে	-9.11698
▁কিছুই	-9.11705
▁অবস্থিত	-9.11911
▁হুমকি	-9.11932
▁শক্তি	-9.11938
▁বাধ্য	-9.11941
▁কারাগারে	-9.11949
▁করিম	-9.12023
▁ভিন্ন	-9.12045
▁নেতারা	-9.12059
▁তারকা	-9.12078
▁রেকর্ড	-9.12107
▁মতে	-9.12129
▁পদক্ষেপ	-9.12144
▁ভাষায়	-9.12193
▁শান্তি	-9.122
▁প্রসঙ্গে	-9.12219
▁কেমন	-9.12262
▁পৌর	-9.12304
▁বিকেল	-9.12313
▁ওবায়দুল	-9.12372
▁রানে	-9.12483
▁নাই	-9.12647
▁মূলত	-9.12684
▁সমর্থন	-9.12687
▁বেড়েছে	-9.12782
▁মধ্যেই	-9.12801
▁জানি	-9.12851
▁একবার	-9.12963
▁রিপোর্ট	-9.1302
▁মৃত্যুর	-9.13118
▁কিনা	-9.13199
▁একাদশ	-9.13205
▁মানে	-9.1329
▁মুদ্রিত	-9.13324
▁ধর্মীয়	-9.13486
▁অনুরোধ	-9.1351
▁হিসাব	-9.13556
▁ধর্ষণ	-9.13613
▁সাংসদ	-9.13716
▁সমাধান	-9.13849
▁বিতরণ	-9.13969
▁পবিত্র	-9.13986
▁দুপুর	-9.14123
▁মানুষকে	-9.14131
▁নারীর	-9.14299
▁বিশ্বকাপ	-9.14324
▁ফ্যাক্স	-9.14334
▁বাতিল	-9.14446
▁ছাড়াও	-9.14458
▁আসবে	-9.14466
▁ঘর	-9.14562
▁মহাসচিব	-9.14644
▁পৃথিবীর	-9.14927
▁যুক্তরাষ্ট্র	-9.1534
▁পাবে	-9.15372
▁কর্মী	-9.15587
▁আক্রান্ত	-9.15634
▁মান	-9.15655
▁পরিণত	-9.15725
বি	-9.15819
▁প্রিয়	-9.15858
▁নি	-9.15869
▁জাতির	-9.1603
▁দূরে	-9.16187
▁স্থায়ী	-9.16244
▁কোথায়	-9.16275
▁মুক্তিযোদ্ধা	-9.16378
▁সামরিক	-9.16464
▁আক্তার	-9.16513
▁আরব	-9.16571
▁হাসপাতাল	-9.16603
▁হাজির	-9.16836
▁আট	-9.16839
▁গোলাম	-9.16883
▁কাউকে	-9.16893
▁প্রতিবেদনে	-9.16961
▁সন্ধ্যা	-9.16966
▁পছন্দ	-9.1704
▁অত্যন্ত	-9.17082
▁অবৈধ	-9.17116
▁ঐ	-9.17544
▁ম্যাচের	-9.17638
▁রাজধানী	-9.17693
▁প্রেস	-9.17809
▁২০১০	-9.17838
▁প্রকল্পের	-9.1785
▁পুরুষ	-9.18069
▁চলাচল	-9.181
▁গোলে	-9.18111
▁অনুমোদন	-9.18215
▁আরেকটি	-9.18238
▁বিচারপতি	-9.18274
▁দখল	-9.18483
▁সফল	-9.18515
▁সত্য	-9.18528
▁ইত্তেফাক	-9.18538
▁জীবনে	-9.18546
▁ব্যয়	-9.18682
▁স্থাপন	-9.18702
@	-9.18759
▁রাস্তা	-9.18879
▁সিনিয়র	-9.19022
▁তালিকায়	-9.19044
▁গভীর	-9.19159
▁চাকরি	-9.19285
a	-9.19298
▁শিক্ষার্থীরা	-9.19355
▁উৎসব	-9.19358
▁সড়কের	-9.1953
▁পালিয়ে	-9.19589
▁প্রবেশ	-9.19869
▁দায়ের	-9.20045
▁জানুয়ারী	-9.202
▁চিকিৎসক	-9.20217
▁ভারতে	-9.2026
▁চট্টগ্রামের	-9.2033
▁পার্বত্য	-9.20498
▁লেখক	-9.20608
▁আসন	-9.20654
▁পারেননি	-9.2078
▁ফলাফল	-9.20827
▁ফরম	-9.20842
▁ইংরেজি	-9.20925
মা	-9.21097
▁সাংস্কৃতিক	-9.21107
▁দোকান	-9.21107
▁উৎপাদন	-9.21264
▁ভয়	-9.2136
▁তুলনায়	-9.21393
▁প্রতিবাদ	-9.21532
▁সবাইকে	-9.21578
▁মায়ের	-9.21792
▁গুরুত্ব	-9.21798
▁সমাজ	-9.22012
▁হিন্দু	-9.22096
▁চারটি	-9.22273
▁কার্যকর	-9.2248
▁নুরুল	-9.22734
▁অপেক্ষা	-9.22771
বার	-9.22855
▁ক্ষতি	-9.23134
▁ডা	-9.23161
▁পোস্ট	-9.23217
▁আওতায়	-9.23283
▁পরীক্ষায়	-9.23305
▁ব্যক্তিদের	-9.23323
▁পাস	-9.23357
▁লক্ষ	-9.23392
▁রবিবার	-9.23583
▁বিক্ষোভ	-9.23654
▁উপদেষ্টা	-9.23662
▁বোমা	-9.23877
▁যুদ্ধ	-9.23905
▁ইন্টারনেট	-9.24084
▁ওয়েস্ট	-9.24099
▁বেতন	-9.24114
▁ব্রিটিশ	-9.24141
▁প্রশাসক	-9.24272
▁মুখোমুখি	-9.24297
জ	-9.244
▁টানা	-9.24574
D	-9.24579
▁দুর্নীতি	-9.24583
▁আজকের	-9.24588
▁বাসিন্দা	-9.24733
▁কেন্দ্রে	-9.24817
▁উন্নত	-9.24927
▁কমিশনের	-9.24945
▁দুজন	-9.24982
▁তোলা	-9.25065
▁অব্যাহত	-9.25132
▁ট্রাম্প	-9.25269
▁তেল	-9.25423
▁ছিলো	-9.25472
▁ভাড়া	-9.25478
▁বিদেশি	-9.25513
১০	-9.25581
▁মিলিয়ে	-9.25654
▁শুভ	-9.25661
▁সংস্থার	-9.25677
▁কেজি	-9.25747
▁ক্লাব	-9.25813
▁খাদ্য	-9.2587
▁সম্পদ	-9.25952
▁আন্দোলনের	-9.25955
▁রাস্তায়	-9.26072
d	-9.26145
▁শ্রেণির	-9.26317
জন	-9.26417
▁নন	-9.26449
▁বাংলাদেশি	-9.26468
▁শত	-9.26533
ওসি	-9.26542
▁কর্মকর্তারা	-9.26862
▁রিপোর্টার	-9.2695
▁অনুষ্ঠানের	-9.27046
▁একে	-9.27172
▁কম্পিউটার	-9.27187
▁সংরক্ষিত	-9.27286
▁৬০	-9.2736
▁চীন	-9.27363
▁---	-9.2738
▁আধুনিক	-9.27382
▁সদস্যদের	-9.27787
▁আঘাত	-9.27831
▁নির্ধারিত	-9.2788
▁হাসিনার	-9.27962
▁জারি	-9.28121
▁বরিশাল	-9.28236
▁দিয়েছিলেন	-9.28246
▁নিয়ম	-9.28324
▁জবাবে	-9.28327
বাংলা	-9.28389
▁কালো	-9.28391
▁বদলে	-9.28429
▁ঈদের	-9.28473
▁সমস্ত	-9.28559
▁অপর	-9.2864
▁আল্লাহর	-9.2866
▁সিরিজ	-9.28702
তেই	-9.2878
▁বলেছিলেন	-9.28921
▁শুনানি	-9.28968
▁বেরিয়ে	-9.29072
▁বাস্তবায়ন	-9.29198
সা	-9.29208
▁পদ	-9.29282
▁(3)	-9.29346
▁হোসেনের	-9.29415
▁নির্দিষ্ট	-9.29428
▁শাস্তি	-9.29456
▁পিতা	-9.29581
▁দীর্ঘদিন	-9.29717
▁#	-9.29722
▁জেনে	-9.29757
▁যাচ্ছেন	-9.29925
▁মিছিল	-9.29999
এই	-9.30107
▁আবারও	-9.30127
▁পশ্চিম	-9.30145
▁করেই	-9.30147
▁এবারের	-9.30296
▁প্রকাশক	-9.3039
▁পড়ার	-9.30396
২০১৮	-9.30448
▁চন্দ্র	-9.30608
▁তারেক	-9.30628
▁মাধ্যমিক	-9.3067
▁ওপরে	-9.30688
▁জামিন	-9.30749
▁সেক্স	-9.30816
১৮	-9.30837
▁দেখার	-9.30879
▁বিনিয়োগ	-9.30898
▁গোয়েন্দা	-9.31284
▁শিল্পী	-9.31322
টিতে	-9.31352
▁বিন	-9.31496
e	-9.31524
▁শাখা	-9.31565
▁যাত্রা	-9.31635
▁রংপুর	-9.31696
▁বিভাগে	-9.31815
▁চিঠি	-9.31946
▁ওসি	-9.31991
▁স্টাফ	-9.32124
▁এনে	-9.32148
প	-9.32326
▁দাস	-9.32405
▁মুহাম্মদ	-9.32471
টাই	-9.32522
▁দারুণ	-9.32561
▁ফুল	-9.32658
▁চালানো	-9.32659
▁গাজীপুর	-9.32693
আমরা	-9.32803
▁সাহিত্য	-9.32912
▁ইমাম	-9.32924
▁মাঠ	-9.32987
▁এসময়	-9.33053
▁ঈদ	-9.33268
▁ব্যবহারের	-9.33618
▁সপ্তাহে	-9.33626
▁সমস্যার	-9.33667
▁আজাদ	-9.33705
▁জোর	-9.33711
▁মসজিদ	-9.33905
▁পরিচালিত	-9.33942
▁পৌঁছে	-9.34147
▁নেতাদের	-9.34203
▁খাতে	-9.34446
▁গোপন	-9.34461
▁চলবে	-9.34605
▁বিল	-9.34635
▁A	-9.34735
ভিত্তিক	-9.34743
▁প্রস্তুত	-9.3476
▁উপায়	-9.34918
▁সম্মান	-9.35006
▁এমপি	-9.35041
▁পড়েন	-9.35104
▁নিজে	-9.35122
▁খোলা	-9.35135
▁ডিজিটাল	-9.35139
▁নিরাপদ	-9.35188
▁স্কুলে	-9.35191
▁বৃষ্টি	-9.35204
▁মির্জা	-9.3528
▁৮৪৩	-9.35297
▁যাদের	-9.35327
▁আশঙ্কা	-9.35438
▁প্রক্রিয়া	-9.35465
▁সু	-9.35498
▁দেখুন	-9.35503
িত	-9.35575
ব্রাহ্মণবাড়িয়া	-9.35583
▁বলেই	-9.35647
▁জোট	-9.35678
▁আনতে	-9.35685
▁টিভি	-9.35721
▁রোগ	-9.35772
▁সিনেমা	-9.35781
▁ধীরে	-9.35783
▁খুশি	-9.35891
▁শক্তিশালী	-9.35897
▁যাত্রী	-9.36031
▁ইকবাল	-9.36089
১৫	-9.36167
▁জয়ের	-9.36213
▁উদ্দেশ্য	-9.3628
▁অভিজ্ঞতা	-9.36415
▁আসনের	-9.36525
▁করলেও	-9.36557
▁খেতে	-9.36627
▁ফারুক	-9.3683
▁আই	-9.36842
▁প্রতিবেদক	-9.36873
▁নির্ধারণ	-9.37032
▁গাছ	-9.37033
▁প্রাণ	-9.37212
▁সেনা	-9.37302
▁ময়মনসিংহ	-9.37397
য়ের	-9.37527
▁আনোয়ার	-9.37584
▁ব্যর্থ	-9.37643
▁সাকিব	-9.37645
▁সরবরাহ	-9.37645
▁মিলে	-9.37735
▁পার্টি	-9.37753
▁দেড়	-9.37797
▁বরাদ্দ	-9.37811
▁তাদেরকে	-9.37872
গুলোতে	-9.37878
▁গরম	-9.37888
▁সাদা	-9.38026
▁নষ্ট	-9.3804
▁রাজ্য	-9.38058
▁বাংলার	-9.38102
▁নির্যাতন	-9.38142
▁দেবেন	-9.38277
▁বিনা	-9.38495
▁তুলতে	-9.385
▁পরও	-9.38522
▁ফিরিয়ে	-9.38587
▁ধারা	-9.38656
▁অধীনে	-9.38692
বিস্তারিত	-9.3873
▁যিনি	-9.3879
▁অংশগ্রহণ	-9.38907
▁ডটকম	-9.39042
▁সেখান	-9.39118
▁কষ্ট	-9.39133
▁সমাবেশ	-9.39255
▁ফখরুল	-9.3928
▁চাহিদা	-9.39361
িং	-9.3942
▁সাংগঠনিক	-9.39426
▁করল	-9.3952
▁চিত্র	-9.3961
▁খেলে	-9.39695
৭	-9.39748
▁শাখার	-9.39765
▁জানেন	-9.3979
▁বোর্ডের	-9.39875
▁উন্নয়নের	-9.4
▁দেব	-9.4005
▁লিখেছেন	-9.40053
▁ঘরের	-9.40058
▁চতুর্থ	-9.40063
▁ইউপি	-9.40121
▁নগর	-9.40128
▁শুনে	-9.40205
▁ব	-9.40285
▁সন্ত্রাসী	-9.40299
▁গুরুতর	-9.40358
▁আমদানি	-9.40425
৮	-9.4045
▁""""	-9.40534
▁অঞ্চলের	-9.40661
▁সমালোচনা	-9.4075
▁রাষ্ট্র	-9.40799
▁গ্যাস	-9.40835
▁নাটক	-9.40847
▁লড়াই	-9.40865
▁দিল	-9.41018
▁কারণেই	-9.41022
▁হবেন	-9.41036
▁পূরণ	-9.41074
ু	-9.41172
▁রাষ্ট্রপতি	-9.41242
▁আগ্রহ	-9.41333
▁লিখিত	-9.41445
▁সরিয়ে	-9.41513
▁নারায়ণগঞ্জ	-9.41524
▁অতি	-9.41556
িয়া	-9.41782
▁কিছুদিন	-9.41873
▁চাল	-9.41911
▁স্থগিত	-9.42062
▁আশ্রয়	-9.421
▁প্রশাসনের	-9.42106
▁মুক্ত	-9.4226
▁অভিনেত্রী	-9.42293
▁ছবিটি	-9.42531
▁এগুলো	-9.42651
▁»	-9.42662
▁আপনারা	-9.42734
▁পদ্ধতি	-9.42738
▁নূর	-9.42778
▁বিজয়	-9.42785
ছ	-9.42831
▁একদিন	-9.4288
▁গঠিত	-9.42981
বা	-9.43035
▁সেতু	-9.43056
▁বলার	-9.43097
▁>	-9.43223
▁মামুন	-9.43249
নিউজ	-9.43358
▁অনুসরণ	-9.43423
▁লেনদেন	-9.43426
▁পরিষ্কার	-9.43433
▁বাবার	-9.43433
▁আটকে	-9.4351
▁মোস্তফা	-9.43526
▁নির্দেশনা	-9.43635
▁উদ্দেশ্যে	-9.43655
▁ব্যাপার	-9.43655
▁ফেরত	-9.43656
▁হচ্ছেন	-9.43665
▁বাণিজ্যিক	-9.43737
▁আপিল	-9.43803
▁পাশের	-9.43842
▁এছাড়াও	-9.43847
▁চীনের	-9.43922
▁বাঙালি	-9.43967
বিশ্ববিদ্যালয়ের	-9.4397
▁ক্ষমতায়	-9.44059
▁অল্প	-9.44534
▁ধন্যবাদ	-9.44538
ং	-9.44576
▁দায়ী	-9.4462
▁দায়	-9.44643
▁এটাই	-9.44683
▁নবী	-9.44713
▁রাজা	-9.44776
▁জি	-9.44868
আমার	-9.4488
▁গানের	-9.45021
▁সেগুলো	-9.45036
▁জ্ঞান	-9.45043
▁প্রতিষ্ঠা	-9.45076
▁ধর্ষণের	-9.45104
▁চালক	-9.45108
▁স্বাধীন	-9.45196
▁কাপ	-9.45309
▁শিশুর	-9.45512
▁খুন	-9.45544
▁নেতৃত্ব	-9.45564
▁দেখি	-9.45582
▁ক্রীড়া	-9.45618
▁চাকমা	-9.45864
▁ত্যাগ	-9.45872
▁সাধারণত	-9.45899
▁টাকায়	-9.45922
▁ওভারে	-9.45949
▁ভাইস	-9.45961
▁ঘিরে	-9.45966
▁নীতি	-9.45995
▁মাওলানা	-9.4601
▁জল	-9.46079
▁খেয়ে	-9.46089
▁স্কুলের	-9.46093
▁ওয়েব	-9.46095
▁রাখে	-9.46229
▁খেলোয়াড়	-9.4626
▁স্পষ্ট	-9.46281
১৯	-9.46282
ডি	-9.46366
▁আমিন	-9.46397
▁সমাজের	-9.46422
▁লিমিটেডের	-9.46576
▁মাহবুব	-9.46639
▁দোয়া	-9.46661
১১	-9.46742
▁মিথ্যা	-9.46796
▁কার	-9.46831
▁ঢুকে	-9.47
২২	-9.47048
▁উইকেটে	-9.4706
▁যেহেতু	-9.47084
▁সাইট	-9.47398
▁প্রতিমন্ত্রী	-9.47429
▁দলকে	-9.47563
▁দেখিয়ে	-9.47578
▁আলমগীর	-9.47612
▁এরই	-9.47709
▁দুর্ঘটনা	-9.47774
▁রাজ্যের	-9.47783
▁যেভাবে	-9.47851
▁বলেও	-9.47924
▁যাই	-9.48028
▁সড়কে	-9.48073
▁পারলে	-9.48083
▁S	-9.48103
▁বসুন্ধরা	-9.48153
▁বিশিষ্ট	-9.48215
▁ওয়া	-9.4833
ুর	-9.4834
▁উভয়	-9.48488
কৃত	-9.48607
▁এশিয়া	-9.48639
▁মেয়েদের	-9.48663
▁সক্ষম	-9.48735
▁বিকল্প	-9.4874
▁কারা	-9.48766
৩৫	-9.48867
▁৮০	-9.48931
▁কারো	-9.49177
▁ইন	-9.49251
▁ইচ্ছা	-9.49272
▁ওষুধ	-9.49301
▁যথেষ্ট	-9.49316
▁ব্যস্ত	-9.49325
▁পৌরসভার	-9.49404
▁পানির	-9.49422
▁জেলায়	-9.49455
▁প্রচুর	-9.4956
▁প্লট	-9.4957
▁হ	-9.49625
▁সপ্তাহ	-9.49726
▁যাঁরা	-9.4973
▁ভেতর	-9.49745
▁ফেব্রুয়ারী	-9.49771
▁চরম	-9.50043
▁প্রকৌশলী	-9.50072
▁কার্ড	-9.50085
▁মেলা	-9.50126
▁ভবনের	-9.50169
▁জরিমানা	-9.50186
▁পূর্ণ	-9.50202
B	-9.50452
▁নিজেই	-9.5054
▁অঞ্চলে	-9.50652
▁ইতিমধ্যে	-9.50803
▁বিশ্বকাপে	-9.50879
▁প্রকৃত	-9.50897
▁কর্মকর্তাদের	-9.50937
▁এল	-9.51022
▁কঠোর	-9.51031
▁সমান	-9.51082
▁বক্তব্যে	-9.51256
▁পরের	-9.51388
▁নগরের	-9.5148
১২	-9.51714
▁বাড়ছে	-9.51817
▁বন	-9.51872
▁সদস্যের	-9.52036
▁তীব্র	-9.5206
▁রেখেছেন	-9.52152
▁কলকাতা	-9.52152
▁বসবাস	-9.52307
হীন	-9.52324
▁সতর্ক	-9.52331
▁আলোর	-9.52363
▁খানের	-9.52426
▁উঠতে	-9.52495
সে	-9.52507
▁সংস্কৃতি	-9.52519
▁চালায়	-9.52546
▁তথা	-9.52586
▁২০০৯	-9.52624
▁তেমনি	-9.52659
▁মসজিদে	-9.52739
▁বিপুল	-9.52754
▁২০০৮	-9.52834
বিএক্স	-9.52867
▁মহান	-9.52898
▁কখনও	-9.52913
▁ডিগ্রি	-9.52996
▁গিয়েছিল	-9.5304
▁ফাইনালে	-9.53093
▁তৈরির	-9.53236
▁তোমাদের	-9.53243
▁গ্রুপের	-9.5358
▁পেলে	-9.53615
▁প্রতিযোগিতা	-9.53626
▁বিনোদন	-9.53682
▁কার্যালয়ের	-9.53687
▁চলেছে	-9.53742
▁শোনা	-9.5386
▁ক্লিক	-9.53903
▁করেনি	-9.53907
▁সর্ব	-9.53924
▁ফি	-9.53989
▁সফর	-9.54001
▁আইনশৃঙ্খলা	-9.54107
▁করেননি	-9.54116
▁ইয়াবা	-9.54424
▁ওয়ার্ড	-9.54512
▁থাকবেন	-9.54519
▁মাটি	-9.54527
▁একসঙ্গে	-9.54529
▁শারীরিক	-9.54539
▁প্রতিবাদে	-9.54541
▁সংযোগ	-9.5457
খ	-9.5461
▁আবদুর	-9.54702
▁৩৫	-9.54718
▁মাসুদ	-9.54776
▁গরু	-9.54912
▁বারবার	-9.54947
টার	-9.54967
▁সেলিম	-9.55077
▁ক্ষতিগ্রস্ত	-9.55091
▁জড়িয়ে	-9.55104
▁শরীর	-9.5515
▁সার্ভিস	-9.55172
▁অসুস্থ	-9.5522
▁অবদান	-9.55236
▁প্রেম	-9.55275
▁সবুজ	-9.55311
▁রাজি	-9.55361
▁মানবাধিকার	-9.55362
▁প্রাকৃতিক	-9.55379
▁ঘটনাস্থলে	-9.5538
▁ভূমি	-9.55458
▁৫০০	-9.55566
▁আলোচনায়	-9.55584
▁বেঁচে	-9.55677
▁পানিতে	-9.55686
▁নিয়েই	-9.55773
পাড়া	-9.55839
▁কুমিল্লা	-9.55854
▁বিভাগীয়	-9.55932
▁পরিদর্শন	-9.56146
▁কথায়	-9.56287
▁শরীরে	-9.56308
কারী	-9.56308
তার	-9.56336
▁থাকছে	-9.5634
▁অঞ্চল	-9.56414
▁সেদিন	-9.56498
▁ধ্বংস	-9.56716
▁ওরফে	-9.56732
▁কৃষক	-9.56792
২৮	-9.56883
▁সাম্প্রতিক	-9.56888
▁কপিরাইট	-9.5696
▁আঞ্চলিক	-9.56969
▁বোঝা	-9.57029
▁আয়োজনে	-9.57129
i	-9.57147
▁আইসিস	-9.57148
▁উল্লেখ্য	-9.57195
▁রশিদ	-9.5726
▁কিশোর	-9.57265
▁মুহূর্তে	-9.57279
য়ে	-9.5733
▁যাবেন	-9.57355
▁নিকট	-9.57357
▁চলতে	-9.574
▁নিবন্ধন	-9.57408
▁ট্রাক	-9.57413
▁জানে	-9.5745
▁শিক্ষার	-9.57495
▁কলেজে	-9.57499
▁মৌসুমে	-9.57631
▁ব্যাট	-9.57649
▁ব্যবহৃত	-9.57656
▁ধান	-9.57664
▁টেস্টে	-9.57667
২৫	-9.57687
বিষয়ক	-9.5781
▁ডাউনলোড	-9.57853
▁কর্তৃপক্ষের	-9.57863
▁খন্দকার	-9.57912
▁পাতা	-9.57995
▁বাণিজ্য	-9.58005
▁অধিকাংশ	-9.58165
▁এরা	-9.58176
▁শুরুর	-9.583
▁গিয়েছে	-9.58327
▁পিছিয়ে	-9.58335
▁বেআইনি	-9.58359
▁যৌথ	-9.58371
▁শুরুতে	-9.58381
▁পাঠ	-9.58483
▁চাষ	-9.58523
’-	-9.58607
▁তিনজন	-9.58615
▁স্মৃতি	-9.58659
▁ফেনী	-9.5867
▁উদ্দেশে	-9.58748
▁ডাক	-9.58758
▁মানববন্ধন	-9.58844
▁ইমেইল	-9.58878
▁জাহাঙ্গীর	-9.58918
▁পক্ষের	-9.58993
▁সমিতি	-9.59038
▁জবাব	-9.59103
ছে	-9.59142
▁অস্ট্রেলিয়া	-9.59163
▁ব্যাখ্যা	-9.59276
▁৭০	-9.59299
▁বিশ্বকাপের	-9.59363
▁অবরোধ	-9.5944
▁রোহিঙ্গাদের	-9.59539
▁সন্দেহ	-9.59554
▁স্বীকৃতি	-9.59577
▁ট্রেডিং	-9.59603
৯	-9.59628
▁ইন্টারন্যাশনাল	-9.59631
▁ফেসবুকে	-9.59641
▁বাড়িয়ে	-9.59721
▁কাউন্সিলর	-9.59729
▁রিয়াল	-9.59748
▁সংরক্ষণ	-9.59783
▁সহযোগী	-9.59787
▁প্রবাসী	-9.59797
▁বিধান	-9.59804
▁এসেছেন	-9.59826
▁খাওয়া	-9.59905
▁অনলাইনে	-9.59907
▁শরীরের	-9.59917
▁দান	-9.59947
▁ধরণের	-9.59961
▁চ্যাম্পিয়ন	-9.59991
▁গেলেন	-9.60007
▁মিলনায়তনে	-9.60017
▁রুপি	-9.60022
▁দেখানো	-9.60057
▁অনুসারে	-9.60085
▁মুজিবুর	-9.60178
▁সুষ্ঠু	-9.60205
▁১২টা	-9.60337
▁রূপ	-9.60358
▁ওয়ানডে	-9.60516
▁অধ্যক্ষ	-9.60614
▁মানসিক	-9.60677
২৩	-9.60759
▁দাখিল	-9.60799
▁বঙ্গবন্ধুর	-9.60805
▁দমন	-9.60824
▁ঠিকানা	-9.60831
▁যুবক	-9.6089
▁is	-9.61058
▁জন্যই	-9.6115
▁অভিনেতা	-9.61164
▁মিটার	-9.61249
▁রক্ত	-9.61265
▁বিদায়	-9.61268
▁রচনা	-9.61486
▁নেয়ার	-9.61491
১৪	-9.61516
▁অসংখ্য	-9.61518
▁বিজেপি	-9.61597
▁বাদী	-9.61602
▁নারীকে	-9.61668
▁বর্ণনা	-9.61722
▁পড়ুন	-9.61755
▁অফ	-9.61762
▁বাড়তি	-9.61809
▁বয়সে	-9.61809
▁শুধুমাত্র	-9.61923
তো	-9.6194
▁রফিকুল	-9.62015
▁তলা	-9.62069
▁আক্রমণ	-9.62071
▁পাঁচটি	-9.6209
▁লি	-9.62202
▁আহ্বায়ক	-9.62312
▁নির্মিত	-9.62337
▁রুশ	-9.62518
▁পত্রিকার	-9.62828
▁করিয়ে	-9.6284
▁হাই	-9.62899
▁ছাত্রলীগ	-9.62904
▁সাফল্য	-9.62924
৪০৬	-9.62966
▁নিউ	-9.63026
▁শ্রদ্ধা	-9.63098
▁পত্রিকা	-9.63125
▁২০০	-9.63165
▁বিবেচনা	-9.63267
▁শতাধিক	-9.63302
লে	-9.63337
▁সীমান্ত	-9.63367
▁রং	-9.63387
▁বিশ্বে	-9.6345
▁উপরে	-9.63597
১৬	-9.63658
▁জিয়াকে	-9.63719
▁৩২	-9.63751
▁হোটেল	-9.63759
▁চিহ্নিত	-9.63808
▁নৌকা	-9.6386
▁মেয়ের	-9.63883
▁জানাতে	-9.63924
▁সফরে	-9.63975
▁উপস্থাপন	-9.63998
▁টাঙ্গাইল	-9.64023
▁সরকারকে	-9.64066
▁জনগণ	-9.64187
গত	-9.64242
▁আছি	-9.64406
▁টেকনাফ	-9.64499
▁নামক	-9.64629
▁গোটা	-9.64701
▁রেখেছে	-9.64762
▁বগুড়া	-9.64766
▁অধিদপ্তরের	-9.64781
▁বিখ্যাত	-9.64925
▁অস্ট্রেলিয়ার	-9.64959
▁খাতের	-9.65022
▁রাশিয়া	-9.6506
কালে	-9.65141
▁বাজারের	-9.65212
▁অডিও	-9.65235
▁প্রতিষ্ঠিত	-9.65246
▁দিচ্ছেন	-9.65253
▁(2	-9.65282
চট্টগ্রাম	-9.65308
▁মনোনয়নপত্র	-9.65356
▁পাহাড়	-9.65418
▁মি	-9.65497
১৭	-9.65714
▁আচরণ	-9.65814
▁চট্টগ্রামে	-9.65818
▁সুস্থ	-9.65872
▁কেন্দ্রের	-9.65888
▁অর্থনীতি	-9.65912
▁সংকট	-9.66006
▁আমেরিকা	-9.66023
▁বলল	-9.66158
▁দুধ	-9.66194
▁সামান্য	-9.66195
▁বিচারক	-9.66197
▁(4)	-9.662
▁ঝুঁকি	-9.66232
▁পারিবারিক	-9.66274
কেই	-9.66282
▁পিএ	-9.66301
▁পূর্বে	-9.6636
▁আলীর	-9.6638
ing	-9.66459
▁বার্ষিক	-9.6647
▁রপ্তানি	-9.66554
▁বে	-9.6664
▁ফেলা	-9.66682
▁নিখোঁজ	-9.66739
▁বেশির	-9.66745
▁পাশ	-9.66795
▁সমাবেশে	-9.66897
▁তোমরা	-9.66952
▁শর্ত	-9.6696
▁সিলেটের	-9.66999
▁অনেকটা	-9.67067
▁মিয়ানমারের	-9.67078
.)	-9.67099
▁আগামীকাল	-9.67137
▁খোঁজ	-9.67203
▁প্রয়োগ	-9.67205
▁চলমান	-9.67223
▁উপহার	-9.67345
▁নেবে	-9.6737
▁সংস্কার	-9.67431
▁The	-9.67432
▁সরে	-9.67433
▁বাসা	-9.67461
▁লেগে	-9.67474
▁অস্বীকার	-9.67489
▁ফরিদপুর	-9.67594
▁পি	-9.6764
২১	-9.67672
▁জানালেন	-9.67682
▁উক্ত	-9.67731
▁পাঠক	-9.67745
▁সার্বিক	-9.67799
▁বলি	-9.67799
▁৪৫	-9.67883
▁ফেরার	-9.68079
▁‘‘	-9.68089
দিন	-9.68114
▁কক্ষে	-9.68145
▁চেয়ারপারসন	-9.68147
তেও	-9.68177
▁প্রতিরোধ	-9.68183
▁সরকারী	-9.68211
▁তোলার	-9.68225
▁পর্ব	-9.6826
▁আহসান	-9.68319
▁লাইন	-9.68413
▁মিলন	-9.68419
▁মিজানুর	-9.68572
▁[...]	-9.68574
▁নোটিশ	-9.68679
▁ফুট	-9.6868
১৩	-9.68719
▁৯০	-9.68773
▁এলে	-9.68815
▁তারিখে	-9.68836
▁মতামত	-9.68917
▁জোটের	-9.68941
▁গুগল	-9.68972
▁ঘুম	-9.69042
▁আগষ্ট	-9.69253
▁বেছে	-9.69257
▁আমেরিকার	-9.69257
▁ধারণ	-9.6929
▁সিরিজের	-9.69346
▁একেবারে	-9.69385
▁ট্রাম্পের	-9.69398
▁পৃথক	-9.69413
▁লাগবে	-9.69539
▁রাশিয়ার	-9.69572
▁ঘটনাটি	-9.69643
▁একমত	-9.69648
▁বিবৃতিতে	-9.69651
▁রানা	-9.69812
▁ভুলে	-9.69814
▁নিষেধাজ্ঞা	-9.6983
▁রাস্তার	-9.69851
কেও	-9.69856
▁চর	-9.69909
▁ছাত্রী	-9.70101
▁এরশাদ	-9.7022
▁টু	-9.7024
▁বিবিসি	-9.70262
▁ইনিংস	-9.70299
▁পাই	-9.7033
▁বুঝে	-9.70339
▁মুক্তিযুদ্ধের	-9.70411
▁স্বাগত	-9.70472
▁নিলে	-9.70549
▁করপোরেশনের	-9.70613
▁শুটিং	-9.7062
▁রায়ের	-9.70673
▁সালাম	-9.70729
ীয়	-9.70791
▁অভাব	-9.70791
▁আবাসিক	-9.70834
▁হয়েছিলেন	-9.70919
▁নিয়ন্ত্রণে	-9.71092
▁দর	-9.71132
▁স্টক	-9.71132
▁উন্নয়নে	-9.7114
▁মিল	-9.71204
▁দিয়েছিল	-9.71297
▁চুল	-9.71321
▁কংগ্রেস	-9.71374
▁মুক্তির	-9.71413
▁জমির	-9.7143
▁লিখে	-9.71432
▁টিম	-9.71449
▁চ্যালেঞ্জ	-9.71519
▁অফিসে	-9.7154
▁জনাব	-9.7155
▁বিরাট	-9.71566
▁ভালোবাসা	-9.71566
▁ইমরান	-9.71626
▁আউট	-9.71698
০০	-9.7176
▁নামাজ	-9.71771
▁গেলেও	-9.7198
▁স্টেডিয়ামে	-9.72074
▁মাধ্যম	-9.72198
▁জিতে	-9.722
▁ক্লাস	-9.72276
ed	-9.7234
▁অভিযানে	-9.72529
▁জুটি	-9.72581
▁আদর্শ	-9.7268
▁মিলিয়ন	-9.72751
▁হাকিম	-9.72829
▁লাগিয়ে	-9.72933
▁জাতিসংঘের	-9.72979
▁প্রার্থনা	-9.72985
▁জামাল	-9.73027
▁ধরতে	-9.73073
▁শীর্ষক	-9.73146
▁আসন্ন	-9.73287
▁কল্যাণ	-9.73338
▁মারধর	-9.7334
▁উন্মুক্ত	-9.73401
▁পাচ্ছেন	-9.73458
▁অভিযুক্ত	-9.73506
▁সুপারিশ	-9.73667
▁দফা	-9.73754
▁আগ্রহী	-9.73915
▁মেসি	-9.74016
▁পুত্র	-9.74032
▁সালমান	-9.74038
বে	-9.74084
উত্তর	-9.74116
▁November	-9.74148
▁জ্যেষ্ঠ	-9.74156
▁বোন	-9.74269
৪০	-9.74287
▁জাতি	-9.74522
▁দুর্ঘটনায়	-9.74522
লা	-9.74629
▁বিজয়ী	-9.74631
▁ইসি	-9.7464
▁বীর	-9.74673
▁সেন্টার	-9.7469
▁করলাম	-9.7472
▁শুভেচ্ছা	-9.7474
▁্যাব	-9.74762
▁ভয়াবহ	-9.74782
▁স্বাধীনতার	-9.7482
َ	-9.74858
▁টেলিভিশন	-9.74865
▁ধর্মের	-9.75102
▁রাজবাড়ী	-9.75147
▁মজুমদার	-9.75196
▁পরই	-9.75255
▁ক্লাবের	-9.75256
▁করপোরেশন	-9.75256
▁সাড়া	-9.75272
▁পড়বে	-9.75372
▁ব্যক্তিকে	-9.75387
▁পাচ্ছে	-9.75436
▁মিয়ার	-9.75447
▁কাটা	-9.75478
▁ভবিষ্যতে	-9.75558
▁সংঘর্ষে	-9.75568
▁পুরোপুরি	-9.75576
▁দরজা	-9.75581
▁বিপরীতে	-9.75587
▁ইনিংসে	-9.75657
▁সংসদের	-9.75818
▁কিশোরগঞ্জ	-9.75917
▁দুটো	-9.75944
▁কোটা	-9.75981
▁অর্থমন্ত্রী	-9.76019
▁সুপ্রিম	-9.76052
▁ব্যবধানে	-9.76108
▁চোখের	-9.7612
▁করত	-9.76149
▁ঐতিহাসিক	-9.76154
▁অন্যদের	-9.7618
▁সূরা	-9.762
▁কমপক্ষে	-9.76211
▁নির্মাণের	-9.76299
▁গাড়ির	-9.76313
▁আমির	-9.76329
▁অন্তর্ভুক্ত	-9.76389
▁০৩	-9.76578
▁দশ	-9.76626
▁চ্যানেল	-9.76668
▁নির্ভর	-9.76706
▁সত্যি	-9.76765
▁ভেবে	-9.76877
▁পুরোনো	-9.76882
▁ক্রিকেটে	-9.76938
▁নিচের	-9.76946
▁ভিত্তি	-9.76952
▁আলোচিত	-9.77014
▁উপাচার্য	-9.77071
▁গায়ে	-9.77117
▁পাবলিক	-9.77145
▁চৌধুরীর	-9.77236
▁বন্দর	-9.77249
▁চরিত্রে	-9.77262
▁সচেতন	-9.77284
▁সত্যতা	-9.7729
▁শামীম	-9.7735
▁উদাহরণ	-9.77354
▁উপাদান	-9.77397
▁প্রথমবারের	-9.77478
▁লেখার	-9.77536
▁কৌশল	-9.77539
য	-9.77554
▁সংযুক্ত	-9.77573
▁আনার	-9.77585
▁সংগীত	-9.77624
▁ভোটের	-9.77628
▁প্রত্যেক	-9.77665
▁ট্রেন	-9.77726
টোয়েন্টি	-9.7775
▁প্রতীক	-9.77756
▁কারাদণ্ড	-9.77796
▁ঘোষণার	-9.77878
▁শোক	-9.77881
▁খ্রিষ্টান	-9.78041
▁E	-9.78096
▁আন	-9.78152
▁খবরে	-9.78188
▁ফর	-9.78278
▁বেশী	-9.78444
▁কল	-9.78481
▁যুব	-9.78521
▁ওজন	-9.7853
৩২	-9.78675
▁ক্ষুদ্র	-9.78733
▁লা	-9.78786
▁ফায়ার	-9.78814
▁B	-9.78883
▁ন্যাশনাল	-9.78985
▁উদ্বোধনী	-9.78997
▁বিতর্ক	-9.79005
▁নাজমুল	-9.79019
▁মেরে	-9.7907
▁জুড়ে	-9.79085
▁৩০০	-9.79201
▁থাকি	-9.79206
▁মন্দির	-9.79226
▁আত্মঘাতী	-9.79305
২০১৭	-9.7939
▁করো	-9.79427
▁মনের	-9.79599
▁লম্বা	-9.79668
▁হাইকোর্ট	-9.79671
▁সোহেল	-9.79672
▁ইংল্যান্ড	-9.7971
▁চাঁদপুর	-9.79741
▁মানব	-9.79839
▁সামনের	-9.79921
▁ফাঁস	-9.79936
▁তামিম	-9.80106
▁খাতুন	-9.80199
▁প্রিন্ট	-9.80236
▁কতটা	-9.80348
ছেন	-9.8037
য়া	-9.80411
▁পড়ছে	-9.80511
▁প্রেমের	-9.80543
▁বিদেশে	-9.80609
▁সেনাবাহিনী	-9.80647
▁তৈরী	-9.80653
▁তালুকদার	-9.80781
▁কিছুক্ষণ	-9.80794
▁প্রতিযোগিতায়	-9.80836
▁বারিধারা	-9.80896
▁অবশেষে	-9.8096
▁ফের	-9.81
▁মাটিতে	-9.8102
▁ছিলাম	-9.81036
▁টন	-9.81079
▁সিং	-9.81094
▁কর্মকর্তার	-9.81119
▁চিকিৎসার	-9.81128
▁প্রিন্টিং	-9.81153
▁চুরি	-9.81207
▁সন্তানের	-9.8126
▁মাদ্রাসা	-9.81265
▁হারাম	-9.8128
▁অতিথির	-9.81286
▁বেঁধে	-9.81351
▁প্রশংসা	-9.81392
▁যুক্তি	-9.81436
▁সেঞ্চুরি	-9.81464
▁সত্ত্বেও	-9.81641
▁আলোচনার	-9.81649
▁পর্যায়ের	-9.81682
▁কারখানা	-9.81724
▁এইচ	-9.81728
▁রাজনীতির	-9.81766
▁প্রতিক্রিয়া	-9.81923
▁কাগজ	-9.82061
▁হামিদ	-9.82065
▁দৃষ্টি	-9.82078
▁কালাম	-9.8213
▁ক্ষমা	-9.82147
৮৮০২৯	-9.82313
▁কর্মরত	-9.82347
▁পঞ্চম	-9.82369
▁আন্দোলনে	-9.82463
▁পাথর	-9.82463
৮৮০২৮	-9.82471
▁বোধ	-9.82498
▁সক্রিয়	-9.82563
▁সবকিছু	-9.82579
▁অধিক	-9.82608
▁বিদ্যালয়ে	-9.82638
▁সাইফুল	-9.82699
▁এলাকাবাসী	-9.82706
▁হেরে	-9.82741
▁উল্লেখযোগ্য	-9.82744
অ	-9.82792
▁সাক্ষাৎকার	-9.82813
▁স্টেশন	-9.82853
▁মোল্লা	-9.82862
▁উন্নতি	-9.82918
▁জমিতে	-9.82927
▁০২	-9.82936
▁পারছেন	-9.83017
▁খেলায়	-9.83039
▁১ম	-9.83121
▁শূন্য	-9.832
▁একক	-9.83246
▁মিয়ানমার	-9.83249
▁দর্শক	-9.83347
):	-9.83362
▁নজর	-9.83377
▁2014	-9.83382
▁নিশ্চয়ই	-9.83384
▁ওয়ার্ডের	-9.83389
▁সহসভাপতি	-9.83409
▁শ্রমিকদের	-9.8344
▁গণতান্ত্রিক	-9.83543
▁কন্যা	-9.836
▁ব্যক্তিরা	-9.83654
F	-9.83694
▁মোড়	-9.83786
▁গ্রহণের	-9.83801
▁ইতিহাসে	-9.83802
ا	-9.84083
▁সেসব	-9.84084
▁প্রচলিত	-9.841
আর	-9.84119
▁বাজেট	-9.84171
▁সভাপতিত্ব	-9.84178
▁সেনাবাহিনীর	-9.84198
▁ভরসা	-9.84211
▁পড়েছেন	-9.84257
▁হযরত	-9.84267
▁তালিকাভুক্ত	-9.8434
▁যাক	-9.84349
▁লিগ	-9.84389
▁সেতুমন্ত্রী	-9.8442
▁হবার	-9.84449
▁কিনে	-9.84477
▁জাল	-9.84507
▁মুখ্যমন্ত্রী	-9.84508
লেন	-9.8454
▁ভোটার	-9.84563
▁কলকাতার	-9.84583
৪৫	-9.84606
কা	-9.84639
▁স্বামীর	-9.84669
বাংলাদেশ	-9.84716
▁ফ্রি	-9.84716
▁নোয়াখালী	-9.84757
▁জামায়াত	-9.84788
▁লক্ষ্মীপুর	-9.84843
▁মর্যাদা	-9.84906
▁সেন	-9.84944
▁খাগড়াছড়ি	-9.84949
▁ভিড়	-9.84964
▁বিডি	-9.85042
▁ধাক্কা	-9.85077
▁ব্যাটসম্যান	-9.85144
▁প্রিমিয়ার	-9.85221
▁অসাধারণ	-9.8525
▁রাষ্ট্রীয়	-9.85264
▁নদীতে	-9.85297
জি	-9.85453
▁ছুটি	-9.8557
▁জেল	-9.85586
▁সংসদে	-9.85606
▁পর্বে	-9.85633
▁শিরোপা	-9.85643
▁ঘোষ	-9.857
▁কর্মসূচির	-9.85787
▁আসছেন	-9.85799
▁পত্র	-9.85853
▁যথাযথ	-9.85891
▁পতাকা	-9.86007
▁পরবর্তীতে	-9.86036
▁যশোর	-9.86074
▁নিচ্ছে	-9.86079
▁ব্রাউজার	-9.86082
▁বর্ষ	-9.86083
▁দৃশ্য	-9.86144
▁ঘণ্টার	-9.86149
▁যাচাই	-9.86245
▁ব্যাটিং	-9.86295
▁দেখেন	-9.86311
?’	-9.86339
▁টিকিট	-9.86346
▁পাকিস্তানি	-9.86357
▁ওঠা	-9.86448
▁স্বরাষ্ট্র	-9.86557
▁P	-9.86625
▁সংঘর্ষ	-9.86626
▁জিনিস	-9.86631
▁যুবলীগের	-9.86662
▁কাপড়	-9.86716
▁একপর্যায়ে	-9.86741
১২২৯	-9.86743
▁দিনাজপুর	-9.86863
▁তবু	-9.86921
▁জাতিসংঘ	-9.86976
▁শিক্ষকদের	-9.86996
▁সংগ্রাম	-9.87079
▁এজন্য	-9.871
▁অংশে	-9.8717
▁কাছাকাছি	-9.87193
▁সহজেই	-9.87277
▁on	-9.8729
▁মেয়েকে	-9.87325
▁গুণ	-9.8735
▁তফসিল	-9.87372
▁সবজি	-9.87426
▁মতোই	-9.87536
▁২০০৭	-9.87544
▁১৯৭১	-9.87553
▁রুহুল	-9.8759
▁কামনা	-9.87664
▁প	-9.87741
▁হচ্ছিল	-9.87762
▁উত্তম	-9.87797
মেইল	-9.87828
▁দিয়েই	-9.87857
▁যানবাহন	-9.88048
▁বাংলাদেশকে	-9.88071
▁সার	-9.88102
▁ধরেই	-9.88163
▁প্রতিষ্ঠাতা	-9.88208
▁ছাড়াই	-9.88208
▁একসময়	-9.88356
▁গিয়েছিলেন	-9.88401
▁কেননা	-9.88451
▁শিশুকে	-9.88465
▁দুর্দান্ত	-9.88469
▁বিশেষজ্ঞ	-9.88482
▁আম	-9.88487
▁বহন	-9.88497
▁স্বাক্ষর	-9.88577
▁যেত	-9.88584
▁গাছের	-9.8859
▁সুতরাং	-9.887
▁পড়লে	-9.88715
▁মাত্রা	-9.88746
▁ভবনে	-9.88775
▁শুনতে	-9.88787
▁পারব	-9.88798
▁রাসেল	-9.88816
▁দলটি	-9.8884
▁অধিদপ্তর	-9.88848
▁M	-9.88877
▁দে	-9.88903
▁বন্দ্যোপাধ্যায়	-9.88924
▁নীল	-9.88962
▁সম্প্রদায়ের	-9.88975
▁আমলে	-9.89002
▁দোকানে	-9.89014
▁যেটা	-9.89058
▁করছিলেন	-9.89089
▁করবো	-9.89097
গণ	-9.89116
▁প্রত্যাহার	-9.89134
▁ডেকে	-9.89137
▁ওরা	-9.89154
▁চালান	-9.89303
▁গতি	-9.89322
▁দুর্বল	-9.89496
▁জাফর	-9.89502
▁আসল	-9.89554
▁হত	-9.89615
▁by	-9.89646
▁চার্চ	-9.89764
সংক্রান্ত	-9.89784
▁শাসন	-9.89826
স্থ	-9.89844
▁নগরীর	-9.89906
▁প্রাপ্ত	-9.89983
▁জার্মান	-9.89984
▁হারে	-9.90001
▁ছেলের	-9.90008
▁রহিম	-9.90038
▁রাজস্ব	-9.90066
▁সপ্তাহের	-9.90295
▁রেজা	-9.90357
▁মহাপরিচালক	-9.90381
▁হাতের	-9.90383
▁প্রয়োজনে	-9.90402
▁বিকাশ	-9.90405
▁কমিউনিটি	-9.90646
▁ক্যামেরা	-9.90731
আমাদের	-9.9074
*	-9.90788
▁1	-9.90894
▁পেরে	-9.90939
্স	-9.90971
▁ইস্ট	-9.90992
▁ব্যথা	-9.91067
▁টা	-9.9111
K	-9.91367
▁মতবিনিময়	-9.91493
▁হ্যাঁ	-9.91596
▁চাওয়া	-9.91655
▁মিরপুর	-9.9169
▁বজায়	-9.91715
▁তৎকালীন	-9.91718
কর্মীদের	-9.91762
▁ইংল্যান্ডের	-9.91774
▁পুরনো	-9.91814
▁ভাঙচুর	-9.9186
▁মাল	-9.91874
▁তৃণমূল	-9.91887
▁এক্ষেত্রে	-9.91891
▁অ্যাড	-9.91892
▁প্রদর্শন	-9.91905
▁I	-9.92029
▁সিরিজে	-9.92034
উল	-9.92107
▁পরিবেশন	-9.92155
▁প্রার্থীদের	-9.9216
▁মেহেরপুর	-9.92163
▁খাওয়ার	-9.92177
▁যমুনা	-9.92247
▁নির্যাতনের	-9.92295
▁পুনরায়	-9.92345
▁তখনই	-9.92346
▁মরদেহ	-9.92352
▁প্রার্থীর	-9.9236
▁কমেছে	-9.92417
▁অ্যাকাউন্ট	-9.92433
▁টেনে	-9.92447
টিকে	-9.9246
▁সেটাই	-9.92563
▁উপস্থিতি	-9.92586
পররাষ্ট্রমন্ত্রী	-9.9261
▁ক্রিকেটার	-9.92611
▁উৎসবের	-9.92708
২৪	-9.9271
▁কর্মীদের	-9.92733
▁দায়ে	-9.92767
▁উজ্জ্বল	-9.92782
▁বৃদ্ধির	-9.92808
▁ইরানের	-9.92816
▁রেল	-9.92856
▁বুক	-9.92885
▁রঙের	-9.92915
▁সংবিধান	-9.92973
▁জানার	-9.92984
▁ভ্রমণ	-9.93029
▁মেয়েরা	-9.93048
▁ফিচার	-9.93308
▁চরিত্র	-9.93353
▁আজিজ	-9.93384
▁কিনতে	-9.93426
▁জব্দ	-9.93456
▁গঠনের	-9.93462
▁পররাষ্ট্র	-9.93519
▁ক্রয়	-9.93525
▁প্রফেসর	-9.93554
▁মাশরাফি	-9.93569
মূলক	-9.93569
▁যাওয়ায়	-9.93596
▁গোপালগঞ্জ	-9.93604
▁অবাক	-9.93626
▁স্ত্রীর	-9.9374
▁নিরাপত্তার	-9.93755
▁হাসি	-9.93764
▁আকাশ	-9.93774
▁দলটির	-9.93984
▁বক্তব্যের	-9.94058
▁সুমন	-9.94119
▁ক্ষমতার	-9.94127
▁মানের	-9.94144
▁আগেও	-9.94158
▁ইউনিট	-9.94184
▁বাসের	-9.94184
▁বললে	-9.94227
▁জনতা	-9.9428
▁অনুসন্ধান	-9.94286
▁উৎস	-9.94287
▁ঐক্য	-9.943
▁স্পোর্টস	-9.94311
▁আবদুল্লাহ	-9.94441
▁লাইসেন্স	-9.9451
▁বাবু	-9.94548
▁প্রাচীন	-9.9457
▁জজ	-9.94584
▁রান্না	-9.94593
▁চালানোর	-9.94605
▁ইনস্টিটিউট	-9.94606
▁সূচক	-9.94694
▁মুক্তিযুদ্ধ	-9.94696
▁হালকা	-9.94847
▁পুলিশকে	-9.94863
নো	-9.94874
▁ডোনাল্ড	-9.94906
▁চিকিৎসাধীন	-9.94926
িক	-9.94983
▁ছুটে	-9.95007
▁পূজা	-9.95024
▁পরিশোধ	-9.95074
▁ওদের	-9.95191
▁মাদারীপুর	-9.95282
▁ডাক্তার	-9.95298
▁স্নাতক	-9.95336
▁এরকম	-9.95428
▁পদত্যাগ	-9.95478
▁কোর্ট	-9.95532
▁অ্যাপ	-9.95577
▁সনদ	-9.95589
▁আলোকচিত্র	-9.95644
▁স্মরণ	-9.95666
▁গণ	-9.95677
▁সাইটে	-9.95694
▁জাকির	-9.95711
▁ক্ষমতাসীন	-9.95779
▁সোনার	-9.95835
▁বান্দরবান	-9.95882
▁২০০৬	-9.95897
▁বাইবেল	-9.96005
পা	-9.96099
৫০	-9.96119
▁বোলিং	-9.96124
▁মাংস	-9.96145
▁ওয়েবসাইটের	-9.96166
▁ইউনিয়নে	-9.96204
▁হোসাইন	-9.96227
c	-9.9623
▁নির্মাতা	-9.96242
▁মমতা	-9.96293
এক	-9.9642
▁আইনি	-9.96427
▁মেয়াদ	-9.9645
▁নগদ	-9.96479
▁সিস্টেম	-9.96486
▁বৌদ্ধ	-9.96493
▁উল্লাহ	-9.96534
▁প্রত্যাশা	-9.96535
n	-9.9655
▁ভাষার	-9.96631
▁সাহা	-9.96635
▁জয়ী	-9.96637
▁প্রকাশের	-9.96826
▁পণ্যের	-9.9688
▁টাইমস	-9.96948
▁১১টার	-9.9702
▁পরিবর্তে	-9.97048
▁ফাইনাল	-9.97116
▁সকলের	-9.97139
▁বাড়ানোর	-9.9714
▁সুর	-9.97206
▁সম্ভাব্য	-9.97214
▁জ	-9.97225
স্বত্ব	-9.9726
▁নেবেন	-9.97305
▁এদিন	-9.97308
০০০	-9.97316
▁পদ্ধতিতে	-9.97324
▁নেতৃত্বাধীন	-9.9736
▁মুখপাত্র	-9.9739
▁ডট	-9.97422
▁(5)	-9.97546
▁আফ্রিকার	-9.97637
▁আব্দুর	-9.97639
▁রাষ্ট্রদূত	-9.97664
▁পরিপ্রেক্ষিতে	-9.97698
▁বাড়াতে	-9.97703
▁দাঁড়িয়েছে	-9.97727
▁লিঃ	-9.97738
▁সাগর	-9.97739
▁যোগদান	-9.97792
▁করছিল	-9.97801
▁হোটেলে	-9.97842
▁ভোরে	-9.97871
ফ	-9.97878
▁হে	-9.97923
▁উদ্দীন	-9.97943
▁পাবনা	-9.98032
▁প্রায়ই	-9.98045
▁৪৮	-9.98091
▁হস্তান্তর	-9.98095
▁পরিদর্শক	-9.98143
▁সন্ধান	-9.98294
▁ছয়টি	-9.98354
▁ডান	-9.98384
▁লে	-9.98486
▁সম্ভবত	-9.98487
▁বিজ্ঞপ্তিতে	-9.98628
▁আওয়ামীলীগের	-9.98642
কর্মীরা	-9.98677
▁চামচ	-9.98758
▁ভাবতে	-9.98762
▁দফায়	-9.98773
▁পৌরসভা	-9.98782
▁জে	-9.98825
▁অভিযোগের	-9.98873
▁০৫	-9.98888
▁দুজনের	-9.98901
▁তাকিয়ে	-9.9894
▁উ	-9.98961
▁অপরাধে	-9.98992
▁সফটওয়্যার	-9.99051
▁কমান্ডার	-9.99069
▁প্রতিবছর	-9.99089
▁বাসে	-9.99176
▁উৎসাহ	-9.99187
▁কামরুল	-9.99241
▁আস্থা	-9.99247
▁নেত্রী	-9.99277
▁অভিবাসন	-9.9935
▁আয়ের	-9.99403
▁for	-9.99405
▁গাড়িতে	-9.99409
▁যুদ্ধে	-9.99431
▁স্বার্থে	-9.99431
▁সা	-9.99477
গুলোকে	-9.99577
▁তারপরও	-9.99591
▁সার্কুলেশন	-9.99607
▁মহাসড়কের	-9.99623
▁ইসলামিক	-9.99646
▁মীর	-9.9967
▁গণতন্ত্র	-9.99722
▁পাঠানোর	-9.99749
▁ইতিবাচক	-9.99784
▁রাতের	-9.99796
▁ভোর	-9.99809
▁::	-10.0005
▁সাহেব	-10.0007
▁শো	-10.001
▁দুর্বৃত্তরা	-10.0012
▁যানজট	-10.0014
▁নেতার	-10.0018
▁দায়িত্বে	-10.0022
৫২	-10.0024
▁রেজাউল	-10.0024
▁অনেকের	-10.0031
▁অবস্থার	-10.0031
▁প্রযুক্তির	-10.0033
▁গেম	-10.0045
▁বিজিবি	-10.0052
মি	-10.0056
▁আপত্তি	-10.0059
▁বইয়ের	-10.0059
▁পালিত	-10.0063
▁ছোট্ট	-10.0065
▁পায়ে	-10.0066
рз	-10.0066
▁আবেদনের	-10.007
+	-10.0072
▁ষড়যন্ত্র	-10.0076
▁দিয়েছি	-10.0076
▁রাজ্যে	-10.0086
কি	-10.0087
▁খালি	-10.009
▁বাংলাদেশী	-10.0094
▁কোরিয়ার	-10.0095
▁আফ্রিকা	-10.0099
▁ইচ্ছে	-10.01
▁সত্যিই	-10.0102
▁১০টি	-10.0103
▁মৎস্য	-10.0103
▁কর্মীরা	-10.0111
▁পাঠিয়ে	-10.0116
▁ভয়ে	-10.0122
▁এসএসসি	-10.0131
▁গুলশান	-10.0132
নগর	-10.0133
▁মঞ্চে	-10.0137
▁সহজে	-10.0149
▁সোনা	-10.0155
▁উত্তোলন	-10.016
▁মোটরসাইকেল	-10.0163
▁মার্কেট	-10.0165
▁অভিবাসী	-10.0177
▁বিষয়ের	-10.0178
b	-10.0191
▁সমাজে	-10.0194
▁সাহস	-10.0196
▁যুক্তরাষ্ট্রে	-10.0197
▁রাষ্ট্রের	-10.0198
▁আশরাফুল	-10.0201
▁ময়না	-10.0204
▁স্যার	-10.0206
▁হাট	-10.0208
▁ঐতিহ্য	-10.0223
▁ইতিহাসের	-10.0227
▁বিনিময়ে	-10.0228
▁পারছে	-10.0228
▁শরীফ	-10.0233
▁মেলায়	-10.0236
▁একা	-10.0237
▁ব্রাজিল	-10.0239
▁পর্যটন	-10.0242
▁বলিউড	-10.0246
▁বাড়ানো	-10.0252
▁বাণী	-10.0253
▁জ্বালানি	-10.0254
▁গলা	-10.0256
▁শ্রেণি	-10.0261
▁চেক	-10.0265
▁লাইভ	-10.0265
▁বিশ্লেষণ	-10.0273
▁বাংলায়	-10.0274
▁ব্যবসায়ীরা	-10.0277
▁সম্পর্কিত	-10.0281
▁উঁচু	-10.0294
লি	-10.0301
▁পৃথিবীতে	-10.0306
▁দুর্নীতির	-10.0306
▁ওঠার	-10.0314
S	-10.0324
▁বললাম	-10.0331
▁২য়	-10.0331
▁ভাইয়ের	-10.0333
▁বক্স	-10.034
▁শুল্ক	-10.034
▁ম্যাজিস্ট্রেট	-10.0341
▁প্রতিশ্রুতি	-10.0342
▁মান্নান	-10.0342
কার	-10.0347
▁মুঠোফোনে	-10.0347
▁ইফতার	-10.0348
▁পদ্মা	-10.035
▁সাল্লাম	-10.0351
▁অফিসের	-10.0368
▁রাজ	-10.037
বিরোধী	-10.0374
▁ফসল	-10.0375
▁i	-10.0376
▁সিলেটে	-10.038
সভাপতি	-10.0385
▁চক্রবর্তী	-10.0395
▁সোশ্যাল	-10.0398
▁ধাপ	-10.0404
▁দেখেছি	-10.0407
▁চারজন	-10.0408
ৎ	-10.0414
▁বুকে	-10.0414
▁কপি	-10.0418
▁কর্ম	-10.0428
▁ট্রাস্ট	-10.043
▁স্মার্টফোন	-10.0432
▁অভিষেক	-10.0433
▁জন্মদিন	-10.0437
▁বাম	-10.0452
▁প্রমাণিত	-10.0458
▁ভারী	-10.046
▁২০০১	-10.0461
▁মিশন	-10.0463
▁ফেলতে	-10.0463
▁আকবর	-10.0463
▁ধানের	-10.0463
▁উপভোগ	-10.0469
▁ব্যবসায়ীদের	-10.0484
▁প্রতিষ্ঠানে	-10.0484
▁প্রকার	-10.049
▁একদল	-10.0493
▁রাখুন	-10.0493
▁পাখি	-10.0499
▁আত্মহত্যা	-10.0508
গুলির	-10.051
্য	-10.0511
▁সভার	-10.0514
▁পরিবর্তনের	-10.0515
▁লিটন	-10.0524
▁কাজটি	-10.0526
▁Bangla	-10.0535
▁৭১	-10.0536
▁বিনিময়	-10.0547
▁মসজিদের	-10.0552
▁বক্তারা	-10.0553
▁নম্বরে	-10.0563
▁পেয়েছি	-10.0564
▁ডিম	-10.0573
▁অপহরণ	-10.0573
▁ইবনে	-10.0574
▁জেলে	-10.0577
▁বিগত	-10.0584
▁b	-10.0589
থ	-10.059
▁ড্র	-10.0593
▁শহিদুল	-10.0598
▁বৈধ	-10.0602
▁ভেসে	-10.0606
▁বালিকা	-10.0608
▁পরিস্থিতির	-10.0612
▁পেরিয়ে	-10.0612
▁সিদ্দিকী	-10.0617
▁প্রতিবেশী	-10.062
▁কখনোই	-10.0633
▁আধা	-10.0641
▁ব্লগ	-10.0644
▁ইউনিভার্সিটি	-10.0644
▁ইউসুফ	-10.0648
▁আসাদুজ্জামান	-10.0648
▁যুগে	-10.0649
▁লিগে	-10.0655
▁আকর্ষণ	-10.066
▁শ্রেষ্ঠ	-10.0666
ভ	-10.0667
▁মিনিটের	-10.0668
▁তোমাকে	-10.0677
▁বিবাহ	-10.0681
▁অনুবাদ	-10.0683
▁কাটিয়ে	-10.0689
▁হারুন	-10.069
▁বিবেচনায়	-10.0697
▁শপথ	-10.0699
▁পরদিন	-10.0702
▁কমপ্লেক্সে	-10.0709
▁মহা	-10.0709
▁কুপিয়ে	-10.0712
▁নিচ্ছেন	-10.0714
▁বাস্তব	-10.0718
▁সাজা	-10.0719
y	-10.0727
▁প্রকৌশল	-10.0729
ছিলেন	-10.0734
▁পড়াশোনা	-10.0748
▁ডুবে	-10.0753
▁মুসলমান	-10.0754
▁рж	-10.0762
▁মামলাটি	-10.0762
▁মেশিন	-10.0766
▁থাকুন	-10.0777
▁ম্যানেজার	-10.0779
▁কমিয়ে	-10.0781
▁ঘটনাস্থল	-10.0785
▁মজার	-10.0787
▁ভাবনা	-10.0789
▁জামায়াতের	-10.0789
▁বিনামূল্যে	-10.0794
▁নকল	-10.0799
▁ভিডিওচিত্র	-10.0801
▁ওয়েবসাইটে	-10.0807
▁আশপাশের	-10.0811
▁সংক্ষিপ্ত	-10.0817
▁দি	-10.0823
▁পরাজিত	-10.0824
▁৪৪	-10.0839
▁ঝড়	-10.0841
▁ii	-10.0841
▁মৌলিক	-10.0841
ঘ	-10.0846
▁৭৫	-10.0849
সমূহ	-10.0849
▁অন	-10.0849
ণ	-10.0855
▁সঙ্গীত	-10.0856
▁মানিকগঞ্জ	-10.0858
▁সাঈদ	-10.0859
▁পরিস্থিতিতে	-10.0859
▁রোগী	-10.0864
▁মেজর	-10.0867
▁ঈশ্বরের	-10.0874
▁ব্যাগ	-10.0877
▁প্রকাশ্যে	-10.0887
C	-10.0887
▁যোগ্য	-10.0892
▁প্রবল	-10.0892
▁শ্রম	-10.0893
▁ক্ষোভ	-10.09
▁দেশকে	-10.0904
▁অগ্রগতি	-10.0908
▁নিরপেক্ষ	-10.091
▁অনুভব	-10.091
▁সন্ত্রাস	-10.0913
▁ছাপা	-10.0916
▁ক্রিকেটের	-10.0918
▁হলুদ	-10.0919
▁সমন্বয়	-10.0922
▁সম্মাননা	-10.0932
▁দাবী	-10.094
▁ইরান	-10.0945
▁সেবার	-10.0948
▁নায়ক	-10.0957
▁দেহ	-10.0959
▁নীতিমালা	-10.096
▁সংসার	-10.0962
▁প্রেসক্লাবের	-10.0964
▁৩৩	-10.0966
▁যোগাযোগের	-10.0967
▁কক্সবাজারের	-10.0969
▁শনাক্ত	-10.0972
▁০১	-10.0973
▁বিচারের	-10.0982
▁এসআই	-10.0985
▁শরীয়তপুর	-10.0987
▁সম্পত্তি	-10.0987
▁কখন	-10.099
▁প্রচারিত	-10.1002
▁পাসপোর্ট	-10.1003
▁সময়ই	-10.101
▁ফোনে	-10.1011
▁ভবিষ্যৎ	-10.1016
▁মনোনীত	-10.1032
▁মঞ্জুর	-10.1033
▁দরিদ্র	-10.1038
চ	-10.1045
▁বাঁধ	-10.1045
▁মোশাররফ	-10.1047
▁আড়াই	-10.1051
দা	-10.1052
▁এশিয়ান	-10.1059
▁নাসির	-10.1061
▁সেতুর	-10.107
▁ডিজাইন	-10.1073
▁ধরেন	-10.1077
▁ভ্রাম্যমাণ	-10.1078
▁একদম	-10.1079
▁নরেন্দ্র	-10.1084
▁রাঙ্গামাটি	-10.1084
▁পার্ক	-10.1085
▁জাহাজ	-10.1091
▁ধারায়	-10.1094
▁৩৭	-10.1096
▁সাধারন	-10.1098
▁১১টায়	-10.11
নের	-10.1101
▁প্রাক্তন	-10.1104
▁রুম	-10.1107
▁দেশীয়	-10.1108
▁পাল	-10.111
▁দপ্তর	-10.1115
▁2013	-10.1117
▁2012	-10.1118
▁শীর্ষে	-10.112
▁কর্নেল	-10.112
▁পল্লী	-10.1123
▁লিখতে	-10.1124
▁স্টার	-10.1132
▁পর্যাপ্ত	-10.1152
▁ছালাত	-10.1154
▁৩৪	-10.1155
▁বিচ্ছিন্ন	-10.1158
▁টেবিল	-10.116
▁রুবেল	-10.1163
▁বাড়বে	-10.1165
▁৩৬	-10.1166
▁ছাড়	-10.1167
▁দক্ষতা	-10.1167
▁প্রেরণ	-10.1169
▁চাকরির	-10.1171
▁অপেক্ষায়	-10.1173
▁উদযাপন	-10.1174
▁দত্ত	-10.1178
▁সুলতান	-10.118
▁বিক্রয়	-10.1181
▁ঐক্যফ্রন্টের	-10.1187
▁দিনব্যাপী	-10.119
▁পাল্টা	-10.1196
▁শেরপুর	-10.1202
▁৩৮	-10.1203
▁পাক	-10.1203
▁মানবিক	-10.1204
▁স্ব	-10.1206
▁ফ্রান্সের	-10.1207
▁যুদ্ধের	-10.121
▁খেয়াল	-10.121
▁১০টার	-10.1211
▁সমাপনী	-10.1213
t	-10.1216
▁গলায়	-10.1219
▁বাবুল	-10.1223
▁প্রতিপক্ষ	-10.1226
▁আদিবাসী	-10.1236
▁দক্ষ	-10.1236
▁চালাতে	-10.1236
▁আল্যা	-10.1236
▁তাছাড়া	-10.1237
▁মু	-10.124
▁৬৫	-10.1241
T	-10.1242
▁প্রদর্শনী	-10.1243
▁ইতোমধ্যে	-10.1243
▁সূচনা	-10.1247
▁স্বতন্ত্র	-10.1257
▁সুলতানা	-10.1263
▁পারছি	-10.1264
▁যিহোবা	-10.1268
▁অভ্যন্তরীণ	-10.1273
▁যাবতীয়	-10.1274
▁উপপরিদর্শক	-10.1275
▁পার্থক্য	-10.1277
▁বাছাই	-10.1277
▁তত	-10.1289
▁বিপ্লব	-10.1301
▁অভাবে	-10.1316
▁কোর্স	-10.1318
▁বন্যা	-10.1318
▁রোডের	-10.1319
▁বিক্রির	-10.1322
▁অবস্থানে	-10.1324
▁সার্টিফিকেট	-10.1327
▁পরেই	-10.1331
▁ঈদে	-10.1333
▁শেয়ারবাজার	-10.1338
▁সামগ্রী	-10.1342
▁প্রাণী	-10.1343
▁শিক্ষাবর্ষে	-10.1347
▁পয়সা	-10.1347
▁মুজিব	-10.1349
▁অপরাধের	-10.1358
▁মৃত্যুদণ্ড	-10.136
▁ইউরোপীয়	-10.1362
▁আজকে	-10.1363
▁পরিচালনায়	-10.1365
▁শক্ত	-10.1366
▁আবহাওয়া	-10.1367
▁মাঠের	-10.1373
▁আরিফ	-10.1377
▁চাপা	-10.1381
▁আনুষ্ঠানিক	-10.1397
▁ওয়ার্ল্ড	-10.1403
▁কো	-10.1405
▁পায়ের	-10.1406
▁সিনেমার	-10.1407
▁রাজনীতিতে	-10.1417
▁শান্ত	-10.1419
▁অর্থবছরে	-10.1423
▁প্রশাসনিক	-10.1423
▁বঞ্চিত	-10.1426
▁সবসময়	-10.1427
৩৪৬	-10.143
▁তহবিল	-10.143
▁গড়	-10.1432
▁মোমিন	-10.1432
▁গবেষক	-10.1432
▁আগুনে	-10.1435
উ	-10.1435
▁যোগ্যতা	-10.1439
▁বয়সের	-10.1446
▁দাশ	-10.1452
▁জোড়া	-10.1456
▁বিমানবন্দর	-10.1464
▁খাবারের	-10.1467
▁বিদ্যমান	-10.1468
▁প্রশ্নে	-10.1475
▁জিজ্ঞেস	-10.1476
▁আবদুস	-10.1478
▁সশস্ত্র	-10.148
▁যাচ্ছি	-10.148
▁সমৃদ্ধ	-10.1484
▁সদ্য	-10.1489
▁ক্যাম্প	-10.1491
▁পূর্ণাঙ্গ	-10.1493
▁উনি	-10.1497
▁উৎসবে	-10.1497
▁পাননি	-10.15
▁হলেই	-10.1505
▁সেখানেই	-10.1505
L	-10.1506
▁কোনটি	-10.1507
▁হবিগঞ্জ	-10.1508
▁দুঃখ	-10.1512
▁স্লোগান	-10.1515
▁ফাউন্ডেশনের	-10.1516
▁দেখাতে	-10.1516
▁খেলোয়াড়দের	-10.1519
8	-10.152
▁বাড্ডা	-10.152
▁কোড	-10.1522
▁ইঙ্গিত	-10.1523
▁ভিসা	-10.1523
▁৪৩	-10.1527
▁ট্রাফিক	-10.1531
▁নারীরা	-10.1531
▁৪২	-10.1532
▁আপনিও	-10.1533
▁পেলেন	-10.1533
▁২০০০	-10.1534
▁পুড়ে	-10.1545
▁এশিয়ার	-10.1549
▁তবুও	-10.1553
▁প্রভাবশালী	-10.156
▁ইংলিশ	-10.1568
▁হা	-10.1568
▁পাহাড়ি	-10.157
▁সম্মেলনের	-10.1572
▁টুয়েন্টিফোর	-10.1575
▁বৃষ্টির	-10.1583
▁গ্রাহক	-10.1585
▁শুরুতেই	-10.1603
▁হুমায়ুন	-10.1603
▁বানিয়ে	-10.1604
▁ইঞ্চি	-10.1607
▁নিযুক্ত	-10.1607
▁প্রতিষ্ঠার	-10.161
▁গণমাধ্যম	-10.1612
▁বিকাল	-10.1616
▁পলাতক	-10.1617
▁ঐক্যফ্রন্ট	-10.1626
▁এএফপি	-10.163
▁জের	-10.1636
▁ইউনিটের	-10.1637
▁শ্রেণীর	-10.1638
শে	-10.164
▁শাহজালাল	-10.1646
▁ঘন	-10.165
▁ডলারের	-10.1651
▁সই	-10.1653
▁রবি	-10.1655
▁চুক্তির	-10.1659
▁বাড়তে	-10.1669
▁মিষ্টি	-10.1675
▁সহযোগিতায়	-10.1676
▁মেলার	-10.1679
▁চলা	-10.1682
▁যুগ	-10.169
▁পরিচিতি	-10.1697
▁হরতাল	-10.1705
▁গবেষণায়	-10.1705
▁হজ	-10.1708
▁রাজ্জাক	-10.1708
▁প্রবন্ধ	-10.1712
▁উপযুক্ত	-10.1716
▁শাহজাহান	-10.1719
▁ঈদুল	-10.1719
▁কৃতজ্ঞ	-10.1727
▁চর্চা	-10.1728
▁পদক	-10.1734
▁পুড়িয়ে	-10.1742
▁আনুষ্ঠানিকভাবে	-10.1742
▁সৌন্দর্য	-10.1744
▁পরিসংখ্যান	-10.1745
▁জমে	-10.175
▁তদন্তের	-10.1752
▁যৌনসঙ্গম	-10.1753
▁১০টায়	-10.1757
▁প্রচণ্ড	-10.1757
▁পুঁজিবাজারে	-10.1758
▁কংগ্রেসের	-10.1764
▁তথ্যপ্রযুক্তি	-10.1775
▁হাইকোর্টের	-10.1776
▁সম্বন্ধে	-10.1777
▁যাকে	-10.1781
▁নিলেন	-10.1786
▁বীজ	-10.179
▁স্ত্রীকে	-10.1795
▁নোট	-10.18
মন্ত্রী	-10.1807
▁ধরার	-10.1807
▁কারখানার	-10.1811
▁ওয়ান	-10.1825
▁দিবাগত	-10.1829
▁চীনা	-10.1829
▁চত্বরে	-10.1835
▁সচেতনতা	-10.1842
▁’’	-10.1842
▁সম্পর্কের	-10.1844
▁হুদা	-10.1844
লো	-10.1845
▁খাত	-10.1847
▁বিজেপির	-10.1853
▁ব্যাংকিং	-10.1855
▁গা	-10.1856
▁পাঠান	-10.1861
▁পৌনে	-10.1869
▁মাসিক	-10.1871
▁অর্ধেক	-10.188
▁মিস	-10.188
▁কাদেরের	-10.1883
▁একেবারেই	-10.1884
▁ভাব	-10.1884
▁আপাতত	-10.1886
▁হাবিবুর	-10.1887
এসআই	-10.1889
▁হাবিব	-10.1891
▁থেমে	-10.1896
▁জাহিদ	-10.19
▁আশ্বাস	-10.1903
▁ওভার	-10.1906
▁করানো	-10.1912
▁সোয়া	-10.1915
▁সাক্ষাৎ	-10.1916
▁পছন্দের	-10.1918
▁আরোপ	-10.1918
▁উপকরণ	-10.1925
▁বয়ে	-10.193
R	-10.1935
▁পাকা	-10.1936
▁ফ্রান্স	-10.1936
▁মার	-10.1941
▁উল্টো	-10.1946
▁ইন্ডিয়া	-10.1949
▁সঙ্গী	-10.195
▁কেনার	-10.1952
▁চমৎকার	-10.1952
▁উঠছে	-10.1955
▁জিয়াউর	-10.1961
▁বাঁধা	-10.1963
▁দাও	-10.1967
▁যাচ্ছিল	-10.1972
▁প্রদানের	-10.1974
▁নিন্দা	-10.1978
▁মানিক	-10.1981
▁শট	-10.1984
h	-10.1987
২০১৬	-10.1997
▁মাটির	-10.1997
▁ত্রাণ	-10.1999
▁ওমর	-10.2
▁দেয়নি	-10.2011
▁প্রজন্মের	-10.2016
▁নিয়েও	-10.2028
▁এবারও	-10.2029
▁কর্মচারী	-10.2032
▁প্রতিরক্ষা	-10.2033
..	-10.2035
▁বাস্তবায়নের	-10.2036
▁মেহেদী	-10.2037
▁iii	-10.2038
▁এসেছিলেন	-10.2044
▁দা	-10.2046
স্	-10.2048
::	-10.2052
▁লবণ	-10.2058
▁আশরাফ	-10.206
▁ব্যাপারটা	-10.2061
▁রমজান	-10.2062
▁ইউ	-10.2066
▁ঘাটতি	-10.2071
▁স্বাদ	-10.2073
▁দুদক	-10.2078
▁টিপস	-10.208
▁দেখলে	-10.2083
▁মজা	-10.2086
▁সার্ভিসের	-10.2087
▁উত্তরে	-10.2087
▁লাইফ	-10.2088
াল	-10.2095
▁তুরস্কের	-10.2095
▁পাড়া	-10.2096
▁জাপান	-10.2097
টাও	-10.2101
▁আস্তে	-10.2103
৭৫	-10.2109
▁উত্তেজনা	-10.2114
▁বইটি	-10.2115
▁একাডেমি	-10.2119
▁সাহায্যে	-10.2125
▁প্রতিযোগিতার	-10.2134
▁বাইরের	-10.2135
▁আলাপ	-10.2136
▁বিমানবন্দরে	-10.2139
▁যাব	-10.2143
▁জোরদার	-10.2146
▁পূর্বানুমতি	-10.2148
▁পরিবহনের	-10.2151
▁লিগের	-10.216
▁ভোগ	-10.2168
▁ভর	-10.217
▁সমগ্র	-10.2172
▁শিগগিরই	-10.2173
▁দর্শকদের	-10.2175
▁সমর্থক	-10.2176
▁উপন্যাস	-10.2177
▁দুর্ঘটনার	-10.2177
▁সাময়িক	-10.2178
২৬	-10.2182
▁ভুয়া	-10.2185
▁ব্যাংকে	-10.2187
_	-10.2189
▁করেছিলাম	-10.2189
▁হায়দার	-10.2192
▁কুষ্টিয়া	-10.2195
▁সংবাদদাতা	-10.2197
▁সাতটি	-10.2201
▁3	-10.2201
▁পশ্চিমবঙ্গের	-10.2201
▁চিনি	-10.2208
▁প্রচারণা	-10.2211
▁জাহান	-10.2212
▁মিউজিক	-10.2214
▁দখলে	-10.2215
▁এনামুল	-10.2215
▁bangla	-10.2216
▁হার্ডকোর	-10.2221
▁গাজী	-10.2228
▁সংসদীয়	-10.2234
▁রেলওয়ে	-10.2241
▁৪০০	-10.225
▁ডিবি	-10.225
▁ভিতরে	-10.2254
▁ক্ষতিপূরণ	-10.2254
▁আজিজুল	-10.2255
▁৪৭	-10.2257
▁2	-10.2265
▁ইউনাইটেড	-10.2265
▁আনন্দবাজার	-10.2265
▁সেট	-10.2268
৬৯	-10.2268
▁মুখের	-10.2269
▁গুলিবিদ্ধ	-10.2271
▁প্রশ্নোত্তর	-10.2272
▁গোলের	-10.2275
▁বরাত	-10.2276
▁খাল	-10.2278
▁প্রতিষ্ঠানটি	-10.2279
▁শিক্ষাবর্ষের	-10.228
▁একান্ত	-10.2281
▁নির্দেশে	-10.2282
▁মর্গে	-10.2282
▁মুন্সিগঞ্জ	-10.229
▁তৎপরতা	-10.2295
ছিল	-10.2296
▁অসহায়	-10.2296
▁বলছি	-10.2307
A	-10.2309
▁C	-10.2315
▁পর্যালোচনা	-10.2321
▁চিহ্ন	-10.2326
▁বেশিরভাগ	-10.2331
▁শফিকুল	-10.2332
▁চৌদ	-10.2337
২৭	-10.2341
▁বাচ্চা	-10.2341
▁খোকন	-10.2343
ষ	-10.2343
▁আকার	-10.2345
▁ফেলেছে	-10.2346
▁হত্যাকাণ্ডের	-10.2347
▁তাও	-10.2349
▁সাক্ষ্য	-10.2349
▁কাঁচা	-10.2352
বড়	-10.2357
▁ব্যবসায়	-10.2359
সব	-10.2364
▁লাগছে	-10.2365
▁রিজভী	-10.2365
▁নেতৃবৃন্দ	-10.237
▁মোতায়েন	-10.2371
▁বগুড়ার	-10.2377
▁ভিত্তিক	-10.2381
▁অবাধ	-10.2383
▁ব্যবস্থাপক	-10.2383
▁বর্ষের	-10.2395
▁ফাউন্ডেশন	-10.2401
▁প্রাইভেট	-10.2401
▁মাছের	-10.2403
▁পশু	-10.2404
▁শিক্ষার্থীর	-10.2404
▁পৃথিবী	-10.2412
▁ভিটামিন	-10.2414
▁বিকালে	-10.2417
▁ধর্মযাজক	-10.2417
▁উচ্ছেদ	-10.2421
জাতীয়	-10.2423
▁লেগেছে	-10.2426
▁চলচ্চিত্রের	-10.2428
কুমিল্লা	-10.2442
▁রিট	-10.2448
▁চলচ্চিত্রে	-10.245
▁প্রভৃতি	-10.2452
▁৫৫	-10.2462
▁মোদি	-10.2464
▁৫২	-10.2467
▁কলকাতায়	-10.2472
▁কারনে	-10.2472
▁যুক্তরাজ্য	-10.2476
▁তেজগাঁও	-10.2476
▁অর্থবছরের	-10.2478
▁নকশা	-10.2478
এম	-10.248
▁দশকে	-10.248
▁আলি	-10.2483
▁গ্রহণযোগ্য	-10.2484
▁শ্রীলঙ্কার	-10.2485
▁বসু	-10.249
▁যাত্রীদের	-10.2497
▁পুরুষদের	-10.2497
▁সিরাজুল	-10.25
▁পরিবারকে	-10.25
▁অনুশীলন	-10.2502
▁কবীর	-10.2503
▁পাট	-10.2504
▁আলাইহি	-10.2505
▁রক্ষাকারী	-10.2509
▁হকের	-10.251
▁ধারাবাহিক	-10.2511
▁হানিফ	-10.2515
▁তদন্তে	-10.2515
▁বন্ধুদের	-10.2517
▁বালু	-10.2518
▁বলিউডের	-10.2519
▁আরবের	-10.252
▁ছাড়িয়ে	-10.2521
▁আসর	-10.2522
▁নেটওয়ার্ক	-10.2527
▁মহিউদ্দিন	-10.2528
▁দেশি	-10.2531
▁এতো	-10.2535
▁জার্মানির	-10.2538
তি	-10.2538
▁জটিল	-10.2541
▁নিয়েছিলেন	-10.2544
▁চলার	-10.2548
▁জরিপ	-10.255
▁দাগ	-10.256
▁সাক্ষী	-10.256
▁বিদেশ	-10.256
▁চাইতে	-10.2572
▁বক্তৃতা	-10.2573
▁প্রবণতা	-10.2575
▁স্পিকার	-10.2576
▁মূল্যায়ন	-10.2579
▁গাজীপুরের	-10.2584
▁বিলিয়ন	-10.2584
▁কনটেন্ট	-10.2588
▁কোর্টের	-10.2588
▁সিমেন্ট	-10.259
▁দেশগুলোর	-10.2593
▁উড়িয়ে	-10.2595
▁ভর্তির	-10.2596
▁লোকের	-10.2598
▁সংলাপ	-10.2601
▁সংগ্রহের	-10.2603
▁শাহীন	-10.2611
▁তোলে	-10.2614
▁সৃষ্টির	-10.2615
▁প্রতিবন্ধী	-10.2616
▁লাগানো	-10.2616
▁০৪	-10.2619
▁দেখলাম	-10.2619
▁পিছনে	-10.2624
অব	-10.2627
▁হয়েছি	-10.2628
▁বৈশিষ্ট্য	-10.263
▁চেয়েও	-10.263
▁২টি	-10.263
▁ইট	-10.2632
▁অসম্ভব	-10.2632
▁প্রযোজ্য	-10.2634
▁অস্তিত্ব	-10.2635
▁সাইটের	-10.2635
▁হালাল	-10.2639
▁কেনা	-10.265
▁ডিএসই	-10.2651
▁কাজেই	-10.2652
▁ভক্ত	-10.2655
▁বলেছি	-10.2665
▁মনোযোগ	-10.2666
▁পাচার	-10.2667
▁কারন	-10.267
▁নুর	-10.2671
▁প্রচেষ্টা	-10.2675
▁সংবর্ধনা	-10.2677
▁তত্ত্বাবধায়ক	-10.2678
▁ব্যুরো	-10.268
র্ধ্বতন	-10.2683
▁কবে	-10.2684
▁নামিয়ে	-10.2691
N	-10.2694
▁নেতাকর্মীদের	-10.2699
▁এসেছি	-10.2701
▁পাউন্ড	-10.2702
▁ব্যক্তিত্ব	-10.271
▁পারিনি	-10.271
▁অ্যাডভোকেট	-10.2714
▁কা	-10.2714
▁এন	-10.2717
▁সমাপ্ত	-10.2718
▁করতেই	-10.2721
▁শ্রীলঙ্কা	-10.2724
▁আমন্ত্রণ	-10.2726
▁বর্জন	-10.2726
▁নিহতের	-10.273
▁উপযোগী	-10.2731
▁১০টা	-10.2732
▁টেক	-10.2733
▁সিভিল	-10.2741
▁সমর্থকদের	-10.2752
▁চোট	-10.2754
▁সাব	-10.2756
▁ছাত্রদলের	-10.2757
মুক্ত	-10.2757
▁ফিরতে	-10.2758
এমন	-10.2759
▁মুখ্য	-10.2761
▁কারিগরি	-10.2767
▁০৭	-10.2767
▁রোগীর	-10.2768
▁নির্বিঘ্নে	-10.2771
▁আহমেদের	-10.2772
▁নাগরিকদের	-10.2773
যে	-10.2775
▁কাহিনী	-10.2779
▁রহস্য	-10.2782
▁সেন্ট	-10.2786
▁চাঁদ	-10.2788
▁বিরোধ	-10.2791
▁ভোটে	-10.2798
▁ভীষণ	-10.2806
▁রাম	-10.2806
▁মহাসড়কে	-10.2807
▁ফাইল	-10.2811
▁চালিয়েছে	-10.2817
▁সৃজনশীল	-10.2818
▁ফ্যাশন	-10.2818
▁ইস্যু	-10.2819
▁রবীন্দ্রনাথ	-10.282
▁সমুদ্র	-10.2822
▁পেশা	-10.2822
▁ইলিশ	-10.2823
▁হই	-10.2824
▁মারাত্মক	-10.2834
▁গুলিতে	-10.2835
▁সীমান্তে	-10.2836
▁টুর্নামেন্ট	-10.2837
▁স্যাটেলাইট	-10.2839
▁ক্যারিয়ার	-10.2842
▁এমনটা	-10.2843
▁দশম	-10.2864
িয়ে	-10.2865
▁ধাপে	-10.287
▁টিউটোরিয়াল	-10.2872
▁পয়েন্টে	-10.2874
▁সন্তানদের	-10.2883
▁দেরি	-10.2888
▁পর্যবেক্ষণ	-10.2892
▁মূল্যে	-10.2894
▁চিৎকার	-10.2897
▁শাকিব	-10.2901
▁শামসুল	-10.2901
▁পরপরই	-10.2905
▁রবিউল	-10.2906
▁দিলাম	-10.2909
▁আদায়ের	-10.291
পূর্ব	-10.2912
▁সহিংসতা	-10.2913
▁যন্ত্র	-10.2918
▁পায়নি	-10.2918
▁জনসংখ্যা	-10.292
▁ধার্য	-10.2921
▁আজও	-10.2922
▁বানানো	-10.2927
▁হৃদয়	-10.2929
▁সাফল্যের	-10.2937
▁রাশেদ	-10.2939
▁দেখবেন	-10.2943
▁সবই	-10.2952
▁খেলাধুলা	-10.2952
▁একুশে	-10.2955
▁সংবাদে	-10.2955
▁০৬	-10.2965
▁কাগজপত্র	-10.2965
▁অতিক্রম	-10.2965
▁সেখানকার	-10.2968
▁আকারে	-10.2975
▁ন্যায়	-10.2978
▁এখানকার	-10.2984
▁আওয়ামীলীগ	-10.2988
▁সফলতা	-10.2991
▁ট্রেড	-10.2996
▁০৯	-10.3003
▁পেল	-10.3006
▁মাদ্রাসার	-10.3009
▁স্থাপনা	-10.3012
▁এখনই	-10.3013
▁চেপে	-10.3017
▁অদ্ভুত	-10.3025
▁আর্জেন্টিনা	-10.3027
▁বিস্তার	-10.3027
▁স্টেট	-10.3029
▁করলো	-10.303
▁মিশিয়ে	-10.3031
▁সাইকেল	-10.3031
▁কলাম	-10.304
▁পত্রিকায়	-10.3045
▁ছুটির	-10.3046
▁তল্লাশি	-10.3048
▁সমাধানের	-10.3051
▁কক্ষ	-10.3051
▁লোকজনের	-10.3051
▁ঠেকাতে	-10.3053
▁এফ	-10.3056
▁কোরিয়া	-10.3062
▁তাপমাত্রা	-10.3064
▁ভরে	-10.3066
▁টেকনোলজি	-10.3066
নরসিংদী	-10.3069
▁বৃহত্তম	-10.3078
▁সংলগ্ন	-10.3079
▁প্রবৃদ্ধি	-10.3089
▁পরিবেশে	-10.3089
▁মহাসড়ক	-10.309
▁পশ্চিমা	-10.3096
▁আমিনুল	-10.3099
▁খিলক্ষেত	-10.31
▁রোজা	-10.31
▁বিদ্যুতের	-10.3105
▁কাউন্সিল	-10.3113
যা	-10.3119
দ্য	-10.3121
▁২০১৯	-10.3124
▁বৈঠকের	-10.3128
▁ঈশ্বর	-10.3131
▁সহায়তায়	-10.3134
▁বাজে	-10.3137
ান	-10.3142
▁রাখবে	-10.3147
▁বরাবর	-10.3154
▁এভাবেই	-10.3159
▁মনোভাব	-10.3159
▁দাঁড়ায়	-10.3161
▁মনির	-10.3163
▁উদ্বেগ	-10.3163
▁স্বার্থ	-10.3167
▁tits	-10.3172
কাল	-10.3175
▁**	-10.3176
▁মোড়ে	-10.318
▁মুসলমানদের	-10.3181
▁শ্রী	-10.3181
▁হইতে	-10.3185
▁নাটকের	-10.3186
▁ডেপুটি	-10.3188
▁আমেরিকান	-10.3188
▁আলহাজ্ব	-10.3191
▁নিয়োজিত	-10.3196
▁অন্যের	-10.3197
▁শিক্ষকের	-10.3201
▁এড়িয়ে	-10.3204
▁বন্ধুরা	-10.3211
▁৪৬	-10.3212
▁মাকে	-10.3221
পূর্ণ	-10.3225
▁মহল	-10.3226
▁জুয়েল	-10.3232
▁তালা	-10.3234
▁রাহুল	-10.3242
▁০৮	-10.3248
▁রোগের	-10.3252
▁দূতাবাস	-10.3256
এস	-10.3259
▁মোস্তাফিজুর	-10.3259
▁ক্যাম্পাসে	-10.3262
▁মেঘনা	-10.3262
▁গণিত	-10.3265
▁রশীদ	-10.3267
▁রফিক	-10.327
▁info	-10.3271
▁ঐতিহ্যবাহী	-10.3273
▁গেলাম	-10.328
▁বলব	-10.3281
▁যুক্তরাজ্যের	-10.3283
▁অপরাজিত	-10.3295
▁এসেছিল	-10.3295
▁মাস্টার	-10.3296
▁২০০৫	-10.3298
▁লড়াইয়ে	-10.3299
▁নমুনা	-10.33
▁ঘোষিত	-10.33
▁শ্রেণিতে	-10.3304
▁চাপে	-10.3305
▁অশ্লীল	-10.3306
▁পরেও	-10.3309
▁গোসল	-10.3312
▁কর্মকাণ্ড	-10.3313
▁ইন্ডিজ	-10.3313
▁ঘন্টা	-10.3313
er	-10.3315
▁অনেকটাই	-10.3319
▁গানটি	-10.3328
▁এখান	-10.3336
▁সমঝোতা	-10.3337
▁প্রকাশনা	-10.3339
▁অর্ডার	-10.3341
▁পালনের	-10.3343
▁চামড়া	-10.3343
▁তম	-10.3344
▁4	-10.3351
▁আবিষ্কার	-10.3351
▁স্থাপনের	-10.3352
▁ব্যারিস্টার	-10.3355
▁ওয়ার্ডে	-10.3355
▁পারভেজ	-10.3358
▁বলবে	-10.3367
▁২০০৪	-10.3369
▁দশকের	-10.3375
বিহীন	-10.3379
প্রতি	-10.3382
▁তুলনা	-10.3386
▁ডে	-10.3392
▁পরিশ্রম	-10.3393
▁সাভার	-10.3393
▁জাপানের	-10.3398
গামী	-10.3401
▁দুদকের	-10.3405
▁সিংহ	-10.3407
▁হতাশ	-10.3412
▁পেয়েছিলেন	-10.3412
▁মুন্না	-10.3413
▁সাজানো	-10.3413
▁উঠবে	-10.3421
▁অতএব	-10.3422
▁অভিনন্দন	-10.3424
▁পরিবারে	-10.3427
▁সংখ্যক	-10.3429
▁অঙ্গ	-10.3431
▁তুলেছেন	-10.3441
▁ধাওয়া	-10.3445
▁ফুটবলার	-10.3446
▁দুজনকে	-10.3447
▁বর্ণিত	-10.3447
▁সংশোধন	-10.3452
▁কণ্ঠ	-10.3452
▁বিরত	-10.3456
▁সুনামগঞ্জ	-10.346
▁আহবান	-10.3462
▁অনন্য	-10.3464
▁প্রসঙ্গত	-10.3465
▁দশক	-10.3472
▁কুরআন	-10.3477
▁ষষ্ঠ	-10.3483
▁একজনকে	-10.3487
▁দেখেছেন	-10.3491
▁রেডিও	-10.3492
▁বিসিএস	-10.3492
▁ইউএনও	-10.3503
▁মদ	-10.3506
▁অফার	-10.3511
▁গ্রামীণ	-10.3515
▁জলবায়ু	-10.3517
▁কথাও	-10.3522
▁অনার্স	-10.3523
▁সেন্টারে	-10.3525
▁উদ্যোক্তা	-10.3527
▁সরেজমিনে	-10.3527
▁জিততে	-10.3527
▁৬২	-10.3529
▁ঘটছে	-10.3531
▁আটটি	-10.3532
▁বাসার	-10.3536
▁টের	-10.3547
▁সমন্বয়ে	-10.3554
▁রোগে	-10.3567
▁মেলে	-10.3572
▁সুদ	-10.3574
33)	-10.3576
▁বিস্ফোরক	-10.3577
▁ইনকিলাব	-10.3583
▁মুদ্রা	-10.3583
▁নিয়োগের	-10.3589
▁বিদ্রোহী	-10.3593
▁রোনালদো	-10.3596
▁৭২	-10.3606
▁জনপ্রিয়তা	-10.3614
▁বড়ুয়া	-10.3617
▁রহমানকে	-10.3617
▁এমনই	-10.3618
▁পাড়ি	-10.3622
▁আটটা	-10.3623
▁অনুভূতি	-10.3628
▁নেপাল	-10.3628
▁নায়িকা	-10.3635
▁ব্রাজিলের	-10.3638
▁প্যানেল	-10.3644
৮৮	-10.3645
▁চকরিয়া	-10.3647
▁পুরুষের	-10.3649
▁ডাকা	-10.3655
▁অবসর	-10.3656
▁নাসিম	-10.3662
▁ছহীহ	-10.3673
সের	-10.3675
▁কালের	-10.3676
▁পাহাড়ের	-10.3683
▁পাঁচজন	-10.3692
▁রাজীব	-10.3693
▁চাঁদা	-10.3695
▁ফিরোজ	-10.3696
▁মেরামত	-10.3699
▁মাথার	-10.3703
▁প্রগতি	-10.3704
▁নিম্ন	-10.3707
▁ত্রিপুরা	-10.3712
▁জিজ্ঞাসাবাদ	-10.3712
▁প্রত্যক্ষদর্শী	-10.3714
▁ফরাসি	-10.3717
▁লাগাতে	-10.3717
▁সার্চ	-10.3721
▁আপন	-10.3724
▁দেননি	-10.373
▁শরণার্থী	-10.3733
▁৫১	-10.3736
▁সফরের	-10.3737
▁কোরান	-10.3738
▁আমিও	-10.3738
▁হাউস	-10.3738
▁D	-10.3742
▁দুর্যোগ	-10.3742
▁ঠিকই	-10.3743
▁দুইজন	-10.375
▁রওনা	-10.3752
▁জেরে	-10.3752
▁ওসমান	-10.3753
▁জার্মানি	-10.3761
▁অন্যায়	-10.3762
▁৫৭	-10.3762
▁গানে	-10.3766
▁সম্পাদকীয়	-10.3768
▁৯টা	-10.3774
▁প্রণয়ন	-10.3777
▁news	-10.3778
m	-10.3779
▁দিনটি	-10.3783
▁মিত্র	-10.3783
▁আসুন	-10.379
▁ওপেনার	-10.3791
▁ডেভেলপমেন্ট	-10.3793
টাকে	-10.3793
▁সাতজন	-10.3793
▁লেখকের	-10.3801
▁অ্যান্ড্রয়েড	-10.3804
▁আগ	-10.3804
ফাকিস্তান	-10.3808
▁অধিকারী	-10.3813
ায়	-10.3816
▁অস্থায়ী	-10.3818
মান	-10.382
▁পাঠাতে	-10.3821
প্রতিদ্বন্দ্বিতা	-10.3822
▁মুছে	-10.3823
যুক্ত	-10.3823
▁আলু	-10.3825
▁ভালোভাবে	-10.3826
▁ফেলার	-10.3829
▁নাগাদ	-10.3832
▁সাতক্ষীরা	-10.3832
▁নবম	-10.3833
▁শিশুরা	-10.3833
▁লন্ডন	-10.3835
mail	-10.3843
▁দোকানের	-10.3843
▁কান	-10.3851
▁সম্পদের	-10.3851
▁ال	-10.3852
▁ভাগ্য	-10.3853
কর্মী	-10.3855
▁দর্শন	-10.3858
▁স্মারক	-10.3858
▁চলাকালে	-10.3861
▁বেঞ্চ	-10.3866
▁কমাতে	-10.3868
▁গো	-10.387
▁শক্তির	-10.3873
রাও	-10.3881
▁যুবলীগ	-10.3888
▁প্রদেশের	-10.3888
লাম	-10.3889
৩৭১	-10.3894
▁আইয়ুব	-10.3896
3	-10.3901
জনিত	-10.3902
▁মোটা	-10.3903
▁মেসির	-10.3905
▁অবকাঠামো	-10.3906
▁আবারো	-10.3908
▁ঘটনাস্থলেই	-10.391
▁রক্ষার	-10.3914
▁হেঁটে	-10.3915
দি	-10.3915
▁টিকে	-10.3918
▁বিধি	-10.392
▁ছাত্রদের	-10.3921
▁অনূর্ধ্ব	-10.3923
▁কুমিল্লার	-10.3924
2	-10.3929
▁উইন্ডোজ	-10.3929
▁প্রতিদ্বন্দ্বী	-10.3934
▁বিতর্কিত	-10.3935
▁ইউরো	-10.3941
▁অ্যাসোসিয়েশন	-10.3944
▁বউ	-10.3946
▁বিপদ	-10.3953
▁কমপ্লেক্স	-10.3954
▁ওপেন	-10.3956
▁অভিভাবক	-10.3957
▁প্রজাতির	-10.3958
▁১৫০	-10.3959
▁ঘনিষ্ঠ	-10.3964
▁ব্যক্ত	-10.3964
▁সহায়ক	-10.3971
▁লঙ্ঘন	-10.3974
▁কড়া	-10.3974
বাড়ি	-10.3976
▁মন্দিরে	-10.3977
▁বিজনেস	-10.3987
▁হারিয়েছে	-10.3989
▁ইনচার্জ	-10.399
▁আব্বাস	-10.3993
আলাইহি	-10.3995
▁গুজব	-10.3996
▁বাঁচাতে	-10.3997
▁বহাল	-10.4
▁ইউরোপের	-10.4003
▁ডাকাত	-10.4004
▁যাত্রীবাহী	-10.4004
▁হাদিস	-10.4004
▁শিশুটির	-10.4004
▁সাক্ষাৎকারে	-10.4004
▁স্বল্প	-10.4005
▁দেওয়ায়	-10.4007
▁ফেরদৌস	-10.401
▁বিষয়গুলো	-10.401
▁শাহরিয়ার	-10.4013
▁যথাক্রমে	-10.4016
▁পড়ল	-10.4017
▁ছেলেকে	-10.4018
▁অনিয়ম	-10.4019
▁আল্লাহ্	-10.402
▁উঠল	-10.402
▁আসরে	-10.402
▁বটে	-10.4021
▁সূর্য	-10.4023
▁সিরাজ	-10.4023
▁চেহারা	-10.4025
▁তরুণদের	-10.4031
সাল্লাল্লাহু	-10.4032
▁টেস্টের	-10.4036
▁মৌলভীবাজার	-10.4039
▁গভর্নর	-10.4044
▁মানুষদের	-10.4048
▁মালয়েশিয়া	-10.4053
▁মঞ্চ	-10.4053
▁লক্ষ্যমাত্রা	-10.4065
▁প্রকৃতি	-10.4067
▁এয়ার	-10.4074
▁জানাই	-10.4076
এটা	-10.4076
▁বেঙ্গল	-10.4078
▁ভেঙ্গে	-10.4086
▁অষ্টম	-10.4088
▁ডাল	-10.4088
▁ইমদাদুল	-10.4093
▁অধ্যায়	-10.4095
▁কাজটা	-10.4096
▁সংঘর্ষের	-10.4097
▁প্রার্থীরা	-10.4099
"","	-10.41
▁বৃহত্তর	-10.4108
▁দেখছেন	-10.4118
▁কর্মসংস্থান	-10.4127
▁(6	-10.4129
প্রথম	-10.4132
▁করলেই	-10.4133
▁রানী	-10.4135
▁স্বপ্নের	-10.4136
▁চালাচ্ছে	-10.4143
▁পেসার	-10.4146
▁স্থানীয়রা	-10.4146
▁নেইমার	-10.4147
▁অংশের	-10.415
▁দিলেও	-10.4153
▁ঠাকুর	-10.4153
▁জামান	-10.4154
▁নিউজিল্যান্ড	-10.4156
▁৪১	-10.4159
▁মাহফিল	-10.4162
▁গণমাধ্যমে	-10.4163
▁রেসিপি	-10.4166
▁পাইলট	-10.4167
▁শিরোনামে	-10.4168
▁বিদেশী	-10.4168
▁অর্জনের	-10.4174
▁নাহিদ	-10.4177
▁দোষ	-10.4197
▁পিস	-10.4197
▁বদলি	-10.4198
▁পদের	-10.4199
▁খেলেছেন	-10.4206
▁বাগান	-10.4207
▁সমস্যায়	-10.421
▁বিরোধিতা	-10.4215
▁হোম	-10.4216
▁আসামিদের	-10.4219
▁ত্বকের	-10.4223
▁নির্বাচনকে	-10.4225
▁চলছিল	-10.4226
▁সম্পৃক্ত	-10.4231
▁সিরিয়ায়	-10.4232
▁কাশেম	-10.4233
▁কথিত	-10.4235
▁ক্ষুব্ধ	-10.4239
▁আনসার	-10.4241
▁নৌ	-10.4242
▁তারাই	-10.4247
▁মেয়েটি	-10.4248
▁ফুটবলের	-10.4253
▁ডেভিড	-10.4255
▁(8	-10.4256
▁শাহরুখ	-10.4256
▁আঘাতে	-10.4257
▁ফেসবুকের	-10.4258
9)	-10.4261
▁যুবকের	-10.4261
▁ঠান্ডা	-10.4261
▁পরিচালনার	-10.4262
শিক্ষাপ্রতিষ্ঠান	-10.4264
▁সকলকে	-10.4266
৬১	-10.4267
▁ট্রাইব্যুনাল	-10.4268
▁ভট্টাচার্য	-10.4268
▁N	-10.4269
▁আসেনি	-10.4269
▁কবর	-10.4273
▁বরখাস্ত	-10.4274
▁অবিলম্বে	-10.4277
▁ম্যাচটি	-10.4278
▁৫৬	-10.4279
▁দেশটিতে	-10.428
▁হ্রাস	-10.428
▁কোহলি	-10.4282
▁বহিষ্কার	-10.4283
▁ব্র্যান্ড	-10.4284
▁শিল্পকলা	-10.4291
▁বিবরণ	-10.4292
▁অবৈধভাবে	-10.4292
▁দিনার	-10.4292
▁আনিসুল	-10.4294
▁ব্যবসার	-10.4297
▁জার্মানিতে	-10.4298
▁পুলিশে	-10.4299
▁ঝিনাইদহ	-10.43
▁বিপরীত	-10.4305
▁দেবী	-10.4309
▁চার্জ	-10.431
▁অপারেশন	-10.431
▁আপ	-10.4312
▁আজব	-10.4321
▁নোবেল	-10.4329
▁হয়ত	-10.433
▁ফরিদ	-10.4333
কো	-10.4335
▁অভিযোগপত্র	-10.4337
▁প্রাঙ্গণে	-10.4343
▁শব্দের	-10.4349
▁করণীয়	-10.4349
▁নেতিবাচক	-10.435
▁নেট	-10.4357
▁সাব্বির	-10.4357
▁রাসায়নিক	-10.4357
▁রাখবেন	-10.4357
৫৫	-10.4358
▁পারত	-10.436
▁ঈমান	-10.4361
▁ভূঁইয়া	-10.4361
▁ঐক্যবদ্ধ	-10.4362
▁খুনের	-10.4363
▁জিজ্ঞাসা	-10.4367
▁আরা	-10.4368
▁মিডিয়ায়	-10.4369
▁কারখানায়	-10.4373
▁প্রয়াত	-10.4376
▁জগতে	-10.4381
▁নিজেও	-10.4381
▁মুহম্মদ	-10.4386
▁কলা	-10.4396
▁ভাষণ	-10.44
▁মাস্টার্স	-10.4402
▁অপু	-10.4402
....	-10.4405
▁৫৮	-10.4406
▁তাহের	-10.4409
▁মনিরুল	-10.4417
▁৩৯	-10.4418
▁সেক্রেটারি	-10.4421
▁গ্রাহকদের	-10.4421
▁মোজাম্মেল	-10.4423
▁পাওয়ায়	-10.4429
▁রক্ষায়	-10.443
▁বাস্তবায়নে	-10.443
▁পরিমাণে	-10.4432
▁গল্পের	-10.4437
▁উদ্ধৃতি	-10.4444
▁গণতন্ত্রের	-10.4446
▁পতন	-10.4447
▁মেধা	-10.4447
▁মাননীয়	-10.4449
▁আহমাদ	-10.4459
▁মেধাবী	-10.4461
▁ডিগ্রী	-10.4461
▁সহ্য	-10.4467
▁গ্যাসের	-10.4469
▁ময়নাতদন্তের	-10.4471
▁লুকিয়ে	-10.4473
▁ভ্যান	-10.4473
▁তথ্যের	-10.4474
দার	-10.4476
▁দিল্লি	-10.4476
▁কর্তব্যরত	-10.4478
▁প্র	-10.4479
▁মজুরি	-10.448
▁শিল্পের	-10.4481
উদ্দিন	-10.4485
▁আত্মীয়	-10.4498
▁ঝুঁকিপূর্ণ	-10.4512
▁হেড	-10.4514
▁৯৯	-10.4516
▁একইভাবে	-10.4519
▁শাড়ি	-10.4519
▁ঘরোয়া	-10.4521
▁জন্মগ্রহণ	-10.4528
▁মেডিক্যাল	-10.453
▁রীতিমতো	-10.4532
▁কল্পনা	-10.4532
▁নিল	-10.4534
▁নারায়ণগঞ্জের	-10.4535
▁মালামাল	-10.4552
▁শিরোনাম	-10.456
▁দেখছে	-10.4561
▁আসিফ	-10.4566
▁ওঠেন	-10.4571
▁অভ্যাস	-10.4575
হা	-10.4576
▁বন্ধের	-10.4576
▁সম্প্রসারণ	-10.4577
▁৬৪	-10.4586
▁আয়োজনের	-10.4592
▁প্রোগ্রাম	-10.4594
▁গরুর	-10.4599
▁হোমপেজ	-10.4603
▁শতভাগ	-10.4603
▁টুর্নামেন্টে	-10.4604
▁ইঞ্জিনিয়ারিং	-10.4606
!’	-10.4606
▁সান	-10.4607
▁প্রতিষ্ঠানটির	-10.4607
▁বলেছিল	-10.4611
▁গ্রেপ্তারের	-10.4611
▁ফাঁকা	-10.4613
▁বিধ্বস্ত	-10.4614
▁মুঠোফোন	-10.4615
প্রচারিত	-10.4618
▁অবসান	-10.4619
▁নাটকে	-10.4626
▁লিঙ্ক	-10.4628
▁একথা	-10.4631
▁আয়াত	-10.4631
▁আইনগত	-10.464
▁জনসংখ্যার	-10.4641
▁রঙ	-10.4648
▁গেট	-10.465
▁ফোরাম	-10.465
▁পিটিয়ে	-10.4658
email	-10.466
ময়	-10.466
▁আলমের	-10.4667
▁দয়া	-10.4667
▁মহিলাদের	-10.4668
▁পর্দায়	-10.4668
▁স্বাক্ষরিত	-10.4673
▁টুইট	-10.4673
▁প্রাথমিকভাবে	-10.4673
▁J	-10.4675
▁গেমস	-10.4676
▁উপলব্ধি	-10.468
▁আকর্ষণীয়	-10.4684
▁মণ্ডল	-10.4686
▁বার্সেলোনা	-10.4687
▁ক্ষতিকর	-10.4689
▁সুদহার	-10.469
▁জরুরী	-10.4696
▁বিনিয়োগকারীদের	-10.47
▁চারপাশে	-10.4701
▁চেয়েছেন	-10.4704
▁তোলেন	-10.4704
▁অভিযানের	-10.4705
▁বৈদেশিক	-10.4706
▁শর্তাবলী	-10.4706
▁তিনটা	-10.4709
▁পরমাণু	-10.4712
▁ধর্মঘট	-10.4712
▁দফতর	-10.4714
▁বোনের	-10.4717
▁পাকিস্তানে	-10.4722
▁সুখ	-10.4724
ইন্সটল	-10.4726
▁ডেইলি	-10.4727
(6)	-10.473
▁প্রত্যক্ষ	-10.4731
▁অজানা	-10.4732
▁ভাতা	-10.4734
▁পরা	-10.4735
▁ময়লা	-10.4737
▁জোন	-10.4737
▁প্রকৃতির	-10.4741
▁ঠিকানায়	-10.4743
▁ফজলুল	-10.4755
▁দামে	-10.4758
▁দম্পতি	-10.4762
▁ক্লাবে	-10.4764
▁বাস্তবে	-10.4766
▁জুতা	-10.4767
▁নব	-10.4772
▁২০০৩	-10.4774
▁বাঁ	-10.4792
▁করতো	-10.4796
▁শরিফ	-10.4799
▁বিচারিক	-10.48
▁(3	-10.48
▁কাপুর	-10.4802
▁ভালুকা	-10.4802
▁ব্যতীত	-10.4805
▁গোষ্ঠী	-10.4808
▁১১টা	-10.4809
▁প্রতিপক্ষের	-10.4811
▁ক্যাম্পাস	-10.4814
▁উত্তরা	-10.4815
▁হাওয়া	-10.4818
▁লন্ডনে	-10.4823
মুখী	-10.4829
▁কাউন্সিলের	-10.4832
▁বিসিবি	-10.4837
আজ	-10.4838
▁দূরত্ব	-10.4842
▁স্কোর	-10.4842
▁সুরমা	-10.4849
▁ফেলেন	-10.4851
▁p	-10.4852
▁2011	-10.4853
▁protected	-10.4857
▁সংস্কারের	-10.486
▁অজ্ঞাত	-10.4861
▁লতিফ	-10.4865
▁ক্যাম্পে	-10.4865
▁৪৯	-10.4865
24@	-10.4869
▁নিয়েছিল	-10.4869
▁রাতেই	-10.487
▁খালেদ	-10.4871
▁জঙ্গিদের	-10.4872
▁গবেষণার	-10.4874
▁স্বপন	-10.4874
▁are	-10.4874
▁ব্যবস্থার	-10.488
▁থাকত	-10.489
▁ঘাট	-10.4892
▁সমবায়	-10.4893
▁সপ্তম	-10.4896
▁দেশটি	-10.4898
▁রুল	-10.49
▁গেলো	-10.4903
▁দলিল	-10.4905
▁রাজধানীতে	-10.4906
▁আহম্মেদ	-10.4907
▁একাডেমির	-10.4909
▁মঙ্গল	-10.4911
▁বাইক	-10.4914
▁পেঁয়াজ	-10.4914
▁কথাই	-10.4915
ভারত	-10.4915
▁মালেক	-10.4916
▁টাওয়ার	-10.492
▁দাফন	-10.4924
▁পরপর	-10.4928
▁ভাষ্য	-10.4935
▁নয়া	-10.4936
▁গ্রহন	-10.4939
▁কবিতার	-10.4945
কালীন	-10.4945
▁হতেই	-10.4946
▁আকাশে	-10.4951
▁বেসামরিক	-10.4952
▁ইহুদি	-10.4956
r	-10.4964
▁পোস্টার	-10.497
▁শওকত	-10.4974
▁সিদ্ধান্তের	-10.4979
▁ভালোবাসার	-10.498
ছি	-10.4981
▁৮টা	-10.4982
▁ব্লকার	-10.4982
▁কণ্ঠে	-10.4983
▁বুলবুল	-10.4985
▁মুগ্ধ	-10.4985
▁পেশ	-10.4987
▁১টি	-10.4988
▁অর্থের	-10.4992
▁জেগে	-10.4993
▁খসড়া	-10.4994
দক্ষিণ	-10.4995
▁ক্ষেত্রেই	-10.5002
▁সিদ্দিক	-10.5004
▁লঞ্চ	-10.5004
▁শিক্ষিত	-10.5008
▁পরীক্ষার্থী	-10.5011
▁দেলোয়ার	-10.5013
Preferences	-10.5017
▁বিস্ফোরণে	-10.5022
▁আয়কর	-10.5023
▁হাজী	-10.5026
ইউএনও	-10.5028
▁একদিকে	-10.5029
▁আনে	-10.5029
▁H	-10.5032
▁এক্স	-10.5036
▁বাস্তবতা	-10.5037
▁যাবার	-10.5039
▁আরিফুল	-10.5042
▁বিমানের	-10.5043
▁ফিল্ম	-10.5044
▁c	-10.5045
▁ট্রেনের	-10.5045
পি	-10.5047
▁প্রক্রিয়ায়	-10.5048
▁যেকোন	-10.5048
▁মুহিত	-10.5049
▁জঙ্গিরা	-10.5053
▁অতঃপর	-10.5054
▁ভগ	-10.5064
▁Select	-10.5069
▁হাল	-10.507
▁রিভিউ	-10.5075
▁সিবিএন	-10.508
৪৪	-10.508
▁শর্মা	-10.5081
▁হোসেনকে	-10.5085
▁রাসূল	-10.5086
▁স্প্যানিশ	-10.5091
▁সাফ	-10.5092
▁choti	-10.5095
▁সম	-10.5099
▁কেউই	-10.5101
▁ভরা	-10.5103
▁পোর্টাল	-10.5106
▁আসামী	-10.5108
▁এলো	-10.5114
▁৪টি	-10.5117
▁পাবলিকেশন্স	-10.5119
▁সারাদেশে	-10.5119
▁ফটো	-10.5119
▁অর্থে	-10.5125
িন	-10.5128
ভুক্ত	-10.513
▁ফ্লাইট	-10.513
▁ফেডারেশনের	-10.5131
▁মন্ত্রণালয়ে	-10.5131
▁আব্দুল্লাহ	-10.5134
▁টুইটারে	-10.5135
▁অর্থনীতির	-10.5139
▁অবহিত	-10.5143
▁রোগীদের	-10.5147
▁সক্ষমতা	-10.5148
▁পেসো	-10.5149
▁ছায়া	-10.5151
ইউপি	-10.5155
▁রিমান্ড	-10.5156
▁চমক	-10.5166
▁জনগোষ্ঠীর	-10.5172
▁জনগণকে	-10.5173
▁নানান	-10.5175
▁রায়ে	-10.5176
▁টায়	-10.5177
▁এজেন্ট	-10.5179
▁একজনের	-10.5185
▁৫৩	-10.5185
▁আর্জেন্টিনার	-10.5185
▁উত্তীর্ণ	-10.5186
▁শত্রু	-10.5188
▁বিষয়বস্তু	-10.5194
▁কয়েকদিন	-10.5195
▁হতাহত	-10.5196
▁দৌড়ে	-10.5196
▁নিউইয়র্ক	-10.5197
▁সীমিত	-10.5198
▁উপস্থিতিতে	-10.5202
▁প্রকল্পে	-10.5205
▁বর্জ্য	-10.5217
▁সাইবার	-10.5218
▁উপায়ে	-10.5218
G	-10.5224
▁দিবে	-10.5232
▁চেয়েছিলেন	-10.5234
▁হননি	-10.5247
▁লিংক	-10.5249
▁কিশোরী	-10.5253
▁ভূমিকায়	-10.5253
▁ছেলেদের	-10.5254
▁মালয়েশিয়ার	-10.5256
▁ব্রিটেনের	-10.5258
▁রেজিস্ট্রেশন	-10.5259
▁খায়	-10.5264
মো	-10.5265
▁প্রতিনিয়ত	-10.5267
▁পর্বের	-10.5269
▁যাতায়াত	-10.5271
▁আইফোন	-10.5272
▁দৈনন্দিন	-10.5272
▁বলবেন	-10.5273
▁ধরন	-10.5274
▁শান্তিপূর্ণ	-10.5275
▁এইচএসসি	-10.5275
▁you	-10.5279
▁সম্প্রচার	-10.528
▁নিক্ষেপ	-10.5282
▁দাঁড়াতে	-10.5284
▁জনক	-10.5286
▁দুইটি	-10.5291
▁বানানোর	-10.5291
▁নূরুল	-10.5292
▁সীমানা	-10.5301
▁শুনেছি	-10.5304
▁ভাঙা	-10.5305
▁নিয়েছি	-10.5309
▁ইতালির	-10.5311
▁গৃহীত	-10.5313
▁আনন্দের	-10.5317
▁সংলাপে	-10.5322
রূপ	-10.5325
▁সোনালী	-10.5326
▁বলছিলেন	-10.5329
▁কাটার	-10.533
▁ধারার	-10.533
▁রকমের	-10.5334
▁সিরিয়ার	-10.5336
▁নিউজিল্যান্ডের	-10.5337
▁দূরের	-10.5344
▁বসেছে	-10.5344
▁স্মার্ট	-10.5352
▁সম্মত	-10.5359
▁যত্ন	-10.536
▁টুইটার	-10.5361
▁সুরক্ষা	-10.5365
▁5	-10.5369
▁প্রেমিক	-10.5373
▁বিভক্ত	-10.5374
▁নীতির	-10.5383
▁হয়রানি	-10.5386
▁ইব্রাহিম	-10.5386
৬০	-10.5391
▁বিষয়টা	-10.5392
▁ফেডারেশন	-10.5392
▁বিস্ফোরণ	-10.5402
▁হোয়াইট	-10.5403
▁ঝালকাঠি	-10.5413
▁৩টি	-10.5414
▁চক্র	-10.5423
▁তাড়া	-10.5424
f	-10.544
▁লাভের	-10.5444
▁বৃত্তি	-10.545
▁সাল্লাল্লাহু	-10.5451
▁শান্তির	-10.5451
▁তোফায়েল	-10.5454
▁মজিদ	-10.5457
▁কতটুকু	-10.5458
▁বিজ্ঞানী	-10.5458
▁বসিয়ে	-10.5459
▁শুয়ে	-10.546
▁ফেরি	-10.5466
▁চিঠিতে	-10.5472
▁উদ্দিনের	-10.5473
২০১৫	-10.5474
▁মৃত্যুতে	-10.5474
▁সীমা	-10.5474
▁৫টি	-10.5478
▁পেজ	-10.5478
▁ফান্ড	-10.5481
▁ফোনের	-10.5491
▁আসি	-10.5493
▁কৃত্রিম	-10.5495
রাঃ	-10.5501
▁with	-10.5505
▁এক্সপ্রেস	-10.5505
▁আইএস	-10.5506
o	-10.5506
▁বিক্রেতা	-10.5506
ঁ	-10.5516
▁দুবার	-10.5519
▁সমন্বিত	-10.5523
▁রাজশাহীর	-10.5525
▁অবনতি	-10.5526
▁বিবৃতি	-10.5527
▁শহীদুল	-10.5528
▁রাখাইন	-10.5529
▁রায়হান	-10.5531
▁অপারেটিং	-10.5531
▁বেড়াতে	-10.5531
▁সংবিধানের	-10.5532
▁দলগুলোর	-10.5534
▁রক্তের	-10.5535
▁শিক্ষামন্ত্রী	-10.5536
▁১২টি	-10.5537
▁৮৮	-10.554
▁ক্রেতা	-10.5544
▁অভিনয়ের	-10.5548
▁চ্যাম্পিয়নস	-10.5548
▁আঁকা	-10.5551
▁কান্তি	-10.5556
(7)	-10.5556
▁কোয়ার্টার	-10.5556
▁ভোটারদের	-10.5559
▁শর্তে	-10.5565
▁পুরাতন	-10.5566
▁চির	-10.5569
▁ছয়জন	-10.5572
▁এখানেই	-10.5574
▁বাতিলের	-10.5577
▁সেজন্য	-10.5577
▁স্পর্শ	-10.558
▁সিডিএ	-10.5581
▁বিশ্বব্যাপী	-10.5583
▁মাদরাসা	-10.5583
▁শীত	-10.5591
▁নেতাকর্মীরা	-10.5591
▁বসতে	-10.5592
▁হজরত	-10.5595
▁সিনহা	-10.5597
▁গর্ব	-10.5601
▁টুর্নামেন্টের	-10.5607
▁জিম্বাবুয়ে	-10.5608
▁হাফিজ	-10.5609
▁বাচ্চু	-10.5609
▁বাড়ে	-10.561
সংলগ্ন	-10.561
▁ভ্যাট	-10.5611
▁অধিবেশনে	-10.5615
▁৫৪	-10.5616
13)	-10.5617
▁কৃষকদের	-10.5626
▁গণমাধ্যমের	-10.5628
▁বোলার	-10.563
▁নির্ভরশীল	-10.5632
▁অপরদিকে	-10.5635
▁বন্ধুর	-10.5635
▁হেলাল	-10.5638
▁তাড়াতাড়ি	-10.5641
▁রাগ	-10.5644
▁চ	-10.5648
▁জিপিএ	-10.5653
▁রয়ে	-10.5653
▁পড়েছিল	-10.5656
৪০৭	-10.5657
▁জালাল	-10.5659
▁পেশায়	-10.5663
▁আব্দুস	-10.5667
▁জিম্বাবুয়ের	-10.5668
▁বাক্য	-10.5669
▁তুলেছে	-10.5672
▁চাঁপাইনবাবগঞ্জ	-10.5674
▁কর্পোরেশন	-10.5674
▁অনুমান	-10.5678
▁দণ্ডনীয়	-10.568
▁লোকেরা	-10.5681
▁মওদুদ	-10.5683
▁গন্ধ	-10.5684
▁সেমিনার	-10.5685
▁জখম	-10.5685
▁উঠেছিল	-10.5686
▁জিতেছে	-10.5686
▁ইন্ডিজের	-10.5689
▁মুনাফা	-10.569
▁বসানো	-10.5691
▁জড়ো	-10.5691
▁জামায়াতে	-10.5698
▁ছাড়তে	-10.5699
▁মানেই	-10.5701
▁বেলায়	-10.5702
▁পুকুর	-10.5705
▁২৫০	-10.5706
▁যাপন	-10.5709
▁সন্তুষ্ট	-10.5714
▁ক্যাম্পের	-10.5717
▁মতিন	-10.5718
▁বাশার	-10.5723
মার্চ	-10.5724
▁নাম্বার	-10.5727
29)	-10.5727
▁কিংবদন্তি	-10.5733
▁বিশেষজ্ঞরা	-10.574
▁আমাদেরকে	-10.5741
▁সাউথ	-10.5742
▁খতিয়ে	-10.5743
পুলিশ	-10.5743
▁রিলিজ	-10.5749
▁চাইছে	-10.575
▁অ্যা	-10.5751
▁আশায়	-10.5751
▁চিকিৎসকের	-10.5754
▁প্রসঙ্গ	-10.5755
▁লাগল	-10.5756
▁সেমিফাইনালে	-10.5757
▁কার্যকরী	-10.5757
▁সুনির্দিষ্ট	-10.576
শন	-10.5762
চার	-10.5769
▁মধু	-10.5769
▁এক্সচেঞ্জ	-10.5771
▁সংঘটিত	-10.5773
▁সমূহ	-10.5774
▁কার্যক্রমের	-10.5776
▁ঢুকতে	-10.5778
▁রাজু	-10.578
প্রত্যাশী	-10.5782
▁ফাঁকে	-10.5782
▁চিফ	-10.5786
▁সংখ্যালঘু	-10.5786
▁মোটামুটি	-10.5787
▁দ্বীপ	-10.5791
▁যেটি	-10.5794
▁এনজিও	-10.5795
▁আগাম	-10.5795
▁উন্মোচন	-10.5799
▁ত্বক	-10.5799
▁জসিম	-10.58
▁বুঝিয়ে	-10.5802
তলা	-10.5808
▁কর্মসূচিতে	-10.5809
▁রিজার্ভ	-10.5812
▁২০০২	-10.5813
▁চেম্বার	-10.5814
▁ফরহাদ	-10.5814
▁লালন	-10.5818
▁সাপ্তাহিক	-10.5821
▁লোকদের	-10.5823
▁বোতল	-10.5825
▁No	-10.5826
▁ছাত্রীর	-10.5827
▁হাদীস	-10.5828
▁হত্যাকাণ্ড	-10.583
▁যৌথভাবে	-10.5831
▁বোনাস	-10.5832
▁অ্যাকশন	-10.5837
▁জানানোর	-10.5837
▁শীতের	-10.5837
▁শোভাযাত্রা	-10.5845
২৯	-10.5846
▁সম্মিলিত	-10.5849
▁ভাঙন	-10.585
▁গ্রন্থ	-10.5851
▁প্রবেশের	-10.5854
▁ফয়সাল	-10.5861
▁ফুলের	-10.5863
▁কথাটা	-10.5864
▁সর্বনিম্ন	-10.5865
▁৬০০	-10.587
40)	-10.5871
▁স্বর্ণ	-10.5872
▁হেফাজতে	-10.5872
▁গার্ড	-10.5876
▁তীরে	-10.5876
▁বিরল	-10.588
▁মার্কেটিং	-10.5882
▁অস্বাভাবিক	-10.5885
▁শাস্তির	-10.5885
▁মাদ্রিদ	-10.5885
▁সিম	-10.5886
বাবা	-10.5888
▁ইউরোপ	-10.5891
▁বিরাজ	-10.5895
▁তারই	-10.5895
▁মুশফিকুর	-10.5896
▁প্রশাসকের	-10.5906
▁প্রান্তে	-10.5907
▁ইতিমধ্যেই	-10.5912
▁রিটার্নিং	-10.5912
প্রিয়	-10.5912
▁আমেরিকায়	-10.5914
কারীদের	-10.5919
▁রচিত	-10.5922
▁আখতার	-10.5923
বাজার	-10.5924
▁এনেছে	-10.5927
▁আবেগ	-10.5937
দেশের	-10.5941
সম্পাদক	-10.5942
▁দেখায়	-10.5944
সমূহের	-10.5947
▁মাইল	-10.5948
▁মৌসুম	-10.5949
▁স্বেচ্ছাসেবক	-10.595
▁বুকের	-10.5956
▁আগমন	-10.5964
▁উচ্চারণ	-10.5969
▁অভিবাসীদের	-10.5969
▁যুগের	-10.5975
▁থাকতেন	-10.5975
▁প্রেক্ষিতে	-10.598
রাই	-10.5982
করণ	-10.5984
▁লক্ষণ	-10.599
▁বিস্তৃত	-10.5992
▁চুরির	-10.5993
▁প্রভাষক	-10.5995
▁বোকো	-10.5996
▁সিরিয়া	-10.5997
▁আইডি	-10.6002
▁প্রস্তাবিত	-10.6009
▁মিনার	-10.6009
▁সংশয়	-10.6016
▁প্রাধান্য	-10.6017
▁মন্তব্যের	-10.602
▁সোজা	-10.6023
▁শৃঙ্খলা	-10.6026
▁সরদার	-10.6026
▁বস্তু	-10.6027
্বরাষ্ট্রমন্ত্রী	-10.603
▁পেছানো	-10.603
▁উপেক্ষা	-10.6032
▁দেখছি	-10.6034
▁গ্রেনেড	-10.6039
▁রাউজান	-10.6039
▁বিশ	-10.6043
▁হাওলাদার	-10.6044
▁জাপানি	-10.6046
▁দিবসের	-10.6047
▁India	-10.6047
▁খেলবে	-10.6053
▁সংস্কৃতির	-10.6056
▁আওয়াজ	-10.6065
▁ঝামেলা	-10.6065
▁বাঙালির	-10.6065
▁জহিরুল	-10.6067
▁অন্ধকার	-10.6071
▁মরিচ	-10.6073
▁মুখোপাধ্যায়	-10.6074
▁ঘুষ	-10.6074
▁বরগুনা	-10.6075
ম্যান	-10.6078
▁গ্লোবাল	-10.6079
▁আইসিসি	-10.6093
▁সংবাদমাধ্যম	-10.6096
▁নিবন্ধিত	-10.6097
▁সরণি	-10.6098
▁প্রজন্ম	-10.6099
▁শতকরা	-10.6102
▁নদ	-10.6102
▁সংবাদের	-10.6102
▁পিতার	-10.6105
▁ঘটতে	-10.6105
১২১৭	-10.6108
▁কাটাতে	-10.6119
▁উল	-10.6119
▁্যাবের	-10.612
তিন	-10.6122
▁টেলিযোগাযোগ	-10.6123
▁৯৫	-10.6128
▁আতঙ্ক	-10.6132
▁নেপালের	-10.6132
▁ধারাবাহিকতায়	-10.6135
▁খানিকটা	-10.6136
▁শাসক	-10.6136
▁সাম্প্রদায়িক	-10.6137
р	-10.6138
▁পুজো	-10.6141
▁কোরআন	-10.6144
▁দৃঢ়	-10.6145
▁সুন্দরী	-10.6146
▁ওদিকে	-10.6151
▁আলফা	-10.6153
▁রুমে	-10.6156
▁পিসি	-10.6156
▁ডাঃ	-10.6156
▁নথি	-10.6161
▁সিরাজগঞ্জ	-10.6162
▁মাদকদ্রব্য	-10.6163
▁মাগুরা	-10.6169
▁পাতায়	-10.6172
▁শারমিন	-10.6179
▁যৌক্তিক	-10.6179
▁রিমান্ডে	-10.618
▁দিচ্ছি	-10.6183
▁জর্জ	-10.6189
▁সংস্করণ	-10.6195
▁গুঞ্জন	-10.6195
▁আধিপত্য	-10.6199
মে	-10.62
▁যতটা	-10.62
▁বাসটি	-10.6201
▁ইসলামকে	-10.6203
▁প্রতিদিনের	-10.6205
es	-10.6211
▁ব্যবধান	-10.6212
▁ভাত	-10.6213
▁হালিম	-10.6216
▁ইসমাইল	-10.6218
▁বানাতে	-10.6219
▁অঙ্গীকার	-10.6222
▁ধসে	-10.6224
▁হস্তক্ষেপ	-10.6224
▁মোবারক	-10.6226
▁চলেছেন	-10.6226
▁জুনিয়র	-10.6227
▁এড়াতে	-10.6233
▁ভিডিওতে	-10.6236
▁মুশফিক	-10.624
▁আফগানিস্তানের	-10.6242
▁প্রত্যাখ্যান	-10.6244
▁আবেদীন	-10.6244
▁বৃদ্ধ	-10.6244
▁ভালোই	-10.6244
▁লিঙ্গের	-10.6245
▁পার্শ্ববর্তী	-10.6248
▁মৃতদেহ	-10.6249
▁নৌকার	-10.6252
▁শব্দটি	-10.6258
▁প্রতিমা	-10.626
▁ধনী	-10.6261
17)	-10.6261
▁জয়ে	-10.6265
▁০৯৬১২	-10.6267
UST	-10.6267
গান	-10.6271
▁এলেন	-10.6273
ভূমি	-10.628
▁জানিয়েছিলেন	-10.6282
▁মার্ক	-10.6285
▁ট্রেনে	-10.6288
▁ইঞ্জিন	-10.6292
▁পারমাণবিক	-10.6292
▁সাইফ	-10.6297
▁কাছেই	-10.6298
▁স্থাপিত	-10.63
▁টেক্সটাইল	-10.6301
▁কাপে	-10.6301
▁হেক্টর	-10.6306
▁৩য়	-10.6306
▁নয়াপল্টনে	-10.6307
▁মোকাবিলা	-10.6308
▁কুকুর	-10.6312
▁বাড়ী	-10.6316
সুবিধা	-10.6326
▁করিনি	-10.6326
▁ময়মনসিংহের	-10.6328
▁সন্দেহে	-10.6331
▁শিবির	-10.6333
▁রনি	-10.6333
▁ভূ	-10.6342
▁অপারেটর	-10.6342
▁রোধ	-10.6344
▁লেনদেনের	-10.6346
৩৮	-10.6353
▁কাঠামো	-10.636
STU	-10.6361
▁গড়ার	-10.6369
▁রয়টার্স	-10.6369
▁ফুটে	-10.637
▁ছাদ	-10.637
▁শিয়া	-10.6375
▁হুমায়ূন	-10.638
▁ফার্স্ট	-10.6381
▁উপদেশ	-10.6387
▁চেতনা	-10.6388
▁রিকশা	-10.639
▁কোম্পানিটির	-10.6393
▁বুঝি	-10.6394
▁সেরে	-10.6396
নী	-10.64
▁কারাগার	-10.6403
▁রিপোর্টিং	-10.6407
▁কেড়ে	-10.6409
▁তেলের	-10.641
▁হার্ট	-10.641
▁১০০০	-10.6411
▁মামা	-10.6411
▁জঙ্গিবাদ	-10.6412
▁রাশিয়ায়	-10.6416
▁সংকেত	-10.6419
48)	-10.6422
৩১	-10.6422
▁নিষ্পত্তি	-10.6423
▁সড়কটি	-10.6423
I	-10.6424
▁অনুমোদিত	-10.6427
▁সুজন	-10.6428
▁ককটেল	-10.6428
▁উট	-10.643
▁অটোরিকশা	-10.643
▁টুকরো	-10.6433
▁পরিকল্পনার	-10.644
▁রিপন	-10.644
▁৮৫	-10.6446
▁চুলের	-10.6449
▁উড়ে	-10.645
▁জেমস	-10.6451
▁ফুড	-10.6462
▁ব্যবসায়িক	-10.6462
▁আরাফাত	-10.6464
▁মগবাজার	-10.6473
▁১১টি	-10.6474
▁শেয়ারের	-10.6476
▁জীবিত	-10.6478
▁পশ্চিমবঙ্গ	-10.648
▁R	-10.6483
▁দিবসে	-10.6484
▁তদারকি	-10.6484
▁মেইল	-10.6495
▁ওয়াশিংটন	-10.6496
(10)	-10.6497
▁ক্যাচ	-10.65
▁নিশ্চয়	-10.6502
▁সিলেক্ট	-10.6508
▁ইউটিউব	-10.6509
▁কানাডার	-10.6513
▁গণহত্যা	-10.6514
▁রণবীর	-10.6516
▁ল্যাপটপ	-10.6517
▁জোরে	-10.6519
▁হতাশা	-10.652
ভিডিও	-10.6537
▁blowjob	-10.6537
▁উদ্	-10.6539
▁সম্মুখীন	-10.6541
▁আবৃত্তি	-10.6542
▁বর	-10.6546
▁কর্মকর্তাকে	-10.6547
▁কূটনৈতিক	-10.6547
▁মানবতাবিরোধী	-10.6549
মার	-10.655
▁পেশাদার	-10.6555
▁ম্যাগাজিন	-10.6557
▁উপকার	-10.6558
▁ন্যূনতম	-10.6559
▁পুনর্বাসন	-10.6562
▁কয়েকবার	-10.6564
▁মায়া	-10.6564
▁অ্যাসোসিয়েশনের	-10.6565
▁সামর্থ্য	-10.6565
▁ব্যবহারকারী	-10.6571
▁ইসলামি	-10.6583
জুড়ে	-10.6587
▁মালিকানা	-10.6587
রূপে	-10.6589
▁উৎপাদনের	-10.6589
▁জটিলতা	-10.6592
▁ধুয়ে	-10.6593
▁সংযোজন	-10.6593
▁golpo	-10.66
▁তুরস্ক	-10.6602
▁খালাস	-10.6606
▁ভাইরাস	-10.6608
▁ওবামা	-10.661
▁আড্ডা	-10.6611
▁চিন্তার	-10.6613
▁চলাচলের	-10.6614
▁কর্তৃপক্ষকে	-10.6614
▁মাঝারি	-10.6615
▁আয়োজক	-10.6619
▁করতাম	-10.6619
▁জবানবন্দি	-10.662
▁কমিটিতে	-10.662
▁মোদী	-10.6623
▁কু	-10.6625
ly	-10.6626
▁সুনাম	-10.6627
খালী	-10.6627
▁তেমনই	-10.6627
▁কাঠ	-10.6631
সার	-10.6631
▁লুটপাট	-10.6632
▁থাক	-10.6632
▁সানি	-10.6632
▁নজরদারি	-10.664
▁বৈশ্বিক	-10.6642
▁মুফতি	-10.6643
▁অবলম্বন	-10.6646
▁সিইসি	-10.6647
▁ক্যান্সার	-10.665
▁(9	-10.6652
▁be	-10.6652
▁মোরগ	-10.6654
৮৮০	-10.6654
▁সৃষ্ট	-10.6655
▁বেলাল	-10.6656
▁তলায়	-10.6657
▁একাধিকবার	-10.6658
▁জামালপুর	-10.6659
▁কাহিনি	-10.6661
▁আদি	-10.6662
▁নৌকায়	-10.6663
▁উৎসাহিত	-10.6665
▁ভক্তদের	-10.667
▁বিপাকে	-10.6672
▁সামাদ	-10.6676
▁মরহুম	-10.6681
▁অধীন	-10.6681
▁সম্রাট	-10.6692
▁কর্ণফুলী	-10.6693
▁ইন্ডিয়ান	-10.6694
▁হুমকির	-10.6695
▁মাইকেল	-10.6696
▁আপডেট	-10.6696
▁টান	-10.6697
▁মেয়াদে	-10.6697
▁সঠিকভাবে	-10.67
▁স্টেশনে	-10.67
▁সার্জন	-10.6704
▁আমল	-10.6705
▁সৎ	-10.6707
▁বরণ	-10.6716
▁রাউন্ড	-10.6721
▁বাসিন্দারা	-10.6721
->	-10.6724
▁চমকে	-10.6733
▁ক্যারিয়ারের	-10.6736
▁ইলিয়াস	-10.6737
▁মূল্যের	-10.6739
▁পঞ্চায়েত	-10.6741
▁মনসুর	-10.6744
▁শিরশ্ছেদ	-10.6744
▁that	-10.6747
কী	-10.675
link	-10.6754
তদন্ত	-10.6755
▁সর্বাধিক	-10.6756
▁কাপের	-10.6757
▁কমানোর	-10.6762
▁যেগুলো	-10.6763
▁সন্তানকে	-10.6764
▁শতাংশের	-10.6764
▁at	-10.6767
▁অ্যাপল	-10.6768
▁সিএনজি	-10.6772
▁অস্ট্রেলিয়ান	-10.6772
▁ডিসেম্বরে	-10.6777
▁সেটাও	-10.6779
▁স্পিনার	-10.678
০৫	-10.6784
▁পাবলিকেশন	-10.6786
▁ফাঁসি	-10.6786
▁নবীজি	-10.6787
▁হাইওয়ে	-10.6788
▁পর্দা	-10.6788
▁ট্রাকের	-10.6788
▁was	-10.679
▁অ্যাটর্নি	-10.6792
▁সৈকত	-10.6794
বিশ্বরোড	-10.6794
▁ছুড়ে	-10.6795
▁ঘুরতে	-10.6795
▁সর্বত্র	-10.6801
▁ডিসি	-10.6802
▁অভিনীত	-10.6802
▁হারানো	-10.6802
▁পাঠকের	-10.6802
বাজ	-10.6805
▁যুবককে	-10.6807
▁অলিম্পিক	-10.6808
▁দ্বিগুণ	-10.6808
▁পার্কে	-10.681
তারা	-10.681
▁আজম	-10.6811
গো	-10.6815
▁ম্যানেজমেন্ট	-10.6815
▁৬৮	-10.6827
▁যুবরাজ	-10.6828
ডিএসই	-10.683
▁নাচ	-10.6832
▁সোহাগ	-10.6837
দলীয়	-10.6837
▁শ্রেণী	-10.6838
▁কাজল	-10.6849
▁প্রভাবিত	-10.685
২০১৯	-10.685
▁ওয়ানডেতে	-10.6856
▁ঘণ্টায়	-10.6857
▁যাঁদের	-10.6859
একটি	-10.6862
▁নীচের	-10.6863
▁টহল	-10.6867
▁পলাশ	-10.6868
▁স্বত্ব	-10.6871
▁সরঞ্জাম	-10.6873
▁আসামির	-10.6876
▁এতদিন	-10.6878
▁বন্দী	-10.6879
▁দেয়াল	-10.6882
▁ওখানে	-10.6883
▁ভোলা	-10.6888
▁পাইনি	-10.6888
▁ফজলে	-10.689
টুকু	-10.6891
▁১৯৯৬	-10.6891
▁অনেকগুলো	-10.6891
▁চারটা	-10.6894
▁তাজুল	-10.6895
▁দিই	-10.6895
▁চট্টোপাধ্যায়	-10.6905
বাদ	-10.6905
▁প্রযোজনা	-10.6906
▁জয়নাল	-10.6907
▁ধানমন্ডি	-10.6908
▁দায়রা	-10.6912
▁পেলাম	-10.6913
▁পরোয়ানা	-10.6913
▁রাষ্ট্রপতির	-10.6913
লেও	-10.6914
▁ছবিটির	-10.6915
▁সৌম্য	-10.6916
▁রফতানি	-10.6917
▁বলুন	-10.6919
▁জার্সি	-10.6924
▁রবীন্দ্রনাথের	-10.6929
▁কোচিং	-10.6934
▁বেল	-10.6935
▁বৈজ্ঞানিক	-10.6937
▁পারতেন	-10.6939
▁মেম্বার	-10.6944
▁লেখাপড়া	-10.6946
▁নৃত্য	-10.6948
▁সুন্নত	-10.6953
▁পাল্টে	-10.6953
যোগ্য	-10.6954
▁নামতে	-10.6955
▁বয়স্ক	-10.6955
▁যাত্রীরা	-10.6956
19)	-10.6957
▁মুক্তিযোদ্ধাদের	-10.6958
ধ	-10.6963
▁অপসারণ	-10.6964
▁পারভীন	-10.6967
▁যাচ্ছিলেন	-10.6969
▁কমিউনিস্ট	-10.6972
▁সঙ্গেই	-10.6973
▁আশাবাদী	-10.6976
▁অবহেলা	-10.6978
৪০০০	-10.6979
▁আইসিটি	-10.6981
▁অতীতের	-10.6983
1	-10.6984
▁ধাক্কায়	-10.6984
▁ইস্যুতে	-10.6986
▁রেড	-10.6987
▁কাঁধে	-10.6988
▁নামকরণ	-10.6991
12)	-10.6991
▁এইসব	-10.6991
▁বাতাস	-10.6995
▁খানম	-10.6998
▁গুম	-10.7001
▁অলি	-10.7002
▁গ্রেফতারের	-10.7003
▁যিশু	-10.7009
▁প্রবীণ	-10.701
▁দাদা	-10.7012
▁প্রতিরোধে	-10.7013
▁OctaFX	-10.7015
▁মেয়েটির	-10.7015
▁আসছিল	-10.702
▁পারফরম্যান্স	-10.7024
»	-10.7025
▁দিল্লির	-10.7026
▁শ্রমিকের	-10.7026
▁বিষ	-10.7027
▁অমিত	-10.7028
▁লুট	-10.7029
▁G	-10.7032
▁পাপ	-10.7032
▁ইঞ্জিনিয়ার	-10.7034
▁মন্দ	-10.7035
▁বাজেটে	-10.7038
এইচ	-10.7038
▁খনন	-10.7042
লীগের	-10.7043
▁দিনই	-10.7043
▁রেখেই	-10.7044
▁ক্রেডিট	-10.7045
▁অর	-10.7048
▁উন্নীত	-10.7049
▁করাতে	-10.7053
▁টেকসই	-10.7053
▁হিসেবেই	-10.7054
▁গরিব	-10.7056
▁তৃণমূলের	-10.7068
▁পাওনা	-10.7069
▁শফিউল	-10.7072
▁রাঙামাটি	-10.7074
বো	-10.7074
▁ত্রুটি	-10.7083
▁বৃহৎ	-10.7089
▁লাঠি	-10.7091
টু	-10.7095
গ্রাম	-10.7098
▁অর্থোডক্স	-10.71
▁ভি	-10.71
▁সংশোধনী	-10.7101
▁বিনিয়োগের	-10.7102
▁নববর্ষ	-10.7104
বেন	-10.7104
▁মহিলার	-10.7105
▁বাবদ	-10.7105
▁দৃষ্টান্ত	-10.7106
▁চ্যানেলে	-10.711
▁স্থানান্তর	-10.7111
▁প্রত্যাহারের	-10.7117
▁লাইনে	-10.7118
▁নওগাঁ	-10.7121
▁নামার	-10.7121
▁তুই	-10.7124
▁লেখেন	-10.7134
▁কয়লা	-10.7134
▁প্রযোজক	-10.7139
বাংলাদেশের	-10.7144
▁মালিকদের	-10.7144
▁আলোয়	-10.7145
▁আলাউদ্দিন	-10.7148
▁কোনোভাবেই	-10.7149
▁দাঁড়	-10.7149
বছর	-10.7153
▁বেনাপোল	-10.7154
▁নিলাম	-10.7154
▁তৈরিতে	-10.7156
▁সন্ত্রাসীদের	-10.7156
▁দলগুলো	-10.7157
▁কোচের	-10.7158
▁আসলাম	-10.7159
▁কানে	-10.7163
▁ফেরেন	-10.7167
▁ধার	-10.7167
▁de	-10.7167
▁হু	-10.7172
▁গতিতে	-10.7172
২৪৪	-10.7175
চা	-10.7176
▁(7	-10.7177
▁পুরান	-10.718
▁ব্যান্ড	-10.7186
▁দেওয়ান	-10.7189
▁চলুন	-10.719
▁সোহরাওয়ার্দী	-10.7191
▁ভারতকে	-10.7192
▁বৈশাখ	-10.7193
▁ব্যতিক্রম	-10.7195
▁ফ্ল্যাট	-10.7195
▁সেক্ষেত্রে	-10.7198
▁আপলোড	-10.72
▁দিয়া	-10.7202
al	-10.7207
▁আজীবন	-10.721
▁পরিত্যক্ত	-10.7213
▁আনুমানিক	-10.7213
▁ভার	-10.7215
▁ঘাঁটি	-10.7218
▁তাল	-10.7221
▁মুন্সীগঞ্জ	-10.7226
▁কিশোরীকে	-10.7226
▁অভিজ্ঞ	-10.7228
▁সতর্কতা	-10.7233
▁এটাকে	-10.7235
▁সম্মানিত	-10.7236
""	-10.7236
▁ভরাট	-10.7237
▁গণভবনে	-10.7241
▁নাহার	-10.7248
▁শাখায়	-10.7249
▁অনুদান	-10.7252
▁হারের	-10.7252
▁কুড়িল	-10.7252
▁লেভেল	-10.7255
▁তাহা	-10.7262
▁নরসিংদী	-10.7262
▁আহবায়ক	-10.7263
▁জালে	-10.7266
▁সহযোগিতার	-10.7271
▁রতন	-10.7274
▁মিরাজ	-10.7276
▁হাজারের	-10.7278
▁স্বত্বাধিকার	-10.7279
▁ব্যাটিংয়ে	-10.728
▁ছড়া	-10.7281
▁সেমিনারে	-10.7281
▁ক্ষেত্রেও	-10.7282
▁সন্ধ্যার	-10.7284
▁অন্যরা	-10.7285
▁আফগানিস্তান	-10.7287
ue	-10.7292
▁উচ্চবিদ্যালয়	-10.7292
▁জাতীয়তাবাদী	-10.7296
▁আমিরাত	-10.7296
▁বন্ধুত্ব	-10.7307
▁কথাগুলো	-10.7313
▁নজরে	-10.7315
▁জন্মের	-10.7318
▁যন্ত্রপাতি	-10.7321
▁কানাডা	-10.7322
▁ক্ষেত্র	-10.7323
▁পাঠায়	-10.7324
▁চালের	-10.7324
▁অস্ত্রের	-10.7326
ুজ্জামান	-10.7328
▁আজকাল	-10.7337
পুরুষ	-10.7344
▁রোজ	-10.7346
▁মাহমুদউল্লাহ	-10.7347
▁কিম	-10.7347
▁৬৭	-10.735
▁নিষেধ	-10.7351
বাহী	-10.7351
▁উচ্চতা	-10.7359
▁পল্টন	-10.7363
▁মূর্তি	-10.7364
▁সুপ্রভাত	-10.7367
▁ছাপ	-10.7372
▁অধিবেশন	-10.7374
▁সন্ত্রাসীরা	-10.7375
▁নাইট	-10.7376
▁রাসূলুল্লাহ	-10.7379
▁একসাথে	-10.7383
▁আড়ালে	-10.7387
▁ফেলেছেন	-10.739
▁তাহার	-10.7392
▁গান্ধী	-10.7392
▁ঢেলে	-10.7394
▁সেভাবে	-10.7394
▁ইজতেমা	-10.7398
▁আহতদের	-10.7399
▁২০টি	-10.7402
▁সম্প্রদায়	-10.7406
▁মোটর	-10.7406
▁করিয়া	-10.7408
▁পাচ্ছি	-10.741
▁সকলেই	-10.7412
▁খুলনার	-10.7414
▁পেনাল্টি	-10.7416
▁সমাধানে	-10.7421
▁মনি	-10.7423
▁মুক্তিযুদ্ধে	-10.7426
▁উৎপাদিত	-10.7436
▁ওয়ালটন	-10.7437
▁অতীতে	-10.7437
▁খুঁজতে	-10.7444
g	-10.7447
▁ট্রফি	-10.7447
▁সময়সূচি	-10.7447
▁মতিঝিল	-10.7448
▁পেয়েছিল	-10.7448
▁দুলাল	-10.7452
▁বহুল	-10.7452
১২০৮	-10.7453
▁হান্নান	-10.7455
▁পালা	-10.7458
▁ফোরামের	-10.7458
▁টিন	-10.7461
▁আসবেন	-10.7463
▁সিনেমায়	-10.7465
▁পৃষ্ঠা	-10.7467
তায়	-10.7474
▁স্বাগতিক	-10.7474
▁কফি	-10.7479
▁প্রদেশ	-10.7481
▁সবগুলো	-10.7481
▁মূল্যবান	-10.7482
▁পাঠকদের	-10.7482
সমর্থিত	-10.7484
▁মতিউর	-10.7485
▁অগ্রাধিকার	-10.7485
▁পরাজয়	-10.7486
গঞ্জ	-10.7486
▁প্রেক্ষাপটে	-10.7488
▁ভিতর	-10.7489
▁উঠা	-10.7494
▁নিয়ন্ত্রক	-10.7494
▁পেলেও	-10.7497
▁নাগরিকত্ব	-10.7503
▁পদার্থ	-10.7505
▁দপ্তরের	-10.7505
▁লিওনেল	-10.7507
▁বৈদ্যুতিক	-10.7508
রাত	-10.7508
▁গ্রিন	-10.7509
জনের	-10.751
▁মৌখিক	-10.7513
▁ইভিএম	-10.7519
▁প্রেমে	-10.752
▁মিজান	-10.7522
▁বাচ্চাদের	-10.7523
▁হাফেজ	-10.7523
▁লিপ্ত	-10.7523
▁বেকার	-10.7527
▁জামে	-10.7527
▁খারিজ	-10.7529
▁প্লাস	-10.7532
▁বিপদে	-10.7536
▁আকরাম	-10.7536
▁দ্বন্দ্ব	-10.7539
▁লেখায়	-10.7539
▁লালমনিরহাট	-10.7539
▁অপরের	-10.7539
▁আজহার	-10.754
▁রোডে	-10.7542
▁দৈর্ঘ্য	-10.7543
▁লভ্যাংশ	-10.7545
▁সেল	-10.7546
▁বসার	-10.7546
▁গম	-10.7547
▁বৈষম্য	-10.7548
P	-10.7554
▁ট্যাবলেট	-10.7556
▁প্রাণের	-10.7558
▁বস্ত্র	-10.7558
▁শীষ	-10.756
▁আন্তরিক	-10.7561
▁--	-10.7561
▁বিশেষভাবে	-10.7562
▁ডাটা	-10.7563
▁উনার	-10.7564
্র	-10.7566
▁কোর্সে	-10.7568
▁হাসানের	-10.7571
▁প্রোডাক্ট	-10.7577
▁আমানত	-10.7578
▁রাখি	-10.7582
▁নীচে	-10.7589
▁স্যামসাং	-10.7591
▁দরপত্র	-10.7593
৩৭২	-10.7598
▁প্রীতি	-10.761
▁কৃষ্ণ	-10.761
▁নাছির	-10.7611
▁মধ্যেও	-10.7613
▁বাবাকে	-10.7614
▁জনমত	-10.7622
▁তানভীর	-10.7623
▁মিয়ানমারে	-10.7629
▁হাওর	-10.7632
▁হিউম্যান	-10.7635
▁ক্ষতির	-10.7637
▁ধরিয়ে	-10.7638
▁অলরাউন্ডার	-10.764
▁তিনজনকে	-10.764
“	-10.7641
▁জগৎ	-10.7643
▁বসা	-10.7646
▁মাইক্রোসফট	-10.7647
▁ছিটকে	-10.7647
▁শাহাদাত	-10.7647
▁ব্যবহারে	-10.7648
২৩৬৮	-10.7648
▁ব্রিজ	-10.7649
▁মারতে	-10.7651
▁কমছে	-10.7652
▁ক্ষেপণাস্ত্র	-10.7656
▁প্রদত্ত	-10.7656
▁ধারালো	-10.7657
▁আকতার	-10.7662
▁ভয়ংকর	-10.7663
▁টাঙ্গাইলের	-10.7664
▁পেরেছে	-10.7667
▁পাঁচটা	-10.7668
▁মানতে	-10.7668
মুছলিম	-10.7671
▁হারায়	-10.7673
▁অতীত	-10.7675
কথা	-10.7677
▁৫৯	-10.7681
▁প্রশ্নপত্র	-10.7682
▁ফুটবলে	-10.7684
▁খামার	-10.7685
▁মনিরুজ্জামান	-10.7686
▁সহিংসতার	-10.7686
▁সার্কেল	-10.7688
▁প্রোগ্রামিং	-10.7692
▁দোষী	-10.7695
▁গণ্য	-10.7695
▁চারা	-10.7695
U	-10.7696
▁সিকদার	-10.7699
▁তখনো	-10.7701
▁অভিহিত	-10.7704
▁৬টি	-10.7704
▁মৌসুমী	-10.7715
▁চাইছেন	-10.7717
▁রাখলে	-10.7719
▁আসাদ	-10.772
▁ব্লগে	-10.7721
▁প্রদীপ	-10.7724
▁আবাসন	-10.7728
▁সিদ্ধান্তে	-10.7729
▁পর্যটক	-10.7731
▁থিয়েটার	-10.7731
▁খালেক	-10.7733
▁শতকের	-10.7739
▁কল্যাণে	-10.774
▁টপ	-10.7741
▁পাহাড়ে	-10.7741
▁শিক্ষার্থীকে	-10.7744
▁ডিরেক্টর	-10.7745
▁পাবলিশিং	-10.7747
▁ফিফা	-10.7753
▁পূরণের	-10.7754
▁দীপিকা	-10.7755
▁নরম	-10.7757
▁সেকেন্ড	-10.776
▁গর্ত	-10.7763
ইয়া	-10.7766
▁বিশ্বাসের	-10.7767
38)	-10.7768
▁News	-10.777
ঙ	-10.777
▁নৈতিক	-10.7773
▁আসাম	-10.7775
▁জহির	-10.7775
▁চেয়ার	-10.7779
▁গ্রুপে	-10.7782
▁পেট	-10.7786
পাস	-10.779
▁ডায়াবেটিস	-10.779
▁শেষের	-10.7794
▁মোটেও	-10.7803
▁লোকসভা	-10.7805
▁বাদে	-10.7806
▁রীতি	-10.7812
▁সোসাইটি	-10.7817
▁মাই	-10.7823
▁সাহসী	-10.7826
▁সমালোচনার	-10.7827
▁গাইবান্ধা	-10.7838
▁ব্লগার	-10.7839
▁প্রচারের	-10.784
▁পুষ্টি	-10.7844
▁জাতের	-10.7846
▁ক্রাইম	-10.7847
▁ফ্রাঙ্ক	-10.785
▁বিশ্রাম	-10.7851
▁স্পেন	-10.7853
▁মাঝখানে	-10.7853
▁বরফ	-10.7854
▁ঠেলে	-10.7856
▁মানববন্ধনে	-10.7858
▁পরশু	-10.7861
▁যশোরের	-10.7861
▁যাবজ্জীবন	-10.7863
▁আসলেই	-10.7866
▁নিবেদন	-10.7874
▁K	-10.7885
▁অসুবিধা	-10.7885
▁বিপর্যয়	-10.7894
▁সমতা	-10.7895
▁দিনাজপুরের	-10.7897
▁ক্যালেন্ডার	-10.7899
▁স্টেডিয়াম	-10.7906
▁গাধা	-10.7907
▁জামাত	-10.7908
▁বদল	-10.7908
▁জলিল	-10.791
▁বরাবরই	-10.7911
▁শপিং	-10.7912
▁ভঙ্গ	-10.7913
▁আক্রমণের	-10.7914
▁বিগ	-10.7915
▁বিপ্লবী	-10.7919
▁মোবাইলে	-10.7921
▁র‍্যাব	-10.7922
▁এমনটাই	-10.7923
▁আপত্তিকর	-10.7929
▁মূলধন	-10.7931
▁নওয়াজ	-10.7932
▁টার্মিনাল	-10.7932
▁প্রান্ত	-10.7932
▁T	-10.7933
▁পাত্র	-10.7935
▁জো	-10.7936
▁শিখতে	-10.794
▁বিজ্ঞানীরা	-10.7941
▁সঞ্চালনায়	-10.7942
আই	-10.7945
▁নো	-10.7945
▁পিস্তল	-10.7946
▁লোকসান	-10.795
▁মেট্রোপলিটন	-10.7952
প্রধান	-10.7956
▁চক্রের	-10.7958
বল	-10.7959
▁জব্বার	-10.7962
▁ট্রেনিং	-10.7962
▁পেটে	-10.7963
ل	-10.7967
▁এডভোকেট	-10.7973
▁দপ্তরে	-10.7978
▁ম্যান	-10.7978
▁কেক	-10.7979
▁সারি	-10.798
▁৬৬	-10.7984
▁ম্যাচটা	-10.7984
▁ছাত্রীকে	-10.7989
▁ছাই	-10.7991
▁আটজন	-10.7991
▁পেপার	-10.7992
▁সজীব	-10.7992
▁শাহবাগ	-10.7994
টাঙ্গাইল	-10.7994
ভর্তি	-10.8001
▁ইইউ	-10.8004
▁তালাক	-10.8004
▁গেছি	-10.8005
▁রংপুরের	-10.8006
▁from	-10.8007
▁প্রথমেই	-10.8008
▁বার্ষিকী	-10.801
▁হয়রানির	-10.8011
▁রিসার্চ	-10.8014
▁পাশেই	-10.8016
▁৬৩	-10.8016
▁সুখবর	-10.8021
▁মাহবুবুর	-10.8023
▁উত্থান	-10.8025
▁জামা	-10.8026
▁ইয়েমেনে	-10.8027
▁নিজাম	-10.803
▁চি	-10.8041
▁চেয়েছে	-10.8042
▁টক	-10.8048
▁পর্যায়	-10.805
▁লজ্জা	-10.8055
▁ভাবা	-10.8059
২০৪৭	-10.8061
▁নির্মাণে	-10.8065
▁ভাগে	-10.8065
২০৪৮	-10.8066
▁মুভি	-10.807
▁টাইম	-10.8074
▁ছিনিয়ে	-10.8079
▁উদ্ধারের	-10.8082
▁পরিণতি	-10.8084
▁বার্তায়	-10.8086
▁বার্সেলোনার	-10.8089
▁ডাকে	-10.8089
▁গড়তে	-10.8092
▁লন্ডনের	-10.8096
▁গুঁড়া	-10.8098
▁পেছন	-10.8098
▁এসএমএস	-10.8099
▁৭৩	-10.8102
▁ফকির	-10.8104
▁বরিশালের	-10.8105
▁আমীর	-10.8113
▁সিকিউরিটি	-10.8115
২৩৭৬	-10.8116
▁পরিপূর্ণ	-10.8118
▁পাগল	-10.8119
▁শয়তান	-10.8121
/%0	-10.8122
▁সদস্যকে	-10.8122
▁নে	-10.8129
▁হারানোর	-10.813
▁ঘুমিয়ে	-10.8131
২০১৪	-10.8132
▁কালে	-10.8138
▁পরিমান	-10.8145
▁দুর্ভোগ	-10.8149
▁ফিরেছেন	-10.8159
▁মাঝেমধ্যে	-10.8161
ড়া	-10.8162
মাত্র	-10.8163
▁মাঝামাঝি	-10.817
▁চিকিৎসকেরা	-10.8173
▁বয়কট	-10.8173
▁সচিবালয়ে	-10.8175
▁চাচা	-10.8175
▁মেট্রো	-10.8179
▁শ্রমিকেরা	-10.818
▁ছক্কা	-10.8182
▁অনুষ্ঠানটি	-10.8184
▁পাখির	-10.8187
▁ইনস্টিটিউটের	-10.8191
▁দিগন্ত	-10.8193
▁রবীন্দ্র	-10.8194
▁১৫টি	-10.8195
▁অ্যালবাম	-10.8199
▁বিচারে	-10.8202
▁বন্ধে	-10.8203
26)	-10.8203
▁মৃত্যুবার্ষিকী	-10.8203
▁স্পেনের	-10.8204
▁জাসদ	-10.8208
▁প্রভাবে	-10.8208
▁গোপনীয়তা	-10.8213
▁কিছুতেই	-10.8217
▁আসামিরা	-10.8221
▁ইন্স্যুরেন্স	-10.8223
▁কর্মশালা	-10.8229
▁দৃষ্টিতে	-10.8231
▁বন্যার	-10.8234
▁নেমেছে	-10.8236
▁মুম্বাই	-10.8236
২০০০০	-10.8236
▁জানাচ্ছি	-10.8236
▁মমতাজ	-10.8237
▁রক্তে	-10.8239
▁মানা	-10.825
▁আরবে	-10.825
▁প্রকাশে	-10.8251
▁চড়ে	-10.8252
▁মন্ত্রিপরিষদ	-10.8252
▁পোস্টে	-10.8252
৪০৫৪	-10.8255
▁লাইট	-10.8257
▁অনুষদের	-10.8259
▁স্টেশনের	-10.8263
৪০৭২	-10.8265
▁চুক্তিতে	-10.8268
▁শিব	-10.8273
▁প্ল্যাটফর্ম	-10.8273
▁ইসির	-10.8274
▁উদ্বুদ্ধ	-10.8277
▁দাঁত	-10.8281
▁বর্ডার	-10.8282
▁এটাও	-10.8284
x	-10.8286
▁চাঁদাবাজি	-10.8288
▁জীবনী	-10.8288
▁পাসের	-10.8289
▁নগ্ন	-10.8294
▁রঞ্জন	-10.8296
▁স্মিথ	-10.83
▁রিয়াদ	-10.8301
▁বিঘা	-10.8302
▁গোপনে	-10.8302
▁টেমপ্লেট	-10.8304
৮৭	-10.8304
▁সংঘাত	-10.8304
▁টেনিস	-10.8305
▁ঠিকমতো	-10.8306
▁স্থির	-10.8308
▁জামিনে	-10.831
▁সেক্টর	-10.8313
▁মাদকের	-10.8315
শিক্ষা	-10.8319
▁আদম	-10.8321
▁তালেবান	-10.8321
▁কেনাকাটা	-10.8325
▁প্রিন্স	-10.8325
▁পশুর	-10.8325
▁বিশ্বজুড়ে	-10.8327
▁টার	-10.8328
▁অভিজ্ঞতার	-10.8329
দুই	-10.833
চর	-10.833
▁সমকাল	-10.833
▁সেন্টারের	-10.8334
▁ক্রিকেটারদের	-10.8335
▁৮০০	-10.8336
▁ভবনটি	-10.8337
▁এটিকে	-10.8342
▁পরীক্ষার্থীদের	-10.8344
▁প্লে	-10.835
▁দায়িত্বশীল	-10.8353
▁গড়া	-10.8353
▁দিতেন	-10.8355
▁পানীয়	-10.8358
▁বালক	-10.8366
▁ভাইরাল	-10.837
▁নাঈম	-10.8371
▁প্রবাহিত	-10.8373
▁০১৭৩০৭	-10.8377
▁কাকে	-10.8379
▁আনন্দে	-10.8383
▁পেরেছি	-10.8386
▁হাইকোর্টে	-10.8388
৩৫৮	-10.8392
▁ইউনিভার্সিটির	-10.8394
▁(4	-10.8395
M	-10.8398
▁সময়টা	-10.8399
▁আর্ট	-10.84
▁জনবল	-10.8401
▁উদ্ভাবন	-10.8401
▁প্রশ্নবিদ্ধ	-10.8403
▁ফাঁসির	-10.8409
▁ঢেকে	-10.8411
▁তারাও	-10.8413
▁ফালাহ	-10.8414
8)	-10.8419
▁কাম	-10.8421
▁জগতের	-10.8423
▁বিরক্ত	-10.8424
▁সহিংস	-10.8424
▁সাহিত্যের	-10.8426
৪৪৮	-10.8426
▁বড়ো	-10.8427
▁পাঠদান	-10.8428
▁সিঙ্গাপুর	-10.8428
▁ব্যায়াম	-10.8429
৩৩	-10.8431
▁মধুর	-10.8435
▁প্রত্যাবাসন	-10.8436
▁কামরুজ্জামান	-10.8439
▁মৌসুমের	-10.844
▁রেজিস্ট্রার	-10.844
৪২	-10.8442
▁হজম	-10.8442
ডা	-10.8443
▁সেটার	-10.8443
▁জানাজা	-10.8446
▁ধারে	-10.8449
▁>>	-10.845
▁সায়েন্স	-10.8453
▁আতাউর	-10.8453
▁স্টাইল	-10.8457
▁ওভারের	-10.8465
▁জানালে	-10.8469
▁আঙুল	-10.8471
▁প্রেসক্লাব	-10.8473
▁নাগরিকের	-10.8477
▁বিলুপ্ত	-10.8478
▁রাজার	-10.8479
▁তিনবার	-10.8481
▁যুবদল	-10.8482
▁ভাষণে	-10.8484
▁মিশ্র	-10.8485
▁গুরু	-10.8487
▁বাদল	-10.8489
▁ব্যানার	-10.8495
▁অস্ত্রোপচার	-10.8502
▁বইয়ে	-10.8502
[	-10.8503
৪৮	-10.8504
▁উল্টে	-10.8504
▁আরেকজন	-10.8507
▁বিহার	-10.8508
▁নাটোর	-10.851
ীদের	-10.8511
▁৮৬	-10.8512
▁পর্ষদ	-10.8513
▁প্রক্রিয়ার	-10.8514
▁নিদর্শন	-10.8514
▁নামাজের	-10.8516
▁গাঁজা	-10.8519
▁ইমরুল	-10.8524
▁বেগমের	-10.8524
▁মুকুল	-10.8525
▁বাঁশ	-10.8527
▁(5	-10.853
▁তিনিই	-10.853
▁টার্গেট	-10.8532
▁উপরের	-10.8532
▁নিহতদের	-10.8539
▁নিশ্চয়তা	-10.8543
▁সেলিনা	-10.8543
▁ম্যানচেস্টার	-10.8551
▁নেতাকর্মী	-10.8555
৩৬২	-10.8557
▁নেতাকে	-10.8558
▁পুতিন	-10.8559
▁উপলক্ষ্যে	-10.8562
▁গোলরক্ষক	-10.8563
▁প্রথমবার	-10.8563
▁পূর্বাভাস	-10.8564
▁সর্বব্যাপী	-10.8565
▁মালয়েশিয়ায়	-10.8565
▁খায়রুল	-10.8565
▁জেতা	-10.8566
▁আর্কাইভ	-10.8568
▁ব্যাটারি	-10.8569
▁উপপরিচালক	-10.8571
১২০৩	-10.8571
▁পেমেন্ট	-10.8572
▁কথাবার্তা	-10.8573
▁ডাকাতি	-10.8575
▁ম্যাচেই	-10.8578
▁নেয়নি	-10.8587
▁সময়সূচী	-10.8587
▁অংশগ্রহণের	-10.8589
▁পাসপোর্টের	-10.8593
▁বারের	-10.8596
▁একটাই	-10.8598
▁সুন্দরবন	-10.86
▁শতাংশে	-10.86
দল	-10.8603
▁সন্দেহভাজন	-10.8603
▁রোধে	-10.8604
▁মিলিত	-10.8605
▁গৌতম	-10.8606
▁হব	-10.861
▁পেছনের	-10.8613
▁2010	-10.8614
ত্ব	-10.8617
ফা	-10.862
▁কমানো	-10.8622
▁চুপ	-10.8624
▁উঠলে	-10.8624
▁জলাবদ্ধতা	-10.8625
▁দেশগুলো	-10.8625
▁রাজশাহীতে	-10.8628
▁বাণিজ্যমন্ত্রী	-10.863
▁সংকটের	-10.863
▁বাড়ার	-10.8631
▁চাকরিতে	-10.8632
9	-10.8633
▁১২০	-10.8634
▁ওয়াসাল্লাম	-10.8636
▁ডিসপ্লে	-10.864
▁চেয়ারম্যানের	-10.8641
▁বনাম	-10.8641
▁দেবার	-10.8644
▁কোলে	-10.8644
▁মেট্রিক	-10.8645
▁দর্শকের	-10.8648
▁চেনা	-10.8652
▁প্লাজা	-10.8652
▁সাতটা	-10.8653
▁একাডেমিক	-10.8654
▁খেলেন	-10.8654
▁ব্যয়ে	-10.8655
নতুন	-10.8667
▁শিকদার	-10.8667
▁খানকে	-10.8667
▁রুট	-10.867
▁দূষণ	-10.8671
▁১২টায়	-10.8672
জা	-10.8674
▁এঁদের	-10.868
▁হিন্দি	-10.8682
▁বিবেচিত	-10.8684
▁কীর্তি	-10.8685
▁করানোর	-10.8685
▁রামু	-10.8685
▁হাউজ	-10.8686
▁জ্বর	-10.8687
▁ব্রিটেনে	-10.8687
▁পেরেছেন	-10.8691
▁শ্যামাঙ্গিনী	-10.8692
রাজ	-10.8694
▁ইউএস	-10.8694
▁দেহের	-10.8695
▁সীমাবদ্ধ	-10.8695
▁আফগানিস্তানে	-10.8696
▁স্পেশাল	-10.8696
▁সেদিকে	-10.8697
▁ভাবি	-10.8699
▁মিশে	-10.8706
▁সরল	-10.8707
ভি	-10.871
▁জরিপে	-10.8711
▁কাতার	-10.8716
▁ডেলিভারি	-10.8718
▁আংশিক	-10.8718
▁পরিবেশের	-10.872
▁ঠাকুরগাঁও	-10.8729
▁করুক	-10.873
▁আদায়ে	-10.8734
▁সুফল	-10.8737
▁প্রসার	-10.874
▁জিহাদ	-10.8742
▁পাড়ার	-10.8747
▁জিহাদি	-10.875
▁হেসে	-10.8753
▁মোতাবেক	-10.8753
▁লিয়াকত	-10.8753
▁কিডনি	-10.8754
৮৬২	-10.8759
▁7	-10.876
▁সেগুলোর	-10.8763
▁অনু	-10.8764
▁কমার্স	-10.8765
▁অনিয়মের	-10.8766
▁pm	-10.8767
▁নির্ণয়	-10.8768
▁বন্দরের	-10.8772
▁সিকিউরিটিজ	-10.8772
▁প্রাইম	-10.8776
▁সঞ্জয়	-10.8777
▁আগামীতে	-10.8778
▁থ্রি	-10.8781
▁অব্যাহতি	-10.8783
০৮	-10.8783
▁মোদির	-10.8783
▁গায়ক	-10.8784
িংয়ের	-10.8785
▁৪২৩	-10.8785
▁বন্দরে	-10.8786
▁মাসুম	-10.8786
▁প্রিয়াঙ্কা	-10.8789
▁অয়েল	-10.8789
▁মোয়াজ্জেম	-10.879
▁ঘন্টার	-10.879
▁বোমারু	-10.8791
▁আকারের	-10.8794
j	-10.8795
▁ছাদে	-10.8795
▁টেলিভিশনের	-10.8796
▁সাপেক্ষে	-10.8796
▁ব্র্যাক	-10.8799
▁৪র্থ	-10.8803
▁প্রতিনিধিত্ব	-10.8804
▁ছয়টা	-10.8806
▁চেয়ারপারসনের	-10.8806
▁মোকাবেলা	-10.881
▁ছিনতাই	-10.8811
▁অনশন	-10.8816
▁ক্যাপ্টেন	-10.883
▁পাঠিয়েছে	-10.883
গুলিতে	-10.883
▁আইটি	-10.8831
▁it	-10.8834
▁কক্সবাজারে	-10.8834
▁বিজিবির	-10.8835
▁মাতৃভাষা	-10.8837
িয়ান	-10.8838
▁চোর	-10.8844
▁স্তরের	-10.8848
▁অ্যান্টি	-10.8849
▁মানি	-10.8853
▁জলে	-10.8857
▁শিল্পীদের	-10.8857
▁বাগেরহাট	-10.8861
▁প্রান্তিকের	-10.8861
▁বিধানসভা	-10.8863
▁চরিত্রের	-10.8865
▁যৌতুক	-10.8865
▁গর্ভবতী	-10.8871
▁হাসিনাকে	-10.8873
▁বৃষ্টিতে	-10.8876
▁প্রতিদিনই	-10.8877
▁তত্ত্ব	-10.8877
▁মার্কেটে	-10.8879
▁শুরুটা	-10.8879
▁৭৪	-10.8879
▁কালি	-10.888
▁ব্যবহারকারীদের	-10.8881
▁ক্যাথলিক	-10.8881
▁দিবেন	-10.8885
▁গণনা	-10.8886
▁লিটার	-10.8888
▁ডিভাইস	-10.8889
▁শুধুই	-10.8891
▁আরেকটা	-10.8892
▁এগুলোর	-10.8893
▁সূত্রের	-10.8895
▁রসুন	-10.8896
▁কৃষকের	-10.89
▁মিডিয়ার	-10.8901
▁ভোরের	-10.8905
▁মৃত্যুবরণ	-10.8907
▁সাংবাদিকতা	-10.8913
▁ওসমানী	-10.8915
▁মহেশখালী	-10.8917
▁৬৯	-10.8918
▁পাড়ে	-10.8919
▁ইউনুস	-10.8919
▁রোকেয়া	-10.8922
▁পড়ি	-10.8922
▁আত্মসমর্পণ	-10.8923
▁অটো	-10.8923
▁গন্তব্য	-10.8926
▁বন্যায়	-10.8926
▁সেলফি	-10.8927
জুলাই	-10.8929
গা	-10.8934
▁ভাংচুর	-10.8942
৪৩	-10.8946
ভাবেই	-10.8947
▁স্তরে	-10.8949
▁আফ্রিকান	-10.895
▁নাজিম	-10.8951
▁প্যারামিটার	-10.8954
▁২টা	-10.8955
▁চিংড়ি	-10.896
▁পল	-10.8961
▁সংশোধিত	-10.8961
▁৭৮	-10.8962
▁গ্লাস	-10.8962
▁তরুণী	-10.8966
▁বৈশাখী	-10.8969
▁মেঘ	-10.8973
’—	-10.8974
▁English	-10.8975
▁অমর	-10.8977
▁হাঁটতে	-10.8979
▁অর্জিত	-10.8979
▁বাদশা	-10.8982
▁আটকা	-10.8983
▁সাগরে	-10.8984
▁নাটকটি	-10.8986
▁১৯৯১	-10.899
৮৪৩২	-10.8992
▁এতটা	-10.8993
▁হিলারি	-10.8996
▁বস্তা	-10.8998
▁ভৈরব	-10.8999
৩৪	-10.9
▁ঘাতক	-10.9007
▁কার্যক্রমে	-10.9007
▁সৈন্য	-10.901
▁আচরণবিধি	-10.9016
▁কোর্টে	-10.9016
▁তোর	-10.9019
▁জাদুঘর	-10.902
▁জোরালো	-10.9021
▁হাড়	-10.9023
▁বললো	-10.9024
▁রঙিন	-10.9024
▁জনতার	-10.9024
▁সংগঠক	-10.9024
দেশ	-10.9025
▁দেখানোর	-10.9028
▁হকি	-10.9031
▁আগুনের	-10.9031
আগামী	-10.9033
▁আয়েশা	-10.9034
▁বিস্ময়	-10.9037
▁ঘটানো	-10.9039
▁ক্রিসমাস	-10.904
▁শিবগঞ্জ	-10.904
▁প্রকল্পটি	-10.904
▁আইনজীবীরা	-10.9043
▁কাউন্টার	-10.9044
▁(14	-10.9045
▁নবীগঞ্জ	-10.9046
▁বাঙালিদের	-10.9046
▁লিখা	-10.9047
▁উদ্বিগ্ন	-10.9049
▁৬১	-10.905
▁ঘাটে	-10.9051
▁ড্রাইভার	-10.9051
▁৯২	-10.9053
৭০	-10.9055
▁মোহন	-10.9056
▁অল	-10.9058
▁F	-10.9059
▁আবাহনী	-10.9059
▁দুপুরের	-10.9059
▁মুহূর্ত	-10.9061
▁রুটে	-10.9067
▁লুইস	-10.9067
25)	-10.9069
▁ইন্টারনেটের	-10.9069
▁গিয়েছেন	-10.9069
▁পিছু	-10.907
▁তলিয়ে	-10.9074
▁10	-10.9078
▁থাকুক	-10.9079
▁শিক্ষকেরা	-10.9079
▁১৯৯০	-10.9079
▁১৯৯৮	-10.9084
▁ব্যানারে	-10.9085
র্	-10.9085
▁টস	-10.909
▁নেব	-10.9093
▁নির্মাণকাজ	-10.9095
▁বোর্ডে	-10.9095
▁মধ্যকার	-10.9097
ষধ	-10.9098
▁চিকিৎসকদের	-10.9099
▁প্রি	-10.9099
▁আরোহী	-10.91
▁এমনিতেই	-10.9101
▁চারদিকে	-10.9101
▁ফেরা	-10.9102
u	-10.9104
▁চেয়েছিল	-10.9108
▁প্রতিফলন	-10.9108
▁ইরাকে	-10.9111
▁কোতোয়ালি	-10.9112
▁৮৪	-10.9115
▁কাঠের	-10.9116
▁কলম	-10.9118
▁ব্যালট	-10.9119
▁সীমান্তের	-10.9119
▁গুপ্ত	-10.912
▁সংগঠনটির	-10.9121
বিশেষ	-10.9121
▁বাঘ	-10.9123
▁বোলারদের	-10.9125
▁সমকামিতা	-10.9129
▁দিলীপ	-10.9137
28)	-10.9138
▁সংস্থাটি	-10.9141
▁জয়পুরহাট	-10.9141
▁মল্লিক	-10.9142
▁বিস্ফোরণের	-10.9143
▁রাখছে	-10.9144
▁লেক	-10.9147
▁এলিফেন্ট	-10.9147
▁ফরোয়ার্ড	-10.9149
▁দরে	-10.9151
▁স্তর	-10.9153
▁পারা	-10.9153
▁ক্রিস	-10.9156
▁স্তন	-10.9159
▁রোল	-10.916
▁সেচ	-10.916
▁পে	-10.9161
▁একেক	-10.9167
▁সংক্রমণ	-10.9169
▁ঘটবে	-10.9173
▁শঙ্কা	-10.9175
▁খ্রিষ্টানদের	-10.9175
▁কনস্টেবল	-10.9178
▁জাপা	-10.9179
১০৭৩	-10.9182
▁অ্যাওয়ার্ড	-10.9185
▁খালের	-10.9188
▁সালাউদ্দিন	-10.9189
▁অর্পণ	-10.9193
▁বইমেলা	-10.9195
▁প্রতিনিধিদের	-10.9196
▁লিঙ্গ	-10.9196
লের	-10.9203
▁or	-10.9204
সু	-10.9206
▁হোটেলের	-10.9206
▁বন্দুক	-10.9208
▁Bangladesh	-10.9209
▁চালকের	-10.9209
▁পৃষ্ঠার	-10.921
▁হাজারো	-10.921
▁খুলতে	-10.9213
▁তদন্তকারী	-10.9215
▁নীরব	-10.9216
▁পরিবর্তিত	-10.9217
৩১৮১	-10.9218
▁নিরীহ	-10.922
▁ইবাদত	-10.9221
▁সনের	-10.9223
▁প্রাতিষ্ঠানিক	-10.9228
▁প্রতিষ্ঠানগুলো	-10.9229
▁ইনিংসের	-10.9229
▁দেই	-10.9231
▁পুঁজিবাজার	-10.9232
▁পর্যটকদের	-10.9232
▁সিগারেট	-10.9233
▁স্বজনদের	-10.9235
দেরকে	-10.9238
▁কন্ঠ	-10.9239
▁এরশাদের	-10.9241
▁শোনার	-10.9245
▁শতাব্দীর	-10.9246
▁ঠিকাদার	-10.9247
▁স্কয়ার	-10.9247
▁ক্রেতাদের	-10.9248
▁হারাতে	-10.9251
▁ক্রমাগত	-10.9252
▁চাপায়	-10.9253
▁মুসা	-10.9255
▁কর্পোরেশনের	-10.9256
▁হুকুম	-10.9259
▁দৃশ্যমান	-10.9267
▁৭৬	-10.927
▁রেখাচিত্র	-10.9271
▁ইলেকট্রনিক	-10.9277
▁খোদ	-10.9277
বার্তা	-10.9277
▁আনোয়ারা	-10.9278
▁খেলেছে	-10.9278
▁নীলফামারী	-10.928
▁খ্যাত	-10.928
▁বিশ্বাসী	-10.9281
▁৬টা	-10.9284
বিএনপি	-10.9286
সাধারণ	-10.9288
▁৭টা	-10.9289
▁ঘৃণা	-10.9289
▁ফলন	-10.9289
▁প্রবাহ	-10.9291
▁ডাবল	-10.9294
▁আত্ম	-10.9297
▁পুঁজি	-10.9299
▁বিতর্কের	-10.93
▁শাকিল	-10.93
▁কাটতে	-10.9304
▁আক্রমণে	-10.9306
▁একাই	-10.9307
▁স্বীকৃত	-10.9309
▁মুখার্জি	-10.931
▁রওশন	-10.931
▁বিবিসির	-10.9311
▁ইউনিটে	-10.9311
▁স্ট্রাইকার	-10.9313
▁সাপ	-10.9313
▁নর্থ	-10.9314
▁ঘূর্ণিঝড়	-10.9314
4	-10.9319
প্রযুক্তি	-10.932
▁সুনীল	-10.9321
▁বর্ষা	-10.9323
▁আলোকিত	-10.9324
▁ব্যাহত	-10.9325
▁তত্ত্বাবধানে	-10.9326
▁পরিচয়পত্র	-10.9326
▁বাধ্যতামূলক	-10.9327
▁ব্যাবহার	-10.9328
▁He	-10.933
▁সিটির	-10.933
▁লীগে	-10.9334
০২	-10.9334
76)	-10.9335
▁বলিউডে	-10.9336
▁পুতিনের	-10.934
▁টাইগার	-10.9345
▁বসবাসকারী	-10.9345
▁শার্ট	-10.9346
▁ময়দানে	-10.9347
▁হেলথ	-10.9347
▁হইবে	-10.9348
▁রূপে	-10.9356
▁নিয়ন্ত্রিত	-10.9361
▁সংবাদপত্র	-10.9363
▁সালমা	-10.9365
স্ত্রী	-10.9366
▁রোহিঙ্গারা	-10.9368
▁সাধন	-10.9369
▁সিসি	-10.937
▁অন্তর	-10.937
▁এটিই	-10.937
▁ভূমিকম্প	-10.9371
▁৩০টি	-10.9373
▁not	-10.9378
▁দ্রব্য	-10.9379
জে	-10.9384
▁জীবনযাপন	-10.9384
▁সারাদিন	-10.9387
▁জিবি	-10.9387
▁পুনঃ	-10.9388
▁ভাবেই	-10.9388
▁নব্য	-10.9394
▁পড়ায়	-10.9398
▁প্লাস্টিক	-10.9399
▁জেতার	-10.94
▁উচ্চবিদ্যালয়ের	-10.94
▁বিদায়ী	-10.9401
▁মহড়া	-10.9404
62)	-10.9404
▁মডেলের	-10.9412
▁রইল	-10.9417
▁রিয়েল	-10.942
▁জিতেছেন	-10.942
▁অনন্ত	-10.9425
▁স্নাতকোত্তর	-10.9425
▁নির্মূল	-10.9425
▁অনুপ্রেরণা	-10.9426
▁অত্যাচার	-10.9427
▁ধৈর্য	-10.9429
▁পোশাকের	-10.9432
▁পেলেই	-10.9433
▁রাজনীতিবিদ	-10.9435
▁রাইটস	-10.9435
▁ক্যালকুলেটর	-10.9435
▁দুজনই	-10.9439
▁মার্কেটের	-10.944
ক্স	-10.9441
▁সেন্ট্রাল	-10.9441
▁l	-10.9442
▁ধরেছেন	-10.9443
▁ব্যর্থতা	-10.9454
বাড়ী	-10.9455
▁ছুরি	-10.946
▁আত্মার	-10.9461
▁বিশেষত	-10.9462
▁ঘরবাড়ি	-10.9463
▁গৌরীপুর	-10.9464
▁সর্বপ্রথম	-10.9465
46)	-10.9465
▁কান্না	-10.9466
▁ব্যবস্থাপনায়	-10.9467
in	-10.9471
▁আদৌ	-10.9472
▁পাইপ	-10.9476
▁নিজেরা	-10.948
▁খেলনা	-10.9486
▁সূর্যের	-10.9487
▁ফ	-10.9487
▁শিশুটি	-10.949
সংস্কৃতি	-10.9491
▁নজির	-10.9491
▁দগ্ধ	-10.9495
▁৭০০	-10.9497
৭৮	-10.9497
▁নির্বাচনকালীন	-10.9499
▁হিরো	-10.9501
▁দুনিয়া	-10.9504
▁নাট্য	-10.9505
▁নান্দাইল	-10.9508
▁কোম্পানিগুলো	-10.9509
▁কৃতজ্ঞতা	-10.951
jog	-10.9512
▁কন্ট্রোল	-10.9513
▁অহংকার	-10.9515
▁তীর	-10.9518
▁অন্তর্গত	-10.9521
▁প্রখ্যাত	-10.9525
▁শিবিরের	-10.9526
▁দ্বীন	-10.9529
▁প্রজ্ঞাপন	-10.953
▁গ্র্যান্ড	-10.9531
22)	-10.9532
স্ট	-10.9533
▁খোঁজে	-10.9534
▁হয়েই	-10.9537
▁০১৬৭৮	-10.954
▁দুবাই	-10.954
▁আমজাদ	-10.9543
▁বিদেশিদের	-10.955
▁গিয়েছিলাম	-10.9551
▁কোম্পানিটি	-10.9553
▁ব্যবস্থায়	-10.9553
▁আল্লামা	-10.9554
▁ফিটনেস	-10.9557
▁নুরুজ্জামান	-10.9558
▁অপমান	-10.9558
▁সংখ্যায়	-10.9559
টো	-10.9559
▁ঘটেনি	-10.956
▁নানাভাবে	-10.956
▁নয়টা	-10.956
▁মুন	-10.9562
▁পারলাম	-10.9563
▁অনুরূপ	-10.9564
▁কুড়িগ্রাম	-10.9564
▁সমকামী	-10.9565
▁বকর	-10.9567
▁শিল্পীর	-10.9567
▁দীর্ঘদিনের	-10.957
▁ডিফেন্ডার	-10.9571
▁মমিন	-10.9571
ঘাট	-10.9578
▁শফিক	-10.9583
▁ইতালি	-10.9584
▁সাহিত্যিক	-10.9587
▁মাহমুদুল	-10.9592
▁তালিকার	-10.9592
▁শিশুটিকে	-10.9592
▁উপস্থাপনা	-10.9592
▁ক্যানসার	-10.9593
▁বাসিন্দাদের	-10.9597
▁খেজুর	-10.9601
▁দেশব্যাপী	-10.9603
▁পৌঁছাতে	-10.9603
▁পাকিস্তানকে	-10.9606
▁ভাইকে	-10.9607
▁জানুয়ারির	-10.9608
▁রিয়াজ	-10.9609
▁as	-10.9609
▁সবকিছুই	-10.9613
▁বুদ্ধি	-10.9613
▁হানা	-10.9613
▁শিশ্ন	-10.9616
▁৪টা	-10.9616
▁পার্লামেন্ট	-10.9619
▁ফোর	-10.9619
▁হিজাব	-10.9619
▁he	-10.9621
▁তথ্যমন্ত্রী	-10.9625
▁আমন	-10.9627
▁একাত্তরের	-10.9628
▁রোনালদোর	-10.9629
▁৩টা	-10.963
▁গ্যালারি	-10.9631
▁মরে	-10.9632
▁পাব	-10.9635
▁সাংবিধানিক	-10.9636
▁প্রথা	-10.9636
▁ভালবাসা	-10.9638
▁সমর্থকেরা	-10.9638
▁স্বয়ং	-10.9639
▁পূরণে	-10.9647
▁ব্যবহারকারীর	-10.965
▁সমর্থিত	-10.9652
▁মুরাদ	-10.9652
▁সাদেক	-10.9653
নির্ভর	-10.9653
▁আরবি	-10.9653
▁বন্দি	-10.9654
ঘর	-10.9655
▁লেন	-10.9656
▁নবীর	-10.9659
▁জগন্নাথ	-10.9663
▁প্রতীকে	-10.9666
▁প্রজেক্ট	-10.9666
▁হাতি	-10.9669
▁ছেলেরা	-10.967
▁৮২	-10.9672
▁বোঝার	-10.9672
▁টিভিতে	-10.9673
▁খাঁ	-10.9677
▁পদ্ধতির	-10.9677
▁প্যারিস	-10.968
▁আন্ত	-10.9682
▁সুবিধার	-10.9682
▁নভেম্বরে	-10.9683
▁ট্রলার	-10.9688
▁পারায়	-10.9692
▁হিল	-10.9693
▁ফ্যাক্টরি	-10.9696
▁টেবিলে	-10.9697
▁দালাল	-10.9698
▁১৯৭২	-10.97
▁যুগান্তর	-10.9702
▁উত্তরাধিকার	-10.9709
▁আইপিও	-10.971
▁রহমত	-10.9711
▁ক্যামেরার	-10.9713
▁ভারসাম্য	-10.9713
▁ব্যাপারটি	-10.9715
▁সাকিবের	-10.9716
▁ক্রমশ	-10.9717
▁পাতার	-10.9718
জেলা	-10.9723
▁দুদিন	-10.9723
▁বিএনপিকে	-10.9723
10	-10.9725
▁বললেই	-10.9725
টে	-10.9726
▁রেখেছিলেন	-10.9729
▁ইমন	-10.973
▁পরিষদে	-10.9735
▁ফাঁকি	-10.9736
▁প্রজনন	-10.9736
▁পটুয়াখালী	-10.9738
▁কয়েকটা	-10.9741
▁ডায়েরি	-10.9741
▁24	-10.9749
▁নিরসনে	-10.9753
▁দুর্দশা	-10.9753
▁জানুয়ারিতে	-10.9753
▁বিপজ্জনক	-10.9758
▁পেটের	-10.976
▁নাইজেরিয়ায়	-10.976
▁ঢোকার	-10.9763
▁আসামিকে	-10.9764
▁কালীগঞ্জ	-10.9765
▁প্রধানমন্ত্রীকে	-10.9766
▁সূত্রপাত	-10.9766
▁প্রিন্টার্স	-10.9769
▁বিবাহিত	-10.9773
▁স্মরণে	-10.9776
▁পিঠে	-10.978
▁তিনজনের	-10.9781
▁গণফোরাম	-10.9782
▁ইন্ডাস্ট্রিজ	-10.9782
▁কৌশলে	-10.9783
▁মন্ত্রিসভার	-10.9783
▁কোরবানির	-10.9784
▁বিছানায়	-10.9786
▁জাত	-10.9789
▁পারস্পরিক	-10.979
▁মুত	-10.979
▁জীব	-10.9794
▁অমিতাভ	-10.9795
▁বেড়া	-10.9798
▁তুর্কি	-10.9798
ব্যবস্থা	-10.98
▁থাকছেন	-10.9803
▁ইউপির	-10.9803
▁বস	-10.9804
▁সাহেবের	-10.9808
▁পরিকল্পিত	-10.9809
▁বাঁচতে	-10.9812
▁দুনিয়ার	-10.9815
▁অপহরণের	-10.9818
▁৮১	-10.9819
▁৫টা	-10.9821
▁বিএসএফ	-10.9823
▁আশপাশে	-10.9824
▁কৃতিত্ব	-10.9825
▁প্রতিভা	-10.9825
▁অবদানের	-10.9827
▁ডেটা	-10.9828
▁অপশন	-10.9828
▁শরিক	-10.9833
▁সাজিয়ে	-10.9834
▁গতবার	-10.9834
▁পাসওয়ার্ড	-10.9835
ফোরেক্স	-10.9836
▁আশার	-10.9838
▁অবস্থানের	-10.9842
টায়	-10.9844
▁মন্ত্রীর	-10.9844
▁প্রতারণা	-10.9852
▁কর্মকাণ্ডের	-10.9852
পত্র	-10.9855
▁সুব্রত	-10.9857
▁এমনভাবে	-10.9858
▁অসীম	-10.9858
▁হয়েছিলো	-10.9859
▁নবীন	-10.9861
▁ওয়াজেদ	-10.9862
▁নয়টি	-10.9865
▁লড়তে	-10.9865
▁১৪টি	-10.9866
▁কার্যত	-10.9867
▁নামা	-10.9869
▁যাও	-10.9871
▁রেখা	-10.9871
▁বাতাসে	-10.9873
▁প্যারিসে	-10.9876
▁সমন্বয়ক	-10.9876
▁সঞ্চয়	-10.9878
▁আকাশের	-10.9878
ржрж	-10.988
▁চলাকালীন	-10.9881
▁দেখান	-10.9882
▁নিজেরাই	-10.9882
▁ক্লাসে	-10.9884
▁বিশুদ্ধ	-10.989
▁গজ	-10.9891
▁পরিষেবা	-10.9892
▁বকেয়া	-10.9893
▁করিতে	-10.9893
▁ভিডিওটি	-10.9894
▁সেন্সর	-10.9895
▁মিডফিল্ডার	-10.9895
▁নাশকতার	-10.9896
▁প্রত্যেকটি	-10.9902
▁সেখানেও	-10.9902
▁নাশকতা	-10.9902
▁নেত্রকোনা	-10.9904
▁সালাহ	-10.9909
▁চায়ের	-10.9911
▁ফুটেজ	-10.9912
▁এমনি	-10.9914
▁ইন্তেকাল	-10.9915
▁কাগজে	-10.9919
▁চাপের	-10.992
▁হার্ড	-10.9922
পাকিস্তান	-10.9922
▁অগ্রসর	-10.9922
▁বলতেন	-10.9923
▁মেতে	-10.9924
▁ভবিষ্যতের	-10.9925
▁গোষ্ঠীর	-10.9926
▁সংঘ	-10.9931
▁বিবিধ	-10.9933
▁ঘটনাকে	-10.9933
▁গ্রাহকের	-10.9938
▁শব্দে	-10.9941
▁খেলাপি	-10.9942
▁দেশেই	-10.9943
..]	-10.9947
▁হোন	-10.9948
▁ঘটিয়ে	-10.9951
০৯	-10.9953
▁গাছে	-10.9953
▁বোরো	-10.9954
▁তিতাস	-10.9954
▁বার্ন	-10.9955
▁কর্মচারীদের	-10.996
▁ঝগড়া	-10.9963
▁প্রতিষ্ঠানকে	-10.9966
▁৭৭	-10.9966
▁নড়াইল	-10.9966
▁মধ্যম	-10.9967
বাবু	-10.9968
▁অনুপস্থিত	-10.9968
▁১৯৭৫	-10.997
দী	-10.9972
▁সবারই	-10.9977
▁হাটহাজারী	-10.9982
▁সিআইডি	-10.9983
▁আসরের	-10.9983
▁পথের	-10.9985
18)	-10.9985
▁বচ্চন	-10.9988
▁এন্টারপ্রাইজ	-10.9991
▁৮টি	-10.9992
▁লিনাক্স	-10.9995
▁মাহবুবুল	-10.9996
▁মারুফ	-10.9997
▁সভানেত্রী	-11
▁মাসেই	-11.0001
▁অন্ধকারে	-11.0004
▁ইস্পাত	-11.0008
▁প্রশিক্ষণের	-11.0009
▁তাৎক্ষণিক	-11.0009
▁পোষণ	-11.0011
▁অপব্যবহার	-11.0015
▁উপার্জন	-11.0017
▁ইন্টারনেটে	-11.0017
▁বিচিত্র	-11.0025
▁ভাবমূর্তি	-11.0026
▁মাইক	-11.0028
J	-11.0028
▁আবাদ	-11.0029
▁ছাত্রদল	-11.0035
লীগ	-11.0036
▁মঈন	-11.0037
▁পদপ্রার্থী	-11.0037
▁রেখেছি	-11.0038
ir	-11.0038
▁লাভবান	-11.004
▁কার্টুন	-11.0041
▁খাশোগি	-11.0043
▁মারমা	-11.0044
▁জলের	-11.0045
ইসি	-11.0045
▁বিকাশের	-11.0049
▁মালিকের	-11.0052
▁বিমানটি	-11.0055
▁কোরবানি	-11.0057
▁আশেপাশে	-11.0057
▁দুটির	-11.0059
▁এসি	-11.006
▁পারবো	-11.0061
▁ফেলুন	-11.0062
▁আত্মবিশ্বাস	-11.0063
▁বাটা	-11.0063
▁দিবসটি	-11.0064
লাল	-11.0065
শা	-11.0066
▁বিদ্যা	-11.007
▁স্পেস	-11.0071
▁এদেশের	-11.0072
▁বাক্স	-11.0076
▁বসতি	-11.008
▁ক্যালিফোর্নিয়া	-11.008
▁টিভির	-11.0082
বন্দুকযুদ্ধে	-11.0083
▁অঙ্কের	-11.0085
জনকে	-11.0086
▁উদ্ভিদ	-11.009
▁বায়ু	-11.0094
▁সুন্দরবনের	-11.0095
▁শিবিরে	-11.0097
▁প্রদর্শিত	-11.0099
▁জীবনকে	-11.0102
▁আইসিসির	-11.0107
▁খালিদ	-11.0107
▁অবলম্বনে	-11.0109
▁আচার	-11.011
▁বাকী	-11.0113
▁বাসস	-11.0123
▁খায়ের	-11.0123
▁এমনটি	-11.0125
▁ভাবছেন	-11.0127
▁অ্যাপ্লিকেশন	-11.0127
▁story	-11.0128
▁স্ট্যাটাস	-11.0128
লী	-11.0132
▁বিরোধের	-11.0135
▁ব্যাপকভাবে	-11.0139
****	-11.0141
▁অনিচ্ছুক	-11.0143
▁যৌনতা	-11.0145
▁দিলো	-11.0146
▁১টা	-11.0154
▁যৌনদাসী	-11.0154
▁সদরে	-11.0155
▁সংগঠিত	-11.0158
দুদক	-11.0158
▁নিবন্ধ	-11.0159
▁ভ্রমণের	-11.0159
▁অ্যাকাউন্টে	-11.016
▁দারিদ্র্য	-11.0161
চামচ	-11.0162
▁সোবহান	-11.0163
▁উখিয়া	-11.0165
▁খ্রিস্টান	-11.0166
▁ধারনা	-11.0166
▁তাৎক্ষণিকভাবে	-11.0168
▁তথাকথিত	-11.0168
▁ছোঁয়া	-11.0171
▁হাইকমিশনার	-11.0173
▁প্রেসক্লাবে	-11.0175
পাড়ায়	-11.0183
▁আউয়াল	-11.0184
▁সিরিয়াল	-11.0184
▁পুকুরে	-11.0185
▁বগুড়ায়	-11.0192
▁পালনে	-11.0198
▁ভগবান	-11.0198
▁চীনে	-11.0201
▁তুষার	-11.0201
▁লস	-11.021
এখন	-11.0212
▁প্রো	-11.0212
▁দৌড়	-11.0215
▁প্রতিনিধিরা	-11.0218
▁সেটির	-11.0222
▁স্মরণীয়	-11.0223
▁শ্রীপুর	-11.0223
▁বোঝাতে	-11.0224
▁অপরাধী	-11.0225
▁অনুপ্রাণিত	-11.0228
▁পিরোজপুর	-11.0229
▁যীশু	-11.023
▁বার্সা	-11.0234
▁অক্টোবরে	-11.0238
▁সোভিয়েত	-11.0239
▁ব্যবসায়ীকে	-11.024
▁ভোগান্তি	-11.0243
▁প্যারিসের	-11.0246
▁ঘটায়	-11.0246
▁পারলেও	-11.0247
▁অপরিহার্য	-11.0249
▁(11	-11.0249
দিনে	-11.0249
▁প্রদেশে	-11.025
▁মন্দিরের	-11.0256
▁উত্তেজিত	-11.0257
▁হাজিরা	-11.0258
▁টেলিফোন	-11.0259
▁শতক	-11.026
▁জনকন্ঠ	-11.0265
▁তুহিন	-11.0267
▁শিক্ষায়	-11.0267
▁সুবাদে	-11.0271
▁পিঠা	-11.0274
▁রিপাবলিকান	-11.0276
তবে	-11.0277
▁বিশ্বনাথ	-11.0277
▁ক্রিয়েটিভ	-11.0279
▁বর্ণ	-11.0279
▁ফাতেমা	-11.0284
▁ছুঁয়ে	-11.0285
▁ঘটা	-11.0285
কক্সবাজার	-11.0288
▁সনি	-11.029
▁পোশাকে	-11.0295
মন	-11.0298
▁গাড়ী	-11.0299
▁স্বস্তি	-11.03
▁সৌরভ	-11.0302
▁ধারাবাহিকতা	-11.0305
▁বাসভবনে	-11.0309
▁মিনারে	-11.0309
▁শাহিন	-11.0316
দু	-11.0321
▁ভ	-11.0323
▁সিরাজগঞ্জের	-11.0324
▁প্রান্তিক	-11.0325
নিরীক্ষিত	-11.0326
▁রোবট	-11.0329
▁নিক	-11.0331
▁ভাসানী	-11.0332
▁সার্ভিসেস	-11.0333
কর্মচারীদের	-11.0335
▁প্রতিষ্ঠায়	-11.0335
▁দেখিয়েছেন	-11.0336
▁অবিশ্বাস্য	-11.0338
▁নেইমারের	-11.0339
▁১৯৯৯	-11.0345
▁তথ্যসূত্র	-11.0346
▁বেগ	-11.0347
▁সোপর্দ	-11.0347
▁রেট	-11.0348
▁উদ্যানে	-11.0351
▁ফেটে	-11.0352
▁তরল	-11.0353
য়ার	-11.0354
▁সার্কিট	-11.0356
▁কাব্য	-11.036
▁O	-11.0364
▁মফস্বল	-11.0364
▁প্রতিনিধিঃ	-11.0365
▁যন্ত্রণা	-11.037
▁আগত	-11.0375
▁আদা	-11.0377
▁লো	-11.0378
▁হি	-11.0378
▁বিজ্ঞানের	-11.0383
▁অত্যাধুনিক	-11.0384
▁পেজে	-11.0384
▁ঘটলে	-11.0385
▁১৩টি	-11.0385
▁কুচি	-11.0385
▁শা	-11.0386
▁কপালে	-11.0387
▁মাঝি	-11.0387
▁পেশাগত	-11.0387
▁প্রেসিডেন্টের	-11.0389
▁বর্ধিত	-11.039
▁পুলিশি	-11.0391
▁স্বচ্ছ	-11.0393
▁পর্ষদের	-11.0393
▁উপকারী	-11.0394
▁সংগীতশিল্পী	-11.0396
▁উপকূলীয়	-11.0398
▁কবলে	-11.0399
▁পর্যায়ক্রমে	-11.04
▁আদেশে	-11.04
▁র্যা	-11.04
▁কমান্ড	-11.0405
▁টিকেট	-11.0407
▁হলাম	-11.0407
▁রাউন্ডে	-11.0407
▁ঠাণ্ডা	-11.0408
▁প্যাকেজ	-11.0416
▁আশঙ্কাজনক	-11.0418
▁খানেক	-11.0418
▁ওষুধের	-11.0419
▁ক্লান্ত	-11.0421
▁মুসলিমদের	-11.0421
▁হাঁটু	-11.0422
▁ধন	-11.0423
▁মইনুল	-11.0424
▁এক্সচেঞ্জে	-11.0427
▁জনসভায়	-11.0429
▁পাইকারি	-11.043
▁কারাগারের	-11.043
▁প্রতিহত	-11.0431
হার	-11.0433
▁টমেটো	-11.0435
▁সিল	-11.0435
▁জোয়ার	-11.0435
বাছাই	-11.0437
▁প্রচলন	-11.0437
▁গাইতে	-11.0439
▁আনেন	-11.0439
▁his	-11.0439
▁চুয়াডাঙ্গা	-11.0441
▁শেরেবাংলা	-11.0444
▁বসেন	-11.0447
▁গোলটি	-11.0449
▁হ্যাটট্রিক	-11.045
▁রসায়ন	-11.045
▁লাইসেন্সের	-11.0458
▁মাদ্রিদের	-11.0458
▁সেতুটি	-11.0459
নির্যাতন	-11.0464
▁মিলবে	-11.0466
পাড়ার	-11.0467
বোধ	-11.0467
▁বৈধতা	-11.0468
▁পটিয়া	-11.0469
▁অযোগ্য	-11.047
বিজ্ঞান	-11.0474
▁উত্থাপন	-11.0474
গাঁও	-11.0475
▁তুলনামূলক	-11.0477
▁শ্বশুর	-11.048
▁পরম	-11.0481
▁লড়াইয়ের	-11.0485
▁আলিয়া	-11.0487
▁সম্মতি	-11.0489
▁মহসিন	-11.049
▁নিরাপদে	-11.0491
▁মহলে	-11.0493
▁ঘুমের	-11.0494
আল	-11.0495
▁পিকআপ	-11.0496
▁মাত্রায়	-11.0499
▁৮৩	-11.0503
▁জাহাঙ্গীরনগর	-11.0506
▁খাতা	-11.0506
▁নামায	-11.0513
▁ফরজ	-11.0514
▁আমান	-11.0515
▁উচিৎ	-11.0516
▁মৌলভীবাজারের	-11.0516
▁অনুসারী	-11.052
▁বিউটি	-11.0521
▁গার্মেন্টস	-11.0522
▁১৩০	-11.0522
▁সম্প্রীতি	-11.0525
▁আশুলিয়া	-11.0525
▁জয়নুল	-11.053
▁সাজ্জাদ	-11.0532
▁অনেকেরই	-11.0533
▁অর্ধ	-11.0536
▁সম্পাদকঃ	-11.0537
▁একাডেমী	-11.0537
▁সমাজকল্যাণ	-11.0539
▁কারেন্ট	-11.0539
▁সহায়তার	-11.0539
▁দেখেই	-11.0541
▁হালনাগাদ	-11.0542
ডিবি	-11.0543
▁জিজ্ঞাসাবাদের	-11.0545
▁বড়ি	-11.0545
মু	-11.0546
▁ব্যতিক্রমী	-11.0547
41)	-11.055
▁এন্ড্রয়েড	-11.0553
MD	-11.0553
শৃঙ্খলা	-11.0553
▁পরস্পরের	-11.0554
▁নিত্য	-11.0555
▁প্রতিকার	-11.0561
▁6	-11.0562
▁রেশিও	-11.0564
▁সালেহ	-11.0567
▁লোকজনকে	-11.0567
▁ব্যাটসম্যানদের	-11.057
▁সকলে	-11.057
কুমার	-11.0573
▁আধ্যাত্মিক	-11.0573
তুমি	-11.0576
▁গল্পে	-11.0578
▁নিই	-11.0579
▁she	-11.0584
▁কর্মসূচী	-11.0589
▁ইহা	-11.0589
▁সাত্তার	-11.0595
▁সালমানের	-11.0595
▁গোল্ডেন	-11.0597
▁সৈয়দপুর	-11.0598
▁শাপলা	-11.0598
▁ইরাক	-11.0599
▁সুখী	-11.0604
▁সনাতন	-11.0611
▁এলাকাবাসীর	-11.0611
▁ঐক্যের	-11.0615
দর্শন	-11.0615
▁ঘোষনা	-11.0616
▁জিন	-11.0618
▁স্বামীকে	-11.0619
▁ফোনটি	-11.0623
▁সংহতি	-11.0628
▁সেবন	-11.0629
▁উইকেটের	-11.0632
▁সাপোর্ট	-11.0632
▁খরচে	-11.0635
▁পারলেন	-11.0636
▁অর্থনীতিতে	-11.0637
এপ্রিলমেজুনজুলাই	-11.0638
▁নোয়াখালীর	-11.064
▁ফাঁড়ির	-11.0646
▁সরু	-11.0648
▁বিদ্যুৎকেন্দ্র	-11.0649
▁এবারে	-11.065
▁সুরে	-11.0654
▁নাকচ	-11.0655
৩৭	-11.0657
▁ইজারা	-11.0658
▁খনি	-11.0659
বাসী	-11.066
▁মোহাম্মদপুর	-11.066
▁অ্যাসিড	-11.0661
▁অধিগ্রহণ	-11.0663
▁সংলাপের	-11.0663
▁জনগোষ্ঠী	-11.0664
▁প্রত্যেকের	-11.0665
▁মাধ্যমেই	-11.0665
▁শান্তিতে	-11.0665
▁বর্ণাঢ্য	-11.0666
▁আলমকে	-11.0668
▁ইনফরমেশন	-11.0668
▁থিম	-11.0668
▁বাস্তবায়িত	-11.067
▁এড	-11.0673
লেই	-11.0673
াবাদ	-11.0674
▁অপূর্ব	-11.0675
▁অভ্যস্ত	-11.0676
▁মানসিকতা	-11.0678
▁১৬টি	-11.0679
▁কাসেম	-11.0681
কোনো	-11.0683
▁চত্বর	-11.0684
▁লিখেছিলেন	-11.0687
▁টাউন	-11.0688
▁ইংরেজিতে	-11.0688
▁দুর্বলতা	-11.0688
সংশ্লিষ্ট	-11.069
▁শ্যামল	-11.0691
▁৭টি	-11.0692
▁প্রাপ্তি	-11.0697
▁দায়িত্বপ্রাপ্ত	-11.0698
▁উদ্যান	-11.0698
▁আলেম	-11.0703
▁ডাকাতির	-11.0703
▁হিসেব	-11.0703
▁ইয়াসমিন	-11.0704
?”	-11.0708
▁কেয়ার	-11.0709
সমৃদ্ধ	-11.0709
▁বিলীন	-11.0709
পর্ব	-11.0714
▁আইনজীবীর	-11.0714
▁আহমদের	-11.0715
▁শুকিয়ে	-11.0715
াম	-11.0719
▁জনপ্রশাসন	-11.0722
▁রমনা	-11.0723
উপজেলা	-11.0724
▁ঘাস	-11.0728
ড়	-11.0729
▁অবতরণ	-11.073
▁অভিভাবকদের	-11.073
আত	-11.0731
▁জিম্মি	-11.0736
▁দিত	-11.0738
▁অংশগ্রহণে	-11.0741
▁0	-11.0742
▁প্রদক্ষিণ	-11.0742
▁ইউরোপে	-11.0745
▁সুস্পষ্ট	-11.0747
বান	-11.0749
বেলা	-11.0754
প্রত্যক্ষদর্শীরা	-11.0757
▁নোংরা	-11.0757
▁হজ্জ	-11.0762
▁বটেই	-11.0763
▁কমপ্লেক্সের	-11.077
▁ভেতরের	-11.0772
▁সমাজতান্ত্রিক	-11.0772
▁মেগাওয়াট	-11.0774
▁ক্ষত	-11.0775
▁লাগলে	-11.0775
▁যেতেই	-11.0776
▁কথাটি	-11.0777
▁আফগান	-11.0778
আল্লাহু	-11.0778
▁স্মারকলিপি	-11.0781
▁প্রার্থীকে	-11.0783
▁সোচ্চার	-11.0787
......	-11.079
প্রাপ্ত	-11.0791
▁ফাইন্যান্স	-11.0794
▁আসায়	-11.0796
▁বিল্ডিং	-11.0797
২০১৮ইং	-11.0797
▁বাদশাহ	-11.0797
▁চর্বি	-11.0802
▁দণ্ড	-11.0802
▁গালি	-11.0803
▁খাট	-11.0804
▁আত্মা	-11.0807
▁ভাগাভাগি	-11.0808
▁ওয়াটার	-11.0809
▁ব্যর্থতার	-11.081
▁স্বীকারোক্তি	-11.0811
▁জান্নাত	-11.0811
▁জান	-11.0812
▁সংকটে	-11.0813
▁এখনকার	-11.0815
▁কিশোরের	-11.0816
▁নির্বিশেষে	-11.0822
▁ঝুলিয়ে	-11.0824
▁শিক্ষককে	-11.0825
বিদেশের	-11.0825
▁আক্ষেপ	-11.0827
▁প্যান্ট	-11.0828
▁দৃষ্টিভঙ্গি	-11.0828
▁আলোকচিত্রী	-11.0832
▁প্রয়োজনীয়তা	-11.0835
▁সময়েই	-11.084
▁বিজয়ের	-11.084
▁পঞ্চাশ	-11.084
▁মাহমুদুর	-11.0843
▁পদোন্নতি	-11.0844
▁অর্থায়নে	-11.0844
▁৯টি	-11.0845
▁আমরাও	-11.0847
▁কার্যকলাপ	-11.0857
▁তিস্তা	-11.086
▁রক্তাক্ত	-11.0864
▁কৌতুক	-11.0864
▁৯৬	-11.0865
▁আইডিয়া	-11.0867
▁রেঞ্জ	-11.0868
▁রিয়ালের	-11.0869
▁মধ্যবর্তী	-11.0871
বাগ	-11.0872
▁বাজেটের	-11.0873
▁বিসিবির	-11.0873
▁প্রত্যন্ত	-11.0875
▁এরমধ্যে	-11.0881
▁মোবাইলঃ	-11.0883
▁ঈশ্বরদী	-11.0883
▁আফজাল	-11.0884
▁দেখবে	-11.0885
▁ফাস্ট	-11.0885
▁বনে	-11.0889
p	-11.0891
▁মালিকানাধীন	-11.0891
▁অগ্রণী	-11.0893
▁অরফানেজ	-11.0894
▁ধ্বনি	-11.0896
▁পারতাম	-11.0897
▁মার্চের	-11.0898
▁অধ্যয়ন	-11.0901
▁আওতাভুক্ত	-11.0902
ভা	-11.0902
▁জমিদার	-11.0903
▁ধূমপান	-11.0904
▁দাঁড়ানোর	-11.0904
▁প্রোফাইল	-11.0905
▁সাতকানিয়া	-11.0908
▁সৈনিক	-11.091
▁ফিফটি	-11.0912
▁মঞ্চের	-11.0912
▁Category	-11.0913
▁ভুক্তভোগী	-11.0914
▁শিমুল	-11.0914
▁ক্লিনিক	-11.0915
▁তুমুল	-11.0915
▁সামগ্রিক	-11.0917
▁মির্জাপুর	-11.0917
▁কমন্স	-11.0918
▁ক্যাডার	-11.092
▁অং	-11.0924
▁কমিশনে	-11.0926
▁গানটির	-11.0926
▁নার্স	-11.0927
▁আনন্দিত	-11.0931
▁কবরস্থানে	-11.0933
▁ইনু	-11.0934
টেক	-11.0935
▁দিল্লিতে	-11.0939
▁জোগায়	-11.094
▁বেলজিয়াম	-11.0942
▁কুরবানী	-11.0943
▁রাকিব	-11.0943
ুন	-11.0947
▁ঢুকিয়ে	-11.0949
▁প্রক্টর	-11.095
সেপ্টেম্বর	-11.0951
▁গৃহবধূ	-11.0958
▁১৯৯৭	-11.0959
▁পৌঁছেছে	-11.0964
▁জানালা	-11.0964
21)	-11.0967
▁রুটি	-11.097
▁একযোগে	-11.0971
▁জনসভা	-11.0974
▁বিমানে	-11.0974
▁মল	-11.0975
▁ব্ল্যাক	-11.0977
▁হাটে	-11.0977
▁মার্চে	-11.098
▁জ্বলে	-11.0981
▁মারিয়া	-11.0988
▁সেপ্টেম্বরে	-11.0992
▁মিন্টু	-11.0997
ul	-11.0997
▁সুশাসন	-11.0998
▁সুনামগঞ্জের	-11.0999
▁জিরো	-11.1001
▁বাড়িঘর	-11.1002
▁প্রচ্ছদ	-11.1004
▁বক্তৃতায়	-11.1008
▁ছুটিতে	-11.1009
▁ঝরে	-11.101
ভাই	-11.101
▁উপজাতি	-11.1012
▁লেখাগুলো	-11.1013
▁অঙ্গনে	-11.1017
▁নিঃসন্দেহে	-11.1023
▁জিজ্ঞাসাবাদে	-11.1023
▁অনুপ্রবেশ	-11.1023
▁কমবে	-11.1025
▁খুচরা	-11.1027
আপনি	-11.1029
▁খবরের	-11.1031
▁প্রদর্শনীর	-11.1032
▁টেলিভিশনে	-11.1037
▁ধোনি	-11.1042
▁ইয়া	-11.1045
▁বন্ধন	-11.1046
▁অন্যান্যের	-11.105
▁গে	-11.105
▁ইউটিউবে	-11.1051
▁ঘাম	-11.1051
▁কুদ্দুস	-11.1052
@.	-11.1052
news	-11.1055
▁বাউল	-11.1061
▁দলই	-11.1062
▁চৌধুরীকে	-11.1062
▁অনুগ্রহ	-11.1065
ষ্ঠাবার্ষিকী	-11.1065
34)	-11.1066
মাস	-11.1069
▁শুকনো	-11.1072
▁সিঁড়ি	-11.1075
▁ইয়াবাসহ	-11.1081
▁মুহাম্মাদ	-11.1083
▁অক্সিজেন	-11.1083
▁জনসংযোগ	-11.1084
▁শে	-11.1087
▁সাদিক	-11.1088
▁ইসরাইল	-11.1088
▁সম্পাদনা	-11.1089
▁ডিসেম্বরের	-11.1094
▁লাইনের	-11.1099
▁লাগার	-11.1099
▁অবশিষ্ট	-11.11
▁ব্র্যান্ডের	-11.1102
০১	-11.1104
▁দুঃখজনক	-11.1105
▁স্বজন	-11.1105
▁মেসেজ	-11.1107
▁একধরনের	-11.1107
ডিএসইতে	-11.1107
▁রোহিত	-11.1108
▁চাওয়ার	-11.1111
বাণিজ্য	-11.1111
▁চালুর	-11.1113
▁সার্ভার	-11.1117
▁মারামারি	-11.1118
▁সংবেদনশীল	-11.1119
▁আত্মহত্যার	-11.1119
▁স্মার্টফোনের	-11.112
▁শাসনের	-11.1122
▁তুলা	-11.1125
▁সোসাইটির	-11.1127
▁ফিলিস্তিনি	-11.1129
▁বাড়ায়	-11.1129
▁গর্বিত	-11.1132
▁মাদ্রাসায়	-11.1132
▁ফুটপাত	-11.1133
▁জানতেন	-11.1134
▁অপরিবর্তিত	-11.1136
▁নোমান	-11.1137
▁গঠনে	-11.1138
15)	-11.1138
▁অন্যথায়	-11.1139
▁থাকব	-11.1139
▁চাকুরী	-11.1141
▁সমাবেশের	-11.1143
▁শি	-11.1148
▁অন্ধ	-11.1148
▁মিলেছে	-11.1152
▁শিল্পীরা	-11.1152
▁দেখেছে	-11.1154
▁খুঁটি	-11.1154
▁আয়তন	-11.1156
▁ফুলে	-11.1157
▁অনুসন্ধানে	-11.1159
▁নেতৃত্বের	-11.116
▁প্রবাসীদের	-11.1163
▁১৯৪৭	-11.1164
▁পিই	-11.1164
▁কিবরিয়া	-11.1167
▁নয়জন	-11.1168
▁অন্যরকম	-11.1168
▁পাড়	-11.117
▁হাসির	-11.1172
▁খ্যাতি	-11.1174
▁বিরতি	-11.1174
▁গিয়াস	-11.1175
১০০০	-11.1176
▁কর্মশালায়	-11.1177
▁ব্যাক	-11.1177
▁টাইপ	-11.1182
▁কুষ্টিয়ার	-11.1184
▁যতক্ষণ	-11.1187
ফুল	-11.1189
▁মাজার	-11.1191
▁রাজাকার	-11.1193
▁এসএম	-11.1194
▁বেন	-11.1194
▁বারী	-11.1195
▁বিছানা	-11.1196
▁কর্মকাণ্ডে	-11.1199
▁৮৮৭	-11.1203
▁আশ্চর্য	-11.1205
▁মন্ত্রিসভা	-11.1206
▁উৎপাদনে	-11.1206
NOC	-11.1207
▁নাসরিন	-11.1209
ছিলাম	-11.1209
▁নিচু	-11.121
▁৯১	-11.1211
▁অন্যত্র	-11.1214
▁ঘড়ি	-11.1215
▁শোধ	-11.1218
▁মৃধা	-11.122
▁সজল	-11.122
▁জিনিসপত্র	-11.1222
▁দত্তের	-11.1225
▁মক্কা	-11.1228
▁১৩৭	-11.1229
▁নহে	-11.123
▁নবাবগঞ্জ	-11.1231
▁পাতলা	-11.1232
▁All	-11.1236
ur	-11.1238
▁শুনলে	-11.1239
▁সততা	-11.124
▁হট	-11.1241
▁প্রতিবেদনের	-11.1243
কামোত্তেজকতত্ত্ব	-11.1243
▁বনানী	-11.1245
▁আবদ্ধ	-11.1247
▁পাচারের	-11.1248
▁জানাচ্ছে	-11.125
▁মিসর	-11.125
▁বর্বর	-11.1251
▁2008	-11.1251
৩৬	-11.1253
▁মহিলাকে	-11.1257
▁থাকল	-11.1258
▁দাঁড়াবে	-11.1261
▁গাড়িটি	-11.1262
▁অজ্ঞাতনামা	-11.1265
▁বর্গ	-11.1265
▁পেশার	-11.1266
▁লাইফস্টাইল	-11.1269
▁বাহিনীকে	-11.1271
▁রূপান্তর	-11.1271
▁জিতলে	-11.1271
▁জাহিদুল	-11.1272
জার	-11.1274
▁কর্তব্য	-11.1276
▁সমীক্ষা	-11.1276
▁মাতা	-11.1277
▁মিলাদ	-11.1277
▁ডিন	-11.1279
▁অপেশাদার	-11.1282
▁পান্থপথ	-11.1289
▁পঞ্চগড়	-11.1292
▁রউফ	-11.1294
▁অর্জনে	-11.13
▁ভিসি	-11.1306
▁নিউইয়র্কে	-11.1306
▁তামাক	-11.1307
যশোর	-11.1308
▁2009	-11.131
▁ইংল্যান্ডে	-11.1313
▁সাজ	-11.1316
কিন্তু	-11.1317
▁বেতার	-11.1319
▁লেখাটি	-11.1324
চি	-11.1325
▁কবুল	-11.1325
▁রামপাল	-11.1326
▁উদ্যোক্তাদের	-11.1328
▁সভ্যতার	-11.1328
▁যেদিন	-11.1329
▁তরফে	-11.1332
▁স্টিল	-11.1333
▁যানবাহনের	-11.1333
▁ছাড়পত্র	-11.1336
▁মহাকাশ	-11.1337
▁কনসার্ট	-11.1337
▁V	-11.1338
▁সিবি	-11.1341
▁আরাকান	-11.1343
▁হইয়া	-11.1346
খানা	-11.1349
▁দ্বাদশ	-11.135
▁আমীন	-11.135
▁আনোয়ারুল	-11.1354
▁মিছিলে	-11.1355
▁বর্ষণ	-11.1356
▁পিএসসি	-11.1356
▁চিন	-11.1359
▁অনেকদিন	-11.1361
▁গৌরব	-11.1363
▁ছবিগুলো	-11.1365
▁পকেট	-11.1367
▁নাথ	-11.1372
▁সংশ্লিষ্টতা	-11.1373
ওয়া	-11.1374
▁বছরই	-11.1375
▁ইসলামীর	-11.1377
▁অবধি	-11.1378
▁হ্যা	-11.1379
▁গোলাপ	-11.138
▁ডেটিং	-11.1383
▁দক্ষিণে	-11.1384
বগুড়া	-11.1385
▁রাজপথে	-11.1385
▁বিপণন	-11.1386
▁ছুঁড়ে	-11.1386
▁রাশি	-11.1388
▁নেশা	-11.139
▁গি	-11.139
▁সম্পৃক্ততা	-11.1391
▁সচল	-11.1397
▁গ্রামীণফোন	-11.1399
▁বালি	-11.14
▁ফেলবে	-11.1404
রাম	-11.1405
▁নাজিমউদ্দিন	-11.1406
▁শীর্ষস্থানীয়	-11.1406
এতটাই	-11.1407
▁সিদ্দিকুর	-11.1409
▁কোট	-11.1409
▁ভুটান	-11.1409
▁লেগ	-11.1409
▁হরিণ	-11.1412
▁উঠেছেন	-11.1413
▁ইরাকের	-11.1414
▁সাখাওয়াত	-11.1416
কোন	-11.1419
▁কর্মস্থলে	-11.142
▁খসরু	-11.1421
▁মার্টিন	-11.1421
প্টেম্বরঅক্টোবরন	-11.1422
▁শান্তিনগর	-11.1425
▁করণ	-11.1426
▁ডু	-11.1428
▁বকুল	-11.143
▁একাউন্ট	-11.1432
নোর	-11.1433
▁খেলোয়াড়ের	-11.1439
উল্লাহ	-11.1441
▁অভিনব	-11.1443
▁বীমা	-11.1444
▁বলেননি	-11.1444
▁রেলপথ	-11.1444
▁মোকাবিলায়	-11.1447
▁প্রত্যাশী	-11.1448
বিদেশি	-11.145
▁প্রয়াস	-11.145
▁প্রচারে	-11.1452
▁তপন	-11.1453
▁ধর	-11.1454
▁পর্দার	-11.1454
▁স্টুডিও	-11.1454
▁শাওন	-11.1455
▁সমর্থনে	-11.1457
▁বিশেষজ্ঞদের	-11.146
▁খোলার	-11.1461
আপ	-11.1462
▁হাসতে	-11.1463
▁অভিমত	-11.1463
▁আইএসের	-11.1466
▁যাঁর	-11.1468
দিনের	-11.1468
▁জয়া	-11.1476
কান্দি	-11.1476
▁do	-11.1477
ভেম্বরডিসেম্বর	-11.1479
গাড়ি	-11.1479
নাথ	-11.1484
▁আখ্যায়িত	-11.1485
▁উদ্যোগের	-11.1485
▁কোর	-11.1485
▁অধিকাংশই	-11.1486
▁তৎপর	-11.1487
▁আহরণ	-11.1489
▁গুগলের	-11.149
▁ফ্যান	-11.1492
▁থাই	-11.1495
▁কার্যনির্বাহী	-11.1497
▁চেষ্টায়	-11.1498
▁লাগলো	-11.1499
▁অতিথিদের	-11.1499
▁স্বদেশ	-11.1502
▁শরিফুল	-11.1505
▁চাহিদার	-11.151
▁ঠিকঠাক	-11.151
গতকাল	-11.1515
▁অনিল	-11.1519
▁লাশের	-11.1519
▁গোপাল	-11.152
▁হুঁশিয়ারি	-11.1522
▁বিলম্ব	-11.1524
▁পার্লামেন্টে	-11.1525
▁ওয়াল	-11.1529
▁উদ্দেশ্যেই	-11.1531
▁ইনজুরি	-11.1531
▁জ্ঞানের	-11.1533
▁রেফারি	-11.1533
th	-11.1534
▁স্পট	-11.1534
▁বিমানবন্দরের	-11.1534
▁ভোটগ্রহণ	-11.1537
▁কুক	-11.1538
▁জঙ্গল	-11.1539
▁18	-11.1539
গণের	-11.154
▁চ্যাম্পিয়ন্স	-11.1541
▁বসবাসরত	-11.1543
▁টেকনাফে	-11.1552
▁দেবনাথ	-11.1554
▁বিকৃত	-11.1557
▁প্রস্তাবে	-11.1557
▁পরিসরে	-11.1558
▁আকৃষ্ট	-11.1561
৩৯	-11.1562
▁৭৯	-11.1563
▁জানাবেন	-11.1564
▁খণ্ড	-11.1565
▁চারজনকে	-11.1567
▁জুম্মা	-11.1567
▁জাকারিয়া	-11.1567
▁শরিয়া	-11.1569
▁যাকাত	-11.1572
▁দাওয়াত	-11.1572
▁বিষয়টিকে	-11.1573
▁ভাঙ্গা	-11.1573
▁হাফ	-11.1574
▁দূত	-11.1575
▁অংশীদার	-11.1579
▁আস্তানা	-11.1581
▁সুরেন্দ্র	-11.1583
আগষ্ট	-11.1588
শেয়ার	-11.1588
বান্ধব	-11.1591
▁সর্বদা	-11.1591
▁মোটেই	-11.1592
▁উইকিপিডিয়া	-11.1595
▁মশা	-11.1595
▁বুদ্ধিজীবী	-11.1596
▁ট্যাক্স	-11.1598
▁নৌবাহিনীর	-11.16
▁প্রতিনিধিদল	-11.16
▁সাঁতার	-11.1603
▁স্টল	-11.1606
▁ধর্ষক	-11.1613
▁টিপু	-11.1613
▁বেপরোয়া	-11.1618
▁ব্যবসায়ীর	-11.1622
▁ছাগল	-11.1622
▁পাঠিয়েছেন	-11.1629
▁মশিউর	-11.163
▁এক্সক্লুসিভ	-11.163
▁এমডি	-11.1632
▁রবার্ট	-11.1632
▁চিকিৎসকরা	-11.1633
▁বিপন্ন	-11.1633
▁লেখালেখি	-11.1635
11)	-11.1635
▁স্টোর	-11.1641
▁তাপ	-11.1642
▁ওটা	-11.1642
▁জিডিপি	-11.1644
▁বাই	-11.1644
৭১	-11.1646
▁মেলেনি	-11.1649
▁ওজনের	-11.1652
▁জ্বালিয়ে	-11.1653
▁হিসেবেও	-11.1655
▁শান্তিকামী	-11.1656
কর্মচারী	-11.1657
▁রাঙামাটিতে	-11.1657
যদি	-11.1657
▁কতিপয়	-11.1658
▁সন্ত্রাসের	-11.1658
▁আলতাফ	-11.1659
▁খুদে	-11.1661
▁২০২১	-11.1661
▁ফরেক্স	-11.1665
▁an	-11.1666
৬৫	-11.1667
কু	-11.1669
▁বিবি	-11.1671
▁চাঁদের	-11.1672
▁কতজন	-11.1673
▁গ্যালাক্সি	-11.1673
▁ভালোবাসি	-11.1674
▁সিএসই	-11.1675
▁পার্থ	-11.1675
▁শেখার	-11.1678
পরিচালক	-11.1678
▁সালাত	-11.1678
দিয়া	-11.1679
ক্রমেই	-11.1679
▁গাওয়া	-11.1681
ভাতা	-11.1681
▁মান্না	-11.1683
নারী	-11.1683
▁রাজউক	-11.1684
ষ্ট	-11.1684
▁লাখের	-11.1686
▁কাণ্ড	-11.1686
▁ক্রেতারা	-11.1688
▁ফটক	-11.1689
▁ডেস্কঃ	-11.1693
▁দীন	-11.1696
▁কোহলির	-11.1698
▁গুলশানের	-11.17
▁বেসরকারী	-11.17
▁ফ্রন্ট	-11.1701
▁হাফিজুর	-11.1703
▁ঘোর	-11.1705
▁জেলখানায়	-11.1705
▁আনুষ্ঠানিকতা	-11.1705
▁প্রতিবন্ধকতা	-11.1705
▁ঘটাতে	-11.1706
▁ফর্ম	-11.1707
▁প্রত্যয়	-11.1713
▁গুটিয়ে	-11.1714
▁কম্পিউটারের	-11.1716
ছাত্রীদের	-11.1719
▁সুশীল	-11.1719
▁In	-11.1719
▁রেললাইন	-11.1721
▁বিপ্লবের	-11.1724
com	-11.1725
▁ঘুরিয়ে	-11.1726
▁লাইক	-11.1727
▁ইউরোপিয়ান	-11.1728
▁অলআউট	-11.1728
▁ট্রাইব্যুনালের	-11.1733
▁৯৭	-11.1734
▁খনিজ	-11.1736
লু	-11.1737
সময়	-11.1738
বেসরকারি	-11.1739
▁মিলস	-11.174
▁স্বাস্থ্যের	-11.174
▁ফিল্ড	-11.1741
▁বাসস্ট্যান্ড	-11.1741
কম	-11.1742
▁৯৮	-11.1743
▁ময়নাতদন্ত	-11.1745
সড়ক	-11.1746
▁কবিতায়	-11.1747
তিনি	-11.1749
▁বানান	-11.1751
▁ইন্টার	-11.1751
▁কিংস	-11.1752
▁ব্লু	-11.1752
ফেব্রুয়ারী	-11.1753
85)	-11.1753
▁ফর্মে	-11.1753
পর	-11.1754
▁আর্থ	-11.1754
▁বংশোদ্ভূত	-11.1754
▁আতিক	-11.1757
▁প্রশান্ত	-11.176
▁প্রাক	-11.1765
▁Read	-11.1766
সচিব	-11.1767
▁রক্তচাপ	-11.1769
▁কোপা	-11.177
▁ঝুলন্ত	-11.1771
▁উদ্যাপন	-11.1772
▁ক্যারিয়ারে	-11.1773
▁আইনমন্ত্রী	-11.1774
▁ডাক্তারের	-11.1774
▁অবসরপ্রাপ্ত	-11.1774
▁যেই	-11.1774
▁ট্যাংক	-11.1775
▁চিত্রনাট্য	-11.1775
▁পত্রিকাটি	-11.1783
▁জায়গার	-11.1784
▁প্রত্যাশীদের	-11.1784
▁গৃহ	-11.1786
▁ফিট	-11.1786
▁৮৭	-11.1787
▁গেইল	-11.1789
▁সোনালি	-11.179
▁হাইস্কুল	-11.179
▁কাস্টমস	-11.179
▁সেনগুপ্ত	-11.1792
▁ডিভিশন	-11.1794
▁ফলের	-11.1796
▁রান্নার	-11.1797
▁ডিআইজি	-11.1797
▁সংগঠনটি	-11.1798
১০০	-11.18
▁স্থায়ীভাবে	-11.18
▁ইমেজ	-11.1802
▁নারায়ণ	-11.1805
▁যতটুকু	-11.1809
▁ক্যাম্পেইন	-11.1813
শি	-11.1813
▁অভ্যন্তরে	-11.1814
▁কাজগুলো	-11.1814
শত	-11.1815
▁কুল	-11.1815
▁ভাঙার	-11.1816
▁people	-11.1817
ভার	-11.1819
▁পরিচর্যা	-11.1821
▁সাবধান	-11.1821
▁লোহার	-11.1821
▁থামিয়ে	-11.1823
▁আবশ্যক	-11.1824
▁উপকূলে	-11.1826
▁ইবনু	-11.1834
▁অনুমোদনের	-11.1835
▁ডন	-11.1835
▁হয়৷	-11.1837
▁নারায়ণগঞ্জে	-11.1839
▁হস্তমৈথুন	-11.1841
USD	-11.1841
▁যুক্তরাজ্যে	-11.1844
▁অবকাশ	-11.1845
▁মরিয়ম	-11.1846
▁নগরে	-11.1848
▁জানাচ্ছেন	-11.1849
▁হুসেইন	-11.1855
▁মিনি	-11.1861
▁Window	-11.1862
মায়ের	-11.187
সাহিত্য	-11.1872
▁ভেজাল	-11.1873
তাম	-11.1875
▁আলিম	-11.1875
▁বেসিক	-11.1876
সম্মান	-11.1878
▁দামের	-11.1879
▁ঘটেছিল	-11.1884
▁কায়েম	-11.1885
▁অ্যাপস	-11.1886
▁প্রচারণার	-11.1886
afari	-11.1886
▁উৎসর্গ	-11.1887
▁ফারজানা	-11.189
▁মারে	-11.1894
▁খোরশেদ	-11.1894
সাব্বির	-11.1895
▁রোজার	-11.1896
▁তখনও	-11.1899
▁চড়া	-11.1899
▁কর্মীকে	-11.19
▁প্রাক্কালে	-11.19
▁স্বপ্নে	-11.1901
▁ফয়েজ	-11.1901
▁গবেষকেরা	-11.1903
▁হারিয়েছেন	-11.1903
▁থাইল্যান্ড	-11.1904
▁নবাব	-11.1905
▁আদর	-11.1907
হি	-11.1908
▁মুশকিল	-11.1912
▁চিন্তিত	-11.1914
▁পশ্চিমে	-11.1915
▁আর্মি	-11.1916
▁কর্তৃত্ব	-11.1916
▁সংসারে	-11.1918
▁ফেডারেল	-11.1928
▁কাইয়ুম	-11.1929
▁চাকা	-11.1929
▁প্রধানত	-11.193
▁বণিক	-11.1932
▁ফসলের	-11.1932
▁কারওয়ান	-11.1934
▁নয়ন	-11.1935
▁পলিসি	-11.1935
▁সহকর্মী	-11.1936
▁৩৫০	-11.1936
▁আভাস	-11.1938
▁আলোড়ন	-11.1938
▁‍	-11.1941
▁আর্জেন্টাইন	-11.1944
▁আইনটি	-11.1945
▁ছবিটা	-11.1945
▁চিকিৎসায়	-11.1946
▁অপমৃত্যু	-11.1948
▁উন্নতির	-11.195
▁বাতি	-11.1952
▁হাতিয়ার	-11.1953
▁বিদ্রোহ	-11.1954
▁শ্রমিকরা	-11.1956
▁ইংরেজ	-11.1956
▁কিতাব	-11.1958
▁বাড়লে	-11.1958
ржрз	-11.1959
▁নির্মম	-11.1959
▁কোম্পানী	-11.196
▁হাতিয়ে	-11.1961
নির্বাচন	-11.1961
▁রকেট	-11.1963
▁সর্বস্তরের	-11.1966
▁শহিদ	-11.1969
▁অস্ট্রিয়া	-11.1975
▁বাঁশখালী	-11.1977
▁উন্নয়নশীল	-11.1979
▁দাউদ	-11.198
▁লিফলেট	-11.1981
▁একাদশে	-11.1982
▁কটি	-11.1984
▁দ্বিতীয়ার্ধে	-11.1986
▁সময়সীমা	-11.1986
5	-11.1986
▁দেয়ালে	-11.1986
▁বাল্যবিবাহ	-11.1988
▁মুহূর্তের	-11.1993
সকল	-11.1994
▁ফিতর	-11.1995
০৬	-11.1998
▁অ্যাম্বুলেন্স	-11.2003
▁একাংশ	-11.2005
▁অধিকতর	-11.2006
▁নগরী	-11.2007
▁নওগাঁর	-11.2008
▁প্রণয়নের	-11.2011
▁পৌঁছানোর	-11.2012
16)	-11.2013
▁নম্বরের	-11.2013
▁কমলগঞ্জ	-11.2014
▁ফতোয়া	-11.2018
.(	-11.202
▁নুসরাত	-11.2024
▁পড়েনি	-11.2027
▁ওয়াহিদ	-11.2027
▁চিন্তাভাবনা	-11.2027
▁বিধবা	-11.2028
▁করোনা	-11.2031
▁হাজি	-11.2034
িল	-11.2036
▁মোসাদ্দেক	-11.2036
▁স্থানীয়দের	-11.2038
▁বাবর	-11.204
▁আবহাওয়ার	-11.204
▁অপহৃত	-11.204
▁রাইফেল	-11.2041
▁অংশগ্রহণকারী	-11.2045
▁গরীব	-11.2046
২১শে	-11.2049
▁Su	-11.2049
▁স্বাভাবিকভাবেই	-11.2052
▁হামলাকারী	-11.2052
▁ইসরায়েলের	-11.2055
▁হেরেছে	-11.2055
▁আসছিলেন	-11.2055
▁বিট	-11.2056
▁বডি	-11.2057
▁শিলিং	-11.2063
▁সুরা	-11.2066
▁কিং	-11.2067
▁সুযোগে	-11.2068
▁লেবার	-11.2069
▁জেএসসি	-11.207
জান	-11.2071
▁বাঁশের	-11.2072
▁টেন	-11.2072
▁টানে	-11.2073
▁দাঙ্গা	-11.2076
▁অত	-11.2077
▁ছোটবেলা	-11.2077
▁পৌরসভায়	-11.208
▁পুতুল	-11.2081
▁৯৩	-11.2086
▁থাকতেই	-11.2092
মত	-11.2092
▁অভিজিৎ	-11.2094
▁নাটোরের	-11.2094
▁আইটেম	-11.2094
▁জয়লাভ	-11.2095
▁মোটরসাইকেলে	-11.2102
▁নিলামে	-11.2103
▁রো	-11.2104
▁অভিন্ন	-11.2106
▁মাঝ	-11.2106
▁12	-11.2108
▁সাহিত্যে	-11.2108
বাস	-11.2109
▁অস্ট্রেলীয়	-11.211
▁বারাক	-11.2113
▁পারার	-11.2114
▁রক্ষণাবেক্ষণ	-11.2115
▁মদন	-11.2117
▁ফিল্টার	-11.2118
কুল	-11.2119
▁পার্কের	-11.212
িতে	-11.2121
▁পোর্ট	-11.2122
▁দুইটা	-11.2122
▁বাঙালী	-11.2124
০৩	-11.2126
50)	-11.2129
▁বক্তা	-11.2129
▁পুরোটাই	-11.2133
খালেদা	-11.2134
▁শরণার্থীদের	-11.2135
পশ্চিম	-11.2137
▁জং	-11.214
▁অগ্নি	-11.2146
▁তৌহিদ	-11.2146
▁বিশদ	-11.2146
▁তাআলা	-11.2146
▁মাহফুজ	-11.2148
▁পরতে	-11.2149
▁গণসংযোগ	-11.215
▁প্রথমত	-11.2151
▁জিয়াউল	-11.2154
▁দম্পতির	-11.2156
▁তাগিদ	-11.2157
▁গাইড	-11.2158
বুক	-11.2159
▁সং	-11.2165
▁কৌঁসুলি	-11.217
▁দ্বিপক্ষীয়	-11.217
▁বন্দুকযুদ্ধে	-11.2172
▁সেশন	-11.2175
▁কাঁটা	-11.2175
▁আসছি	-11.2175
মাতা	-11.2175
▁free	-11.2177
▁টিউন	-11.2177
▁কমলা	-11.2178
▁মন্ডল	-11.2179
▁আনিসুর	-11.218
▁সম্পূর্ণভাবে	-11.2184
▁প্রোটিন	-11.2185
▁খুলনায়	-11.2185
রকম	-11.2186
▁লোককে	-11.2186
৮৮০১৭	-11.2187
▁গুলির	-11.2189
▁স্বচ্ছতা	-11.2192
▁অশুভ	-11.2192
▁তারকার	-11.2194
▁ঝুঁকির	-11.2197
প্রধানমন্ত্রী	-11.2202
▁স্বাস্থ্যসেবা	-11.2205
▁মানুষই	-11.2209
▁ঈদগাহ	-11.2209
▁বাঁচিয়ে	-11.221
▁ব্রিগেডিয়ার	-11.221
▁কোষ	-11.2212
▁L	-11.2213
▁সরবরাহের	-11.2215
▁জগন্নাথপুর	-11.2216
▁অভিজাত	-11.2216
পুরে	-11.222
▁মিলাদুন্নবী	-11.2221
▁আদান	-11.2222
নামাতে	-11.2226
▁পাথরের	-11.2227
▁ইং	-11.2227
l	-11.2228
▁ব্লগের	-11.2229
▁স্থানের	-11.2229
▁পরবর্তীকালে	-11.2229
ইংরেজি	-11.2231
▁কাশ্মীর	-11.2231
▁সাংসদের	-11.2231
▁গায়ের	-11.2234
▁দামি	-11.2234
▁বিলে	-11.2235
▁আশঙ্কায়	-11.2237
▁পাড়ায়	-11.2246
▁W	-11.2246
▁অভি	-11.2248
▁লিড	-11.2249
▁মোল্লার	-11.2253
▁বাহাদুর	-11.2256
▁মাদকাসক্ত	-11.2258
َا	-11.2261
এসব	-11.2264
▁ফরিদপুরের	-11.2267
▁উভয়ের	-11.2267
▁করুণ	-11.2268
▁গ্রেড	-11.227
▁রাজত্ব	-11.2272
▁শুষ্ক	-11.2274
▁প্রচারণায়	-11.2274
▁মেটাতে	-11.2275
▁মনজুর	-11.2275
▁অপপ্রচার	-11.2277
▁স্থপতি	-11.2278
▁দায়ভার	-11.228
▁কনভেনশন	-11.228
▁জনি	-11.228
▁ইফতেখার	-11.2281
▁বিচারপতির	-11.2285
▁ইতি	-11.2285
▁লক্ষে	-11.2287
▁সন্তোষ	-11.2287
▁ঢল	-11.2288
বাবার	-11.229
▁বাংলাদেশিদের	-11.2292
▁পীর	-11.2296
▁মালা	-11.2296
▁সাব্যস্ত	-11.2297
সামাজিক	-11.2297
▁বলেছিলাম	-11.2298
▁কনফারেন্স	-11.2299
▁ভয়ঙ্কর	-11.2299
▁বিধিমালা	-11.23
▁ডিপোজিট	-11.2305
▁গেয়ে	-11.2305
▁জুনে	-11.2305
▁প্রচেষ্টায়	-11.2305
▁আইপিএল	-11.2306
▁১৯৯২	-11.2306
▁বিএসইসি	-11.2309
▁লাগানোর	-11.2309
▁জা	-11.231
▁ছাত্রীদের	-11.2311
▁ধরেছে	-11.2311
▁বাড়িটি	-11.2312
▁প্রসব	-11.2315
বারের	-11.2315
▁পোষ্ট	-11.2316
▁সংশ্লিষ্টরা	-11.2318
▁পড়ছেন	-11.2319
▁বহনকারী	-11.232
প্রেস	-11.2323
▁বিষাক্ত	-11.2323
▁ডিপ্লোমা	-11.2324
▁প্ল্যান	-11.2326
▁ব্যক্তিগতভাবে	-11.2328
▁কতো	-11.2328
০৭	-11.2333
▁পৌঁছালে	-11.2336
▁জাতিগত	-11.2336
▁আরেফিন	-11.2338
▁জোগাড়	-11.2339
▁টেবিলের	-11.2339
▁ফাঁদে	-11.2339
▁মিঠুন	-11.2339
▁উত্তরের	-11.2342
▁শাক	-11.2342
▁রেটিং	-11.2343
▁সস্তা	-11.2343
▁প্রবাস	-11.2344
▁ভাসমান	-11.2344
একজন	-11.2346
▁ছাপিয়ে	-11.2346
▁না৷	-11.2346
▁জীবন্ত	-11.2347
6	-11.2348
▁দাঁড়ানো	-11.235
▁সিনেমাটি	-11.2351
পার	-11.2355
▁আলীকে	-11.2358
▁পাল্লা	-11.2364
▁কাঁদতে	-11.2365
▁ডোমেইন	-11.2369
▁বিরূপ	-11.237
▁পেটানো	-11.2371
দলের	-11.2373
▁দেহে	-11.2374
▁নির্যাতিত	-11.2374
▁দেখিনি	-11.2375
▁ফেব্রুয়ারিতে	-11.2376
▁রাখাইনে	-11.2378
▁জিডি	-11.2378
▁শীঘ্রই	-11.238
▁কায়সার	-11.238
▁ধরুন	-11.2381
▁ত্রিশাল	-11.2382
ওয়ালা	-11.2383
▁মণ	-11.2385
▁রক্ষণশীল	-11.2388
▁বাগানের	-11.2388
▁বোঝায়	-11.2388
▁দিনেই	-11.2388
▁কষ্টের	-11.2388
▁জনপ্রতিনিধি	-11.2389
▁রাষ্ট্রপক্ষের	-11.2392
▁কদিন	-11.2393
▁It	-11.2397
▁২০২০	-11.24
▁শুক্র	-11.2401
▁চাপিয়ে	-11.2404
▁গরমে	-11.2406
▁মানবজমিন	-11.2407
লার	-11.2407
দান	-11.2407
▁বন্ড	-11.2409
▁বাঁহাতি	-11.2409
media	-11.2412
▁ছাত্ররা	-11.2416
▁তাতেই	-11.2416
▁লাগতে	-11.2418
▁জিন্দাবাজার	-11.2421
▁ভাবছে	-11.2426
▁জাতিকে	-11.2427
▁পাঁচলাইশ	-11.2427
▁কার্বন	-11.2428
▁নিয়ন্ত্রণের	-11.243
▁2006	-11.2431
▁মসলা	-11.2432
▁আচরণের	-11.2433
▁ইসরায়েল	-11.2434
▁চাইবে	-11.2434
▁কর্মক্ষেত্রে	-11.2437
▁অগ্নিসংযোগ	-11.2441
▁৮৯	-11.2443
য়ান	-11.2446
▁মোশারফ	-11.2448
▁সাথেই	-11.2455
৩১০০	-11.2455
▁যাননি	-11.2456
▁সম্পাদন	-11.2456
▁প্যাকেট	-11.2456
▁সাগরের	-11.2457
▁খবরটি	-11.2458
▁দেশজুড়ে	-11.246
▁মানবতার	-11.2465
গুলোয়	-11.2466
▁বিলের	-11.2468
▁ব্যাংকটি	-11.2468
▁সেটে	-11.2469
▁কমিশনারের	-11.2469
▁রানার	-11.247
▁দুঃখের	-11.2471
▁বাগানে	-11.2471
স্টার	-11.2477
▁শাহ্	-11.2479
▁কোম্পানিগুলোর	-11.2479
জু	-11.2481
▁মরিয়া	-11.2484
▁no	-11.2489
▁ডেমোক্রেটিক	-11.249
▁বাড়ীতে	-11.2493
▁কার্য	-11.2494
32)	-11.2494
▁তরঙ্গ	-11.2499
▁সিঙ্গাপুরের	-11.25
▁উপকূল	-11.2502
▁অপরাধীদের	-11.2505
▁উঠিয়ে	-11.2506
▁হ্যারি	-11.2507
▁জনপদ	-11.2515
▁নিবিড়	-11.2518
▁কাঙ্ক্ষিত	-11.252
▁বাঙ্গালী	-11.252
বজলুল	-11.2523
▁ম্যাক	-11.2524
▁বেশকিছু	-11.2525
▁পেকুয়া	-11.2525
▁have	-11.2526
▁মানুষেরা	-11.2529
হাজার	-11.2529
▁অবস্থানরত	-11.2531
বাসীর	-11.2531
▁অক্ষর	-11.2533
ারি	-11.2534
▁শুনানিতে	-11.2537
▁পরিদর্শনে	-11.2538
দে	-11.2538
▁প্রেরিত	-11.2541
▁পুরস্কারের	-11.2542
▁কাতারে	-11.2543
▁ইসরাইলের	-11.2543
▁আরম্ভ	-11.2544
▁নামটি	-11.2545
▁হাবীব	-11.255
▁ব্যবহারিক	-11.255
▁সিন্ডিকেট	-11.2552
▁আইপি	-11.2553
হাট	-11.2553
▁ঘটিয়েছে	-11.2553
▁সেক্সি	-11.2554
▁ব্যস্ততা	-11.2557
▁লোকেদের	-11.2558
একটা	-11.2558
▁লেনে	-11.256
93)	-11.256
▁ছোড়ে	-11.2567
▁পাবার	-11.2567
▁দেয়ায়	-11.2572
▁কিসের	-11.2572
▁%1	-11.2575
বিএনপির	-11.2576
ওয়ান	-11.2578
▁মানিয়ে	-11.2581
▁মিথ্যে	-11.2584
▁সংস্থাটির	-11.2585
▁হলিউড	-11.2587
▁অমান্য	-11.259
▁কোমর	-11.2593
▁কিমি	-11.2594
▁হাউসের	-11.2595
▁ছাড়ে	-11.2597
▁হো	-11.2599
▁Mo	-11.26
▁অসম	-11.2601
▁রিপোর্টে	-11.2602
অন্যান্য	-11.2605
▁লোভ	-11.2606
▁উপকৃত	-11.2607
৫০০	-11.2607
▁মর্মে	-11.2608
কমার্স	-11.261
▁ইউপিডিএফ	-11.261
▁সঙ্কট	-11.2616
▁স্টেডিয়ামের	-11.2617
▁কনটেইনার	-11.262
কালের	-11.2622
▁পড়লেন	-11.2625
▁পৌঁছায়	-11.2629
▁উচ্চশিক্ষা	-11.2629
▁পড়েছিলেন	-11.2637
▁বিভ্রান্ত	-11.2639
▁ষড়যন্ত্রের	-11.2639
▁লোহাগাড়া	-11.264
▁চালিত	-11.2641
▁চাইলেন	-11.2641
▁সমসাময়িক	-11.2644
▁কলোনি	-11.2646
স্বাস্থ্যমন্ত্রী	-11.2646
▁ক্ষণ	-11.2647
▁সংরক্ষণের	-11.2648
▁ফটিকছড়ি	-11.2649
▁নির্ভরযোগ্য	-11.265
▁সংজ্ঞা	-11.2654
▁সংশোধনের	-11.2655
▁দেখিয়েছে	-11.2656
▁গমন	-11.2657
▁খেলছে	-11.2658
▁রোমান	-11.2659
▁অমানবিক	-11.266
▁টেকনিক্যাল	-11.266
▁একইসঙ্গে	-11.2661
able	-11.2663
▁খ্রিস্টাব্দে	-11.2665
▁জেএমবির	-11.2665
▁দিতেই	-11.2668
▁ক্লিনিকে	-11.267
▁অস্থির	-11.2671
▁সার্জারি	-11.2671
▁চুমু	-11.2674
▁জানতাম	-11.2674
▁আওতাধীন	-11.2674
সেই	-11.2674
▁দ্বীপের	-11.2674
▁আজিজুর	-11.2678
▁অনলাইনের	-11.268
▁চল	-11.2681
!!	-11.2682
▁হাসানুল	-11.2686
▁অধিনায়কের	-11.2687
নাম	-11.2687
▁পড়ালেখা	-11.269
▁কমেন্ট	-11.269
▁এপ্রিলে	-11.2691
▁প্রকাশ্য	-11.2694
▁কুকুরের	-11.2695
▁হয়না	-11.2696
▁কখনই	-11.2697
▁ল্যাব	-11.2697
▁ডিএমপি	-11.2699
▁কার্তিক	-11.2699
▁মানসিকভাবে	-11.27
▁ইমামের	-11.2703
▁জাপানে	-11.2704
মতো	-11.2705
▁১৯৭০	-11.2706
টন	-11.2707
দাস	-11.271
▁এজেন্সি	-11.2711
▁সত্যিকারের	-11.2711
ফি	-11.2712
▁হেলিকপ্টার	-11.2712
▁জামিল	-11.2713
▁পরিশোধের	-11.2714
▁সিইও	-11.2714
ডো	-11.2717
▁মহাব্যবস্থাপক	-11.2717
▁আলাদাভাবে	-11.272
▁কয়টি	-11.2722
▁প্রতারণার	-11.2723
▁আবর্জনা	-11.2728
▁মাশরাফির	-11.273
▁তরফ	-11.2731
▁সকালের	-11.2734
▁সাভারে	-11.2734
▁তারিখের	-11.2737
▁পোড়া	-11.2739
▁বণ্টন	-11.274
▁ডিজাইনার	-11.2742
▁ফুটিয়ে	-11.2742
▁অফিসারের	-11.2743
আপনার	-11.2746
▁দুর্গাপুর	-11.2746
▁লিখেছে	-11.2747
▁রাবার	-11.2748
▁দ্বিধা	-11.2749
▁বয়ান	-11.275
▁বাটন	-11.2752
অপরাধে	-11.2753
▁বিস্মিত	-11.2754
▁সুখের	-11.2755
▁সমুদ্রের	-11.2755
▁সংশ্লিষ্টদের	-11.2756
▁স্ক্রিন	-11.2758
▁আহম্মদ	-11.2759
সাঃ	-11.2761
▁সমাজসেবা	-11.2761
▁ক্ষমতায়ন	-11.2768
▁পরিচালকের	-11.2768
▁১৪০	-11.2768
▁অর্থনীতিবিদ	-11.2768
▁ইটভাটা	-11.277
▁এএসআই	-11.2771
▁শিক্ষকরা	-11.2773
▁নির্মল	-11.2775
▁ক্যাশ	-11.2775
▁১৯৮০	-11.2776
▁ফেইসবুক	-11.2776
▁স্ট্যান্ডার্ড	-11.2777
টিও	-11.2777
▁ভিশন	-11.2777
▁বেলজিয়ামের	-11.2778
▁কোর্সের	-11.2781
The	-11.2781
▁জল্পনা	-11.2784
▁১৫৯	-11.2784
▁পিচ	-11.2784
▁প্রাপ্তির	-11.2785
▁সেঞ্চুরির	-11.2788
▁শোষণ	-11.2791
▁থাইল্যান্ডের	-11.2792
▁কমেনি	-11.2792
▁জঙ্গিবাদের	-11.2792
▁মাইক্রো	-11.2793
▁আতঙ্কে	-11.2794
▁ঈশ্বরগঞ্জ	-11.2795
▁খোকামনি	-11.2795
▁গেমসে	-11.2795
▁শ্রদ্ধাশীল	-11.2796
▁sex	-11.2797
▁এবি	-11.2797
▁অধিকারের	-11.2797
▁পিটার	-11.2799
▁নাইজেরিয়ার	-11.2803
▁প্রকৃতপক্ষে	-11.2804
▁আদিবাসীদের	-11.2805
▁বান্ধবী	-11.2807
▁পূর্বের	-11.2807
▁ধোন	-11.2809
▁গ্রহণে	-11.281
▁পূর্তি	-11.2811
▁জহুরুল	-11.2812
▁দাবীতে	-11.2813
▁গাবতলী	-11.2813
▁সরব	-11.2814
▁ব্যাটালিয়ন	-11.2818
▁ছুরিকাঘাত	-11.282
▁আজিম	-11.2821
▁শের	-11.2822
0	-11.2823
▁শিরোনামের	-11.2824
▁প্রাণীর	-11.2825
▁যাবো	-11.2825
▁বাঁশি	-11.2826
57)	-11.2826
▁ব্যাটালিয়নের	-11.2826
▁শহরটি	-11.2829
▁লাগা	-11.2829
জাত	-11.2833
#	-11.2834
কাটা	-11.2836
▁চিলি	-11.2836
▁অশোক	-11.2839
▁প্রান্তিকে	-11.2841
▁খোরাক	-11.2841
জন্ম	-11.2845
▁প্রণব	-11.2846
▁কালী	-11.2847
▁ঘাড়ে	-11.2847
▁অবগত	-11.285
▁কৃষকেরা	-11.2857
▁ভার্চুয়াল	-11.2861
▁শচীন	-11.2863
▁রেখেছিল	-11.2863
▁সিলিন্ডার	-11.2863
▁হেফাজত	-11.2867
▁সংখ্যার	-11.2869
▁বোঝাই	-11.287
▁গৃহবধূর	-11.2872
▁হিন্দুদের	-11.2873
▁মধ্যবিত্ত	-11.2876
▁প্রজাতন্ত্র	-11.2877
শেখ	-11.2879
▁will	-11.2879
▁১৯৯৪	-11.2881
▁হৃদয়ে	-11.2883
▁ধর্মান্তরিত	-11.2885
▁সত্যিকার	-11.2886
▁ভাগের	-11.2887
▁ইদ্রিস	-11.2888
নিয়মিত	-11.2893
▁আখতারুজ্জামান	-11.2893
▁যথারীতি	-11.2894
▁মাইলফলক	-11.2895
▁স্টিভ	-11.2897
▁শাজাহান	-11.2897
▁জুম	-11.2898
▁চার্চে	-11.29
▁সাইদুর	-11.29
▁বিস্ময়কর	-11.2901
▁ড্রাইভ	-11.2903
▁১৯৯৫	-11.2903
বলে	-11.2907
সদর	-11.2908
▁মুরগি	-11.2909
▁আঁচ	-11.2911
▁তানিয়া	-11.2912
▁এদেশে	-11.2913
▁নিচ	-11.2913
জামায়াত	-11.2913
িয়ার	-11.2916
▁লারমা	-11.2917
▁প্রকাশনী	-11.2917
▁সামনেই	-11.2921
▁রুটিন	-11.2922
▁মুমিনুল	-11.2922
▁ভাবী	-11.2923
▁মাইক্রোবাস	-11.2924
০৪	-11.2925
▁বসন্ত	-11.2928
▁বৃক্ষ	-11.2931
▁নবাগত	-11.2931
▁বিক্রমপুর	-11.2934
▁গাজীপুরে	-11.2935
▁কমল	-11.2936
▁কৌশলগত	-11.2936
▁সভ্যতা	-11.2937
▁আখ্যা	-11.2937
▁ঝাঁপিয়ে	-11.2939
▁রুখে	-11.2941
▁সোহরাব	-11.2943
▁সাতক্ষীরার	-11.2946
▁ফজলুর	-11.2946
▁জব	-11.2948
▁নেননি	-11.2948
▁ফোর্স	-11.2948
▁৫০টি	-11.2949
▁হাছান	-11.295
▁more	-11.295
▁মেক্সিকো	-11.2951
▁নু	-11.2955
▁সেনাদের	-11.2957
সূরা	-11.2957
▁বিবেক	-11.2957
অনেক	-11.2959
▁অস্থিরতা	-11.2959
▁হিট	-11.296
▁বোকা	-11.296
▁তৈয়ব	-11.2968
▁মুদ্রার	-11.297
▁উদার	-11.2972
▁মস্তিষ্কের	-11.2973
▁করাটা	-11.2974
▁মেহেদি	-11.2974
▁স্বজনেরা	-11.2977
▁ওয়াজ	-11.2978
▁পরিকল্পনায়	-11.2979
▁গেজেট	-11.298
▁আমায়	-11.298
▁পরিচয়ে	-11.2981
▁নানাবিধ	-11.2981
▁গ্রামবাসী	-11.2981
▁স্ট্রিট	-11.2982
▁রান্নাঘর	-11.2983
▁বজ্রপাতে	-11.2984
▁সামলাতে	-11.2984
▁দুঃখিত	-11.2992
▁শহীদদের	-11.2998
নীয়	-11.2999
▁আমলের	-11.2999
▁দক্ষতার	-11.3001
▁আগ্নেয়াস্ত্র	-11.3002
▁সিয়াম	-11.3002
▁দুর্গম	-11.3004
▁লক্ষাধিক	-11.3005
▁কিশোরীর	-11.3007
▁চক্রান্ত	-11.3009
পরবর্তী	-11.301
▁দড়ি	-11.301
▁গুলশানে	-11.3011
টোয়েন্টিতে	-11.3013
▁পড়াশোনার	-11.3014
▁প্রোগ্রামে	-11.3015
▁প্রবাসে	-11.3015
▁কম্বল	-11.3015
▁জালিয়াতির	-11.3018
কিশোরগঞ্জ	-11.3018
▁me	-11.3018
▁বিনোদনের	-11.3018
▁লেবুর	-11.3019
▁পিঠ	-11.302
স্বাস্থ্য	-11.3026
▁উল্লেখিত	-11.3027
▁your	-11.3028
▁দাবা	-11.3028
▁বুলেট	-11.3028
▁এসবের	-11.3032
▁বাইরেও	-11.304
▁আগস্টে	-11.3041
▁গয়না	-11.3042
▁হ্যাকিং	-11.3042
▁হবিগঞ্জের	-11.3046
▁স্থাপত্য	-11.3047
▁লুৎফর	-11.3047
▁কর্মীর	-11.3051
▁চারজনের	-11.3053
▁ইভেন্ট	-11.3056
বিদ্যা	-11.3057
▁হলি	-11.3061
চন্দ্র	-11.3062
কেন্দ্রিক	-11.3066
▁এসিড	-11.3067
▁দিকেই	-11.3067
▁মিউচ্যুয়াল	-11.3067
▁যথাযথভাবে	-11.3068
বর্তমান	-11.3073
▁স্বরূপ	-11.3074
▁এমআই	-11.3075
▁পিপাসা	-11.3075
▁অস্ট্রেলিয়ায়	-11.3078
সমকামীদের	-11.3079
প্র	-11.3079
▁রাব্বি	-11.308
▁অটোরিকশার	-11.3081
প্রকাশ	-11.3082
▁দম	-11.3085
▁খাজা	-11.3085
▁গেলেই	-11.3088
35)	-11.3089
▁বাসভবন	-11.3092
▁গণপ্রজাতন্ত্রী	-11.3093
▁তরিকুল	-11.3093
▁পোহাতে	-11.3096
▁সংখ্যাগরিষ্ঠ	-11.3097
▁বাঘা	-11.3099
▁কিন্ত	-11.31
▁আচ্ছা	-11.3101
▁শিরীন	-11.3102
নিরীক্ষা	-11.3104
▁বিশ্বব্যাংক	-11.3106
করা	-11.3108
▁কসবা	-11.3108
▁ঝুঁকিতে	-11.3113
▁তাসকিন	-11.3115
▁ব্যাপী	-11.3118
▁দেড়টা	-11.3118
▁অবরুদ্ধ	-11.3119
▁বাদাম	-11.3119
▁স্পিন	-11.3121
▁ছওয়াব	-11.3122
▁১৮টি	-11.3123
▁হ্যাক	-11.3124
▁নামবে	-11.3124
▁সিএনএন	-11.3124
▁অনিবার্য	-11.3126
▁can	-11.3127
▁স্বেচ্ছায়	-11.3127
▁চললে	-11.3129
ফরিদপুর	-11.313
▁ধারাবাহিকভাবে	-11.313
▁ইমতিয়াজ	-11.3133
▁ক্রস	-11.3135
▁দুইটার	-11.3137
▁ঘুমাতে	-11.3138
▁ইন্দোনেশিয়া	-11.3142
▁ভূষিত	-11.3143
▁ভিক্ষু	-11.3147
▁ঘা	-11.3148
▁(20	-11.3151
▁এইচডি	-11.3151
▁ঢাবি	-11.3152
অধিনায়ক	-11.3153
▁একত্রে	-11.3155
▁মিয়াকে	-11.3158
▁চক্ষু	-11.3161
▁কর্নার	-11.3161
টাকা	-11.3161
▁ইব্রাহীম	-11.3163
▁উচ্চমাধ্যমিক	-11.3165
▁কাপড়ের	-11.3166
▁তলব	-11.3169
▁অলাভজনক	-11.317
▁পারতো	-11.317
▁অশান্তি	-11.3171
▁তখনকার	-11.3173
▁ট্রেনটি	-11.3177
▁tips	-11.3177
▁এরূপ	-11.3181
▁চন্দন	-11.3186
▁কম্পিউটারে	-11.3187
▁পারিশ্রমিক	-11.3187
▁৩টায়	-11.3188
▁শুদ্ধ	-11.3191
▁এমএ	-11.3192
k	-11.3193
▁প্রেরণা	-11.3193
শীল	-11.3198
▁পোপ	-11.3199
▁অপসারণের	-11.32
▁বিরোধীদলীয়	-11.3201
▁মামুনুর	-11.3202
▁ওয়াই	-11.3202
▁সেলাই	-11.3209
▁মেটাল	-11.321
▁পরি	-11.3211
▁মদিনা	-11.3213
▁বেঞ্চে	-11.3213
▁অশালীন	-11.3214
▁শৈশব	-11.3217
▁একদিনের	-11.3217
▁মাত্রার	-11.3217
▁পরামর্শক	-11.3218
▁উল্লিখিত	-11.3219
▁ন্যায্য	-11.322
▁বিশ্বস্ত	-11.3221
▁সরবরাহকারী	-11.3222
▁র্যাব	-11.3222
৪৪০	-11.3223
▁পণ্ডিত	-11.3223
▁টুকরা	-11.3226
▁শাহেদ	-11.323
▁ফজল	-11.3233
▁সমাপ্তি	-11.3233
▁এরদোগান	-11.3234
▁চ্যাম্পিয়নশিপ	-11.3234
▁আলামত	-11.3235
▁লামা	-11.3236
▁ভোটাররা	-11.3236
▁আরেকটু	-11.3239
▁প্রসেসর	-11.324
▁ফুলবাড়ী	-11.3241
▁টিমের	-11.3242
সংখ্যক	-11.3242
▁প্রশাসনকে	-11.3243
▁রাই	-11.3245
▁অর্জুন	-11.3249
▁অনুধাবন	-11.3251
▁নিয়মে	-11.3252
▁দেশগুলোতে	-11.3252
▁দুজনেই	-11.3252
যোগে	-11.3254
▁এনেছেন	-11.3254
▁রংপুরে	-11.3254
▁ঠাঁই	-11.3254
▁রেলের	-11.3255
সরাসরি	-11.326
সহকারী	-11.3261
▁এজাহার	-11.3263
▁সম্ভাবনাময়	-11.3264
▁চিনতে	-11.3265
▁ত্রি	-11.3268
▁প্রতিপাদ্য	-11.327
▁প্রগতিশীল	-11.3272
▁গুল	-11.3272
▁পারল	-11.3275
▁পাম্প	-11.3277
▁সমবেত	-11.3279
▁বহিরাগত	-11.328
▁পুরুষকে	-11.3284
সম্পন্ন	-11.3285
বিশ্ব	-11.3285
নুবার	-11.3286
▁ভাস্কর্য	-11.3286
▁দুর্বৃত্ত	-11.3287
▁রূপান্তরিত	-11.3289
▁সমতল	-11.3289
▁চলচ্চিত্রটি	-11.329
24	-11.3292
▁সুভাষ	-11.3294
▁খোঁজখবর	-11.3294
24)	-11.3294
▁তরুণীর	-11.3297
▁শিরিন	-11.3298
▁কাটে	-11.3299
আলা	-11.3301
▁সংগ্রামের	-11.3303
▁মতই	-11.3305
▁দাসের	-11.3307
▁জুটিতে	-11.3311
বালিকাকে	-11.3311
▁দমনে	-11.3315
▁প্রতিষ্ঠানগুলোর	-11.3319
▁এলাম	-11.3319
▁কোষাধ্যক্ষ	-11.332
▁সামাল	-11.3327
▁আতিকুর	-11.3327
▁খাওয়ানো	-11.3329
▁১৯৭৩	-11.3331
▁মেডিসিন	-11.3331
▁বিভ্রান্তি	-11.3332
▁মুরগির	-11.3336
জয়	-11.3337
▁লাঞ্ছিত	-11.3338
▁পারাপার	-11.3338
▁দ্যা	-11.3339
▁বখাটে	-11.334
▁বন্য	-11.3342
▁বিহারে	-11.3343
▁প্রাপ্য	-11.3343
▁সন্দ্বীপ	-11.3343
▁সতীর্থ	-11.3343
▁বিশ্বব্যাংকের	-11.3344
▁ফেললেন	-11.3347
▁ধুনট	-11.3348
▁সেনারা	-11.3349
▁সুইমিং	-11.335
▁কিশোরগঞ্জের	-11.3351
▁টয়লেট	-11.3354
▁হাউসে	-11.3355
▁হারান	-11.3355
▁জিও	-11.3355
▁কদর	-11.3355
▁চাননি	-11.3356
▁বোধহয়	-11.3357
বাদী	-11.3358
▁বৃদ্ধা	-11.3359
▁সর্বকালের	-11.3361
▁ব্যবস্থাপনার	-11.3364
▁মহিলারা	-11.3367
▁কমলাপুর	-11.337
করে	-11.3371
▁অপ	-11.3374
▁১৯৮৬	-11.3377
▁দুধের	-11.3378
এবং	-11.338
▁উপকমিশনার	-11.3384
▁যোগাযোগমাধ্যমে	-11.3384
▁গবেষকরা	-11.3385
▁আহাদ	-11.3388
হাত	-11.3388
▁৯৪	-11.3389
▁ফাইনালের	-11.3395
▁রাখছেন	-11.3395
▁শ্রীনগর	-11.3396
▁জনশক্তি	-11.3397
▁ডিএনএ	-11.3398
▁মদ্যপান	-11.34
▁অজয়	-11.3401
শেরপুর	-11.3402
▁Act	-11.3402
▁June	-11.3402
▁ততটা	-11.3406
▁নাজমা	-11.3406
▁প্রতিশোধ	-11.3407
▁চাষে	-11.3409
▁দাম্পত্য	-11.341
▁অনুষ্ঠেয়	-11.341
▁ভেজা	-11.3411
▁তাণ্ডব	-11.3413
▁সোর্স	-11.3415
▁বাঁধের	-11.3418
শুধু	-11.3418
▁সিডনি	-11.3418
▁মোকাবেলায়	-11.3423
▁ডিভিডেন্ড	-11.3425
▁সুপারস্টার	-11.3425
▁ভোক্তা	-11.3431
▁নির্মাণাধীন	-11.3433
▁মুখোশ	-11.3435
▁রেহাই	-11.3442
▁মুর্তজা	-11.3447
▁সফলভাবে	-11.3448
▁শামসুর	-11.3451
▁শুনেছেন	-11.3452
কারীরা	-11.3452
▁যুদ্ধাপরাধ	-11.3453
▁তারকাদের	-11.3456
▁পু	-11.3456
▁ব্যাচ	-11.3458
▁বিদ্যালয়টি	-11.3459
▁সৌজন্য	-11.346
▁মেয়েটিকে	-11.3461
▁লোকে	-11.3461
▁Ha	-11.3464
▁দেখলেন	-11.3464
▁বিড়াল	-11.3465
▁মার্শাল	-11.3465
কিছু	-11.3469
▁চালাচ্ছেন	-11.3469
▁অসুস্থতার	-11.3471
▁প্রসাদ	-11.3472
▁রোদ	-11.3473
▁শোয়েব	-11.3474
▁ডিফেন্স	-11.3475
▁ট্রাকে	-11.3476
▁এটিএম	-11.3477
▁লায়লা	-11.3482
▁ছক	-11.3483
▁অঙ্ক	-11.3483
▁ইন্দোনেশিয়ার	-11.3483
▁নির্মান	-11.3491
▁ইমিগ্রেশন	-11.3492
শিবিরের	-11.3496
▁ধর্মে	-11.3504
▁সর্ববৃহৎ	-11.3505
▁পৌছে	-11.3506
▁টম	-11.3506
▁৯টায়	-11.3506
▁শিক্ষাবিদ	-11.3507
▁বেগুন	-11.3508
▁অচিরেই	-11.3511
▁মিরপুরে	-11.3513
▁হংকং	-11.3513
▁আফ্রিদি	-11.3514
▁ভক্তরা	-11.3515
▁অনুষদ	-11.3516
▁গুহা	-11.3518
▁শিক্ষাবোর্ড	-11.3519
▁ওয়ার্কার্স	-11.3524
▁সীমান্তবর্তী	-11.3527
▁বর্ধমান	-11.3529
▁দৃষ্টান্তমূলক	-11.3532
▁বনের	-11.3535
▁গফরগাঁও	-11.3536
▁বিতরণের	-11.3538
▁ওয়াচ	-11.3539
খবর	-11.354
▁আবেদনপত্র	-11.3542
আওয়ামী	-11.3542
▁ঘি	-11.3544
▁বার্সার	-11.3544
▁প্রচন্ড	-11.3545
▁দুশ্চিন্তা	-11.3545
▁তর্ক	-11.3546
▁চারুকলা	-11.3547
▁গাইবান্ধার	-11.355
▁পাউডার	-11.355
▁পাহারা	-11.3554
▁তিনটায়	-11.3554
▁ক্ষুধা	-11.3559
▁গাজা	-11.356
▁মুরাদপুর	-11.3561
▁অলিম্পিকে	-11.3561
▁পটুয়াখালীর	-11.3562
▁ছোড়া	-11.3562
▁সাহায্যের	-11.3563
▁বুড়ো	-11.3566
▁ছাত্রকে	-11.3572
সুনামগঞ্জ	-11.3574
▁রমজানের	-11.3574
▁মাংসের	-11.3579
পদ	-11.3583
▁ট্রাস্টের	-11.3583
▁15	-11.3584
▁গতির	-11.3585
▁যাত্রীর	-11.3586
▁ড্রোন	-11.3587
▁আয়না	-11.3587
▁হরতালের	-11.3587
▁আরাম	-11.3588
▁সাইফুর	-11.3588
▁ঠোঁট	-11.3589
▁দুনিয়ায়	-11.3589
▁ফাটল	-11.3591
▁গ্রহ	-11.3591
▁দিলেই	-11.3592
▁বলো	-11.3592
▁2007	-11.3592
▁কাঁচামাল	-11.3594
▁রেলওয়ের	-11.3595
▁সংবিধানে	-11.3596
▁চায়না	-11.3598
▁ইয়র্ক	-11.3598
▁কালিয়াকৈর	-11.3603
▁শতকে	-11.3603
▁ছুরিকাঘাতে	-11.3605
▁অ্যাট্রিবিউশন	-11.3606
▁১৭টি	-11.3608
▁যথার্থ	-11.3609
▁কওমি	-11.3609
▁ভাজা	-11.3615
▁সেটাকে	-11.3618
▁উইলিয়াম	-11.3618
▁ব্যবহারকারীরা	-11.3618
▁তাপস	-11.3619
▁চেয়ারপার্সন	-11.362
▁অর্থায়ন	-11.3625
▁বর্ষসেরা	-11.3625
▁গনি	-11.3625
v	-11.3633
▁October	-11.3633
▁চাঁদপুরের	-11.3634
▁মিসরে	-11.3634
▁বৈ	-11.3636
▁9	-11.3637
৪৭	-11.3639
▁মোনাজাত	-11.3641
▁হাতছাড়া	-11.3644
▁ব্যাচের	-11.3647
▁ছিঁড়ে	-11.3648
▁কাপ্তাই	-11.3649
▁শিক্ষিকা	-11.365
▁ছড়ায়	-11.3651
▁সেবায়	-11.3651
▁ক্ষয়ক্ষতি	-11.3653
▁কোরানে	-11.3653
▁আর্টিকেল	-11.3654
▁শতাব্দী	-11.3656
ফ্লাট	-11.3656
▁ট্যাগ	-11.3657
▁শ্বাস	-11.3657
▁দশা	-11.3659
▁জ্যাক	-11.3661
▁এবারই	-11.3662
▁ষাট	-11.3666
▁নেটওয়ার্কের	-11.3666
▁কিউ	-11.3667
শিল্প	-11.3668
on	-11.3668
▁সিট	-11.3668
▁নাট্যব্যক্তিত্ব	-11.3669
▁বিভাজন	-11.3669
▁আশাবাদ	-11.3669
▁রাইড	-11.3671
▁সহকারি	-11.3671
▁হও	-11.3672
▁খেতাব	-11.3673
▁অগ্নিকাণ্ডের	-11.3674
▁ঘোড়া	-11.3676
▁ডাউন	-11.368
▁সহিহ	-11.368
রামেন্দু	-11.3683
▁ফ্র্যাঙ্ক	-11.3685
মনে	-11.3686
▁গুরুত্বের	-11.3686
আলাইক	-11.3686
▁কমবেশি	-11.3687
▁ভূমিকম্পের	-11.3689
সেন	-11.369
▁১৯৫০	-11.3693
▁কর্মকান্ড	-11.3694
▁কার্ডের	-11.3696
▁সার্বক্ষণিক	-11.3698
▁শিক্ষকতা	-11.3699
▁কানাইঘাট	-11.3702
▁অনিশ্চিত	-11.3704
▁ক্রমবর্ধমান	-11.3704
ন্ত	-11.3704
▁আঙ্গুল	-11.3705
▁দ্বীপে	-11.3705
ানো	-11.3706
▁ক্রিকেটাররা	-11.3706
▁জানুক	-11.3707
▁মোহাম্মাদ	-11.3708
▁সন্ধানে	-11.3709
▁বশির	-11.371
▁শীতল	-11.371
▁পারো	-11.3712
▁কমিশনকে	-11.3712
▁ছাত্রের	-11.3715
▁প্রাণিসম্পদ	-11.3716
▁হিসাববিজ্ঞান	-11.3716
▁গণমাধ্যমকে	-11.3719
▁লু	-11.3721
▁মোরশেদ	-11.3722
▁বলবো	-11.3722
▁লুক	-11.3724
▁সমবেদনা	-11.3725
▁বহুমুখী	-11.3726
▁রবিন	-11.3727
▁DU	-11.3728
▁প্রতিক্রিয়ায়	-11.373
▁কেনো	-11.373
▁ক্ষিপ্ত	-11.3734
▁ব্যাটে	-11.3734
▁love	-11.3737
▁কাদির	-11.3737
▁পরার	-11.3739
▁ফেল	-11.374
▁বাহিরে	-11.374
▁ছাত্রছাত্রীদের	-11.3741
▁বাবলু	-11.3743
▁নবায়ন	-11.3743
▁অগ্রিম	-11.3746
▁মারার	-11.3749
▁নখ	-11.3749
▁সংবাদমাধ্যমের	-11.3752
▁রিচার্ড	-11.3752
▁ছাতক	-11.3755
▁দাউদকান্দি	-11.3758
▁সাদ্দাম	-11.3759
▁রোগীকে	-11.3759
▁মানচিত্র	-11.3762
▁বহুদিন	-11.3764
▁খলিল	-11.3764
▁মধ্যরাতে	-11.3764
▁উঁকি	-11.3765
▁ফাংশন	-11.377
▁চলাফেরা	-11.3772
▁উপসর্গ	-11.3772
▁ইয়ার	-11.3774
▁কেমিক্যাল	-11.3775
▁কেটেছে	-11.3778
▁জ্ঞাপন	-11.378
▁স্পিনিং	-11.3785
▁মেকআপ	-11.3786
আইএস	-11.3788
▁পেস	-11.3788
▁খেলবেন	-11.3788
▁বমি	-11.3795
▁ফাঁক	-11.3796
▁শীল	-11.3796
▁নীরবতা	-11.3797
▁বিদ্রোহীদের	-11.3799
▁উপমহাদেশের	-11.38
▁পৃষ্ঠপোষক	-11.3801
সম্মত	-11.3802
▁সীতাকুণ্ড	-11.3802
▁এনা	-11.3805
ধর্ম	-11.3811
▁বাঘের	-11.3812
▁খেলোয়াড়েরা	-11.3814
▁জড়িতদের	-11.3816
▁সাইন	-11.3816
▁ব্রিফিংয়ে	-11.3816
▁ইরানে	-11.3819
▁জাবেদ	-11.3823
▁পরিস্কার	-11.3824
▁অরুণ	-11.3825
▁মোড়ক	-11.3825
▁চকলেট	-11.3825
সাবেক	-11.3825
▁হাওড়া	-11.3826
▁অনুপস্থিতিতে	-11.3827
▁একরাম	-11.3827
▁নিচ্ছি	-11.3829
▁দিরহাম	-11.3832
▁মর্মান্তিক	-11.3833
▁আটকের	-11.3833
মের	-11.3835
42)	-11.3837
cc	-11.3838
৪৯	-11.3839
▁ক্যাটাগরিতে	-11.3839
▁উপাচার্যের	-11.384
▁গোপালগঞ্জের	-11.3841
▁মজুত	-11.3842
▁বিশৃঙ্খলা	-11.3844
▁আড়াল	-11.3845
▁সীমাবদ্ধতা	-11.3846
▁নয়টায়	-11.3847
▁এবছর	-11.3849
90)	-11.385
স্ত	-11.3853
▁জঙ্গলে	-11.3854
▁টঙ্গী	-11.3854
গি	-11.3855
▁ক্রোয়েশিয়া	-11.3855
▁প্রশ্রয়	-11.3855
▁জুট	-11.3856
▁স্বেচ্ছাসেবী	-11.3858
▁সাময়িকী	-11.3861
▁নবনির্বাচিত	-11.3862
▁কুয়েত	-11.3871
▁পূর্ণিমা	-11.3872
▁প্রতিবার	-11.3873
▁বাগেরহাটের	-11.3873
সাক্ষরতার	-11.3875
▁কেরানীগঞ্জ	-11.3876
▁নিরসন	-11.3876
▁যাবৎ	-11.3876
▁কিনেছেন	-11.3876
▁ক্যাটাগরি	-11.3877
▁যুদ্ধাপরাধীদের	-11.388
▁শ্রীলংকার	-11.3881
----	-11.3882
কতৃক	-11.3882
২০১৭ইং	-11.3884
▁our	-11.3885
▁অসুখ	-11.3885
▁কায়েস	-11.3886
▁থাকতো	-11.3887
▁আক্তারের	-11.389
জীবন	-11.3892
▁জবাই	-11.3893
এক্স	-11.3895
▁খাদিজা	-11.3895
▁নিষেধাজ্ঞার	-11.3895
লাইন	-11.3897
▁প্রতিটা	-11.3897
▁আনাম	-11.3897
▁টিনের	-11.3904
▁শ্রীমঙ্গল	-11.3904
▁উৎপত্তি	-11.3906
▁সংগ্রহে	-11.3907
যায়েজ	-11.3909
ডাঙ্গা	-11.3911
▁আশ্বস্ত	-11.3912
▁নাসের	-11.3914
▁শিশির	-11.3914
▁গুণগত	-11.3924
▁উইকিমিডিয়া	-11.3926
▁সিএনজিচালিত	-11.3926
▁যাত্রার	-11.3927
▁শুক্রবারে	-11.3928
হ্যাঁ	-11.393
▁১৯৯৩	-11.3931
▁মূল্যবোধ	-11.3931
▁পতিত	-11.3932
জনেই	-11.3932
▁জোগান	-11.3933
▁রেস্টুরেন্ট	-11.3934
▁তি	-11.3935
▁বাচ্চার	-11.3935
▁বিটিআরসি	-11.394
▁ওয়ার্নার	-11.3941
▁ঢেউ	-11.3942
▁রাশির	-11.3942
▁পালানোর	-11.3943
▁USD	-11.3945
▁স্কাউট	-11.395
▁ক্যাটরিনা	-11.395
▁ডিলার	-11.3955
▁৪৪৬	-11.3956
▁মকবুল	-11.3956
▁অনেকবার	-11.3958
▁ঘেরাও	-11.3959
▁পর্তুগিজ	-11.3959
▁চিঠিপত্র	-11.3961
▁চেতনায়	-11.3963
▁গঠনমূলক	-11.3964
▁কালার	-11.3966
এটি	-11.3967
▁কানাডায়	-11.397
H	-11.397
▁রাজাপুর	-11.3971
▁সমমানের	-11.3972
▁হাদীছ	-11.3972
নির	-11.3975
ইপিএস	-11.3976
▁চব্বিশ	-11.3977
▁ফলাফলে	-11.3979
সরকার	-11.3982
▁চাও	-11.3982
▁গুদ	-11.3986
▁অভিবাসীরা	-11.3986
কান	-11.3992
▁বারান্দায়	-11.3994
▁খেলাটা	-11.3997
▁পরিচ্ছন্ন	-11.3997
▁মিটিং	-11.3998
৪১	-11.3999
▁সন	-11.3999
▁লেবু	-11.4
iii	-11.4001
▁ক্লাবটি	-11.4002
▁ভেন্যু	-11.4003
▁পার্লামেন্টের	-11.4008
▁গোলাগুলি	-11.4008
▁পার্শ্ব	-11.4008
▁প্রকাশন	-11.4011
▁টেকটিউনস	-11.4011
▁ঠাকুরের	-11.4012
▁বিয়েতে	-11.4013
▁মেয়রের	-11.4013
▁ইঁদুর	-11.4013
▁চেলসি	-11.4015
▁প্রবর্তন	-11.4016
▁রোমান্টিক	-11.4016
▁বাঁচার	-11.4018
▁মুক্তিযোদ্ধার	-11.402
▁ডাচ	-11.4022
▁পাগলা	-11.4024
▁আইনজীবীদের	-11.4026
▁সমঝোতার	-11.4028
▁শিল্পে	-11.4029
▁চোপড়া	-11.4029
▁শামিল	-11.403
▁দীক্ষিত	-11.4031
▁শেয়ারবাজারে	-11.4033
▁পড়াশুনা	-11.4035
▁ছাত্রশিবির	-11.4035
▁মানুষজন	-11.4036
▁আত্মসাৎ	-11.4037
▁কামরান	-11.4044
▁হালদার	-11.4045
▁ওনার	-11.4047
▁প্রজাতি	-11.4047
▁প্রার্থনার	-11.4048
▁Home	-11.4048
▁মহানবী	-11.4051
▁পলিথিন	-11.4051
▁উত্পাদন	-11.4051
▁অস্বীকৃতি	-11.4052
▁্যালি	-11.4052
উদ্দীন	-11.4052
▁চ্যানেলের	-11.4053
▁ঘটল	-11.4054
▁আকস্মিক	-11.4054
▁পৌঁছান	-11.4056
▁বেয়ে	-11.4056
▁৪৪৪	-11.4057
▁শংকর	-11.4059
▁গন্তব্যে	-11.4063
▁লং	-11.4063
43)	-11.4063
আন্তর্জাতিক	-11.4063
▁সাজঘরে	-11.4065
▁হাঁস	-11.4068
▁দ্বিতীয়বার	-11.4068
▁বোলিংয়ে	-11.4069
▁সেভাবেই	-11.4069
▁ইসলামপুর	-11.4069
ত্যাগের	-11.4069
▁বেদনা	-11.4069
্যা	-11.407
▁ধানমন্ডির	-11.407
▁জনসমক্ষে	-11.4072
▁Month	-11.4072
▁মীমাংসা	-11.4074
▁তারিক	-11.4074
▁ক্লিনটন	-11.4076
▁পকেটে	-11.4076
▁অবসরে	-11.4077
▁বাধ্যবাধকতা	-11.4078
▁খতিয়ান	-11.4079
▁ফৌজদারি	-11.408
▁বাড়ুক	-11.4081
UR	-11.4085
▁ক্রমে	-11.4086
▁চারটায়	-11.4088
▁অনুরোধে	-11.409
৬৩	-11.4091
▁হাসনাত	-11.4094
▁স্থল	-11.4097
▁চলাচলে	-11.4098
▁কাতারের	-11.4099
▁ফার্ম	-11.4099
▁বিবরণী	-11.4101
▁কষ্টে	-11.4102
▁কিস্তি	-11.4103
▁আত্মপ্রকাশ	-11.4106
▁আমেজ	-11.4111
▁ফ্রিজ	-11.4114
▁উত্তাল	-11.4114
▁০১৭৫	-11.4115
▁জামাই	-11.4116
চে	-11.4117
▁ত্বকে	-11.4119
▁জাদুঘরের	-11.4119
▁কূটনীতিক	-11.412
▁গুঁড়ো	-11.412
▁দ্বৈত	-11.412
▁উঠলো	-11.4121
▁জনসাধারণের	-11.4121
তু	-11.4121
▁আস	-11.4121
তোমার	-11.4122
১৭৭	-11.4123
▁মোর্শেদ	-11.4124
▁ইত্যাদির	-11.4124
▁মঠ	-11.4125
▁ফোনঃ	-11.4127
▁নৌযান	-11.413
পাবনা	-11.413
▁একত্রিত	-11.413
▁১১০	-11.4132
▁গোপালপুর	-11.4132
▁পিএইচডি	-11.4132
▁বুথ	-11.4133
▁ইনকাম	-11.4134
▁নিখুঁত	-11.4134
▁মতলব	-11.4135
▁রোপণ	-11.4135
▁ভরি	-11.4138
7	-11.4141
▁মুল	-11.4142
▁এসপি	-11.4142
▁পুনরাবৃত্তি	-11.4144
▁স্টুডেন্ট	-11.4146
তথ্য	-11.4149
▁ভাঁজ	-11.415
▁অপকর্ম	-11.4151
▁লিস্ট	-11.4151
▁পরিবেশনা	-11.4151
▁বার্লিনে	-11.4153
দিনাজপু	-11.4153
▁কোনটা	-11.4156
▁২৫টি	-11.4158
▁১৯৮৪	-11.4158
খোলা	-11.4159
▁পর্তুগাল	-11.4161
▁সিনেট	-11.4162
ng	-11.4162
▁খায়েশ	-11.4163
চ্যারিটেবল	-11.4164
▁m	-11.4165
▁ভাঁড়	-11.4166
▁বিভিন্নভাবে	-11.4168
▁মুক্তিপণ	-11.417
▁ওয়ার্ডপ্রেস	-11.4173
▁প্রথমার্ধে	-11.4175
▁কামড়ে	-11.4175
▁সারোয়ার	-11.4176
▁মিলি	-11.4178
▁ক্যান্টনমেন্ট	-11.4179
▁রাজবাড়ীর	-11.4179
▁পথচারী	-11.4182
▁নামেন	-11.4185
▁কমনওয়েলথ	-11.4186
▁all	-11.4187
▁শর্ট	-11.4188
যিহোবার	-11.419
▁নয়তো	-11.4191
▁শ্রীলংকা	-11.4193
▁ভৌমিক	-11.4194
▁দিব	-11.4195
▁সরিষা	-11.4198
বিল	-11.42
▁ইসরায়েলি	-11.42
▁নইলে	-11.42
▁উড়োজাহাজ	-11.4203
▁৪০টি	-11.4204
▁পূর্ববর্তী	-11.4204
▁দিয়েছিলাম	-11.4205
▁ফান্ডের	-11.4207
▁নৈতিকতা	-11.4208
▁জিল্লুর	-11.4209
়	-11.421
▁অনুকূলে	-11.421
▁শস্য	-11.421
▁সম্পূরক	-11.421
▁নামাজে	-11.421
▁তিনদিন	-11.4212
▁ফেনসিডিল	-11.4213
▁নির্দেশনায়	-11.4213
▁ট্রেডমার্ক	-11.4213
▁অসন্তোষ	-11.4214
▁বাহার	-11.4216
▁সাজাপ্রাপ্ত	-11.4217
▁ঝুলে	-11.4222
▁বুঝা	-11.4222
▁গঙ্গা	-11.4224
▁শুনি	-11.4224
বিজিবি	-11.4226
▁গ্রন্থে	-11.4227
▁কৃষকরা	-11.4227
শিক্ষক	-11.4227
▁মাঝেই	-11.4227
02)	-11.4228
▁কর্মসংস্থানের	-11.4234
▁ধর্মপ্রাণ	-11.4236
▁নিউইয়র্কের	-11.4239
▁অনৈতিক	-11.4241
▁লিপি	-11.4241
52)	-11.4241
▁হুসাইন	-11.4241
▁সুদে	-11.4243
▁পড়েছি	-11.4245
);	-11.4246
▁কোল	-11.4247
▁More	-11.4248
88)	-11.4248
বোমা	-11.4249
▁চেয়েছি	-11.425
▁Daily	-11.4251
▁পলি	-11.4252
▁আযান	-11.4252
▁মধ্যপ্রাচ্য	-11.4253
▁লাইব্রেরি	-11.4253
▁অনুচ্ছেদ	-11.4254
▁সময়মতো	-11.4255
▁কয়	-11.4261
▁দই	-11.4261
▁মিলছে	-11.4263
▁ইলিশের	-11.4264
▁বানচাল	-11.4264
▁বিরতির	-11.4265
▁তাজা	-11.4266
▁লিভার	-11.4267
▁সারওয়ার	-11.4268
▁ক্যাম্পাসের	-11.4272
▁মৌ	-11.4273
▁আপেল	-11.4274
▁দক্ষিন	-11.4277
▁অচল	-11.4277
বাজনা	-11.4281
▁লঙ্ঘনের	-11.4282
▁মাল্টিমিডিয়া	-11.4283
▁শু	-11.4284
▁ডেঙ্গু	-11.4286
▁দীর্ঘমেয়াদি	-11.4287
▁জালিয়াতি	-11.4288
▁পরিধান	-11.429
▁ফিরছেন	-11.429
▁প্লাবিত	-11.429
▁বসানোর	-11.4291
▁সম্পত্তির	-11.4292
▁লেনদেনে	-11.4292
▁বিতর্কে	-11.4294
▁ছেলেমেয়েদের	-11.4295
▁প্রোডাক্টস	-11.4295
▁প্রতিশ্রুতির	-11.4296
▁দূতাবাসে	-11.4296
সঠিক	-11.43
▁দরজায়	-11.43
▁দুইবার	-11.4303
▁ইরফান	-11.4304
বু	-11.4305
▁মাহফিলে	-11.4307
▁বিমল	-11.4311
▁Y	-11.4311
▁শোভা	-11.4313
▁নগরীতে	-11.4313
৫৩	-11.4315
সেবা	-11.4316
▁শিখে	-11.4316
▁সাতটায়	-11.4317
▁পিপলস	-11.4317
▁জানলে	-11.432
▁সংগৃহীত	-11.4321
▁লিবিয়া	-11.4322
ধারী	-11.4323
▁আশীর্বাদ	-11.4325
▁রাঙামাটির	-11.4327
▁আয়ারল্যান্ড	-11.4329
▁প্রতিরোধের	-11.4329
▁বিজয়ীদের	-11.4331
▁সারাদেশ	-11.4331
▁সরকারে	-11.4333
▁রাবেয়া	-11.4334
▁যেতেন	-11.4334
▁দেখাবে	-11.4334
৬৪০	-11.4336
▁রাহমান	-11.4337
▁বিসর্জন	-11.4337
▁দুয়েক	-11.4338
▁শখ	-11.4338
▁ভীতি	-11.4339
▁সেমিফাইনাল	-11.434
▁নেতৃবৃন্দের	-11.4342
বিদেশে	-11.4344
▁প্রেসিডিয়াম	-11.4345
ভাব	-11.4345
গুলিকে	-11.4346
▁সিটিতে	-11.4346
▁সর্বাত্মক	-11.4347
▁দ্রুততম	-11.4348
▁একেএম	-11.435
▁খাদে	-11.4353
জুন	-11.4354
▁দেশপ্রেম	-11.4355
▁রেজাল্ট	-11.4356
▁সেমি	-11.4357
▁বর্ষে	-11.4357
▁জীবনটা	-11.4358
▁বরিশালে	-11.4359
▁ফটকে	-11.4365
▁ত্রিশ	-11.4365
▁হায়	-11.4368
▁গুন	-11.437
▁কাট	-11.4373
▁জাহাজের	-11.4374
▁উগ্র	-11.4374
▁গণশিক্ষা	-11.4376
৮৯	-11.4376
▁সোনিয়া	-11.4377
▁শৈলী	-11.4377
▁মেনন	-11.438
▁জুবায়ের	-11.4383
▁চিকিৎসাসেবা	-11.4385
▁সমাজকে	-11.4385
▁বদরুল	-11.4386
▁বেহাল	-11.4387
▁পরিকল্পিতভাবে	-11.4388
▁জীবাণু	-11.4388
▁কেবলমাত্র	-11.4389
১২০৫	-11.439
▁মিঠু	-11.4393
▁পাঞ্জাবি	-11.4393
▁সান্ত্বনা	-11.4395
▁গতিশীল	-11.4396
▁নিষ্পাপ	-11.4401
▁রাস্তাঘাট	-11.4403
ইউ	-11.4407
▁বিক্ষুব্ধ	-11.4407
▁has	-11.441
▁ইপিএস	-11.441
▁সুইজারল্যান্ডের	-11.4412
▁হালুয়াঘাট	-11.4412
▁পড়ুয়া	-11.4415
গার	-11.4418
▁হত্যাকাণ্ডে	-11.4418
▁পয়লা	-11.4418
▁মিম	-11.442
▁উৎপন্ন	-11.4425
পটুয়াখালী	-11.4425
▁নাতি	-11.4426
▁সেনাপ্রধান	-11.4428
▁নিপীড়ন	-11.443
▁খাড়া	-11.4431
4,	-11.4432
জনক	-11.4433
লিয়া	-11.4437
▁জাদু	-11.4437
or	-11.4439
▁৫ম	-11.444
▁দেখ	-11.4445
▁নাস্তিক	-11.4446
▁this	-11.4449
কিশোর	-11.4449
▁দেখব	-11.445
▁বেজে	-11.4451
▁ক্রিম	-11.4452
▁কুলাউড়া	-11.4453
▁যথা	-11.4454
▁মৃদু	-11.4455
▁গণি	-11.4455
▁সমন্বয়কারী	-11.4457
▁মুম্বাইয়ের	-11.446
▁অচেনা	-11.446
িকা	-11.446
▁সুস্বাদু	-11.446
▁শীতে	-11.4461
শান	-11.4463
শেষ	-11.4465
▁্যালী	-11.4466
▁শেরপুরে	-11.4467
▁ভারি	-11.4468
▁নিষ্ঠুর	-11.4469
▁পোকা	-11.4471
▁আনুগত্য	-11.4473
▁অত্র	-11.4474
▁rate	-11.4476
এফ	-11.4477
10)	-11.4478
▁স্তন্যপান	-11.448
▁কাঁপা	-11.4483
▁সমীকরণ	-11.4484
▁অপেক্ষাকৃত	-11.4485
▁ভদ্র	-11.4485
▁পাঁচজনকে	-11.4486
প্রায়	-11.4487
▁উষ্ণ	-11.4487
▁ভুগছেন	-11.4488
যেমন	-11.4488
▁লাখো	-11.4488
▁মাহফুজুর	-11.449
▁কলহ	-11.4492
▁প্রশংসিত	-11.4492
দিনাজপুর	-11.4493
▁চড়	-11.4493
▁সংবাদমাধ্যমে	-11.4497
▁দারুন	-11.4501
▁:-	-11.4502
▁জীবিকা	-11.4503
▁ঝড়ে	-11.4505
▁লিভারপুল	-11.4506
▁এইডস	-11.4506
▁পিলার	-11.4506
▁Times	-11.451
▁বৃষ্টিপাত	-11.4513
▁নিরীক্ষা	-11.4516
▁মহকুমা	-11.4518
▁রিয়্যাল	-11.4525
▁তাইজুল	-11.4527
▁গ্যালারিতে	-11.4527
▁আগস্টের	-11.4529
▁জম্মু	-11.4534
▁লোকমান	-11.4534
কনটেন্ট	-11.4535
সাত	-11.4537
▁সমর্থকরা	-11.4537
▁মডারেশন	-11.4538
▁তালে	-11.4538
▁ব্রা	-11.4538
শ্রী	-11.454
▁১৪২৫	-11.4541
চেরাগী	-11.4541
বীর	-11.4544
▁টুডে	-11.4545
প্রাণ	-11.4548
▁স্থিতিশীল	-11.4549
▁চাষাবাদ	-11.455
▁আতঙ্কিত	-11.4552
▁পাল্টাপাল্টি	-11.4552
▁সোম	-11.4553
▁দৌলতপুর	-11.4555
▁ভুমি	-11.4555
▁খাস	-11.4556
এলডিপির	-11.4557
▁বিল্লাল	-11.4557
▁চর্চার	-11.4557
ছড়া	-11.4559
▁ব্যাঙ্ক	-11.4561
E	-11.4562
দিকে	-11.4563
▁ভূত	-11.4566
▁অদৃশ্য	-11.4567
▁জৈন	-11.4567
X	-11.4567
▁সমর্থ	-11.4568
▁ব্লাড	-11.4569
▁জন্মস্থান	-11.4569
▁নিধন	-11.457
▁দেখাচ্ছে	-11.457
5,	-11.4571
▁তামিমের	-11.4571
▁বিপুলসংখ্যক	-11.4573
▁ীগ	-11.4573
▁আশিক	-11.4574
▁Hossain	-11.4574
▁সরওয়ার	-11.4575
▁কোথা	-11.4575
▁সঙ্গ	-11.4576
▁আপু	-11.4576
▁কীটনাশক	-11.4576
▁৮টায়	-11.4577
▁৩৩টি	-11.4578
▁Comments	-11.4581
▁ঋতু	-11.4581
▁g	-11.4581
▁সত্তর	-11.4581
▁ইচ্ছুক	-11.4582
▁আবূ	-11.4582
▁কামালের	-11.4583
▁উদ্ভাবনী	-11.4583
▁বিচ্ছেদ	-11.4583
▁পুকুরের	-11.4585
▁কুরআনের	-11.4585
▁দিনেও	-11.4588
▁কর্মবিরতি	-11.459
▁জোটে	-11.4591
▁প্রস্তুতির	-11.4591
্ড	-11.4593
▁বিলি	-11.4594
61)	-11.4594
▁প্রস্তাবের	-11.4595
▁বঙ্গবন্ধুকে	-11.4605
▁ক্লান্তি	-11.4605
প্রবাসী	-11.4605
▁যন্ত্রাংশ	-11.4606
▁পেঁয়াজের	-11.4607
রণ	-11.4608
▁20	-11.4609
▁সুরক্ষিত	-11.4611
▁প্রজন্মকে	-11.4611
▁পুলে	-11.4612
▁খাচ্ছে	-11.4621
▁আনিসুজ্জামান	-11.4622
▁মাহি	-11.4622
▁হামলাকারীদের	-11.4624
▁চে	-11.4624
▁ভিজে	-11.4626
▁সম্পাদিত	-11.4628
▁দরবারে	-11.4629
নামা	-11.4629
৯১১০	-11.4631
▁সো	-11.4633
মুখ	-11.4635
ersha	-11.4635
▁স্টাডিজ	-11.4638
▁খোসা	-11.4639
▁সেন্টিমিটার	-11.464
▁বদর	-11.464
▁চোরাচালান	-11.464
▁X	-11.4643
▁সাময়িকভাবে	-11.4644
কালীগঞ্জ	-11.4644
▁হুইপ	-11.4645
▁পাঁচজনের	-11.4645
▁রেস্তোরাঁয়	-11.4648
▁ছেলেটি	-11.4651
▁গুছিয়ে	-11.4654
▁মিশ্রণ	-11.4656
▁অস্কার	-11.4657
আত্মসাতের	-11.4657
▁বহুতল	-11.4658
▁গ্রাফিক্স	-11.466
▁এসোসিয়েশন	-11.4666
▁চশমা	-11.4667
▁2005	-11.4667
▁পুরানা	-11.4668
ছাঃ	-11.4668
পাঁচ	-11.4669
▁জগত	-11.4669
▁নিজামী	-11.4671
▁ইন্না	-11.4672
▁শয়তানের	-11.4674
▁নির্বাহ	-11.4677
▁১৮০	-11.4681
▁জাহানারা	-11.4681
▁রাষ্ট্রপক্ষ	-11.4681
কলেজ	-11.4682
▁প্রবৃদ্ধির	-11.4685
▁প্রতিস্থাপন	-11.4685
▁চল্লিশ	-11.4687
ব্যবহূত	-11.4688
লিন	-11.4689
▁we	-11.4689
টিউনারপেজ	-11.469
▁১৯৭৪	-11.469
▁করপোরেট	-11.4691
▁সহকারে	-11.4692
▁ন্যায়বিচার	-11.4696
▁To	-11.4699
▁দ্বীপপুঞ্জ	-11.4702
▁ফা	-11.4706
▁চুলা	-11.4706
দ্বন্দ্বিতায়	-11.4707
▁এভিনিউ	-11.4707
প্রাথমিক	-11.4707
▁ডেনমার্কের	-11.4708
▁সোমালিয়া	-11.471
▁কান্ট্রি	-11.4711
▁প্রয়োগের	-11.4713
পাশে	-11.4714
▁কুৎসিত	-11.4715
▁শেখা	-11.4716
▁অসুস্থতা	-11.4717
▁ঝাল	-11.4717
▁পরামর্শে	-11.4719
▁বাপ	-11.4719
▁আনুশকা	-11.472
▁তৃপ্তি	-11.472
▁সেলসিয়াস	-11.472
▁বোঝানো	-11.4722
▁মানসম্মত	-11.4722
▁দশটি	-11.4723
▁মুক্তাগাছা	-11.4724
▁চাইবেন	-11.4726
▁প্রত্যেককে	-11.4728
▁ইজ	-11.4732
▁আখের	-11.4732
▁টিকা	-11.4732
▁আমলা	-11.4737
▁মস্তিষ্ক	-11.4737
▁বাধাগ্রস্ত	-11.4738
fixed	-11.4741
▁পেট্রলবোমা	-11.4741
▁স্বর্গ	-11.4741
▁চালকদের	-11.4742
▁ভুটানের	-11.4745
▁গণহত্যার	-11.4751
পথে	-11.4753
▁সামিট	-11.4753
▁ডিমের	-11.4754
▁বাতাসের	-11.4754
▁সাক্ষাত	-11.4754
৮০	-11.4754
▁আবেদনে	-11.4756
▁সংক্ষেপে	-11.4756
▁চুক্তিবদ্ধ	-11.4757
▁আফরোজ	-11.4757
▁ব্রিজের	-11.4758
▁ম্যানেজিং	-11.476
▁ঝড়ের	-11.476
হাটি	-11.4762
▁ফিরতি	-11.4763
শো	-11.4765
▁স্থলবন্দর	-11.4765
▁যাদব	-11.4767
▁ছড়ানো	-11.4767
▁ত্রিদেশীয়	-11.4768
▁চিকিত্সা	-11.4769
▁জানিয়েছিল	-11.4769
▁যান্ত্রিক	-11.477
িভ	-11.477
▁১৪৪	-11.4771
▁অপচয়	-11.4771
▁জননেত্রী	-11.4772
▁প্রেমিকা	-11.4772
▁গ্লোব	-11.4773
▁দুর্গা	-11.4774
▁রোযা	-11.4775
▁ক্রিস্টিয়ানো	-11.4777
▁সাজে	-11.4779
▁ভদ্রলোক	-11.478
নির্বাচনে	-11.4781
▁বুকিং	-11.4781
▁দ্বি	-11.4782
▁করছিলাম	-11.4783
▁হেলমেট	-11.4783
▁ইজিবাইক	-11.4784
পক্ষের	-11.4784
▁রাজনীতিক	-11.479
▁রিং	-11.4791
ভাগ	-11.4791
▁বেড়িবাঁধ	-11.4792
▁জনপথ	-11.4792
▁আকৃতির	-11.4794
▁দুর্গ	-11.4794
▁রিটার্ন	-11.4794
▁মজুদ	-11.4794
▁৯০০	-11.4795
পহেলা	-11.4796
▁ট্রাকটি	-11.4804
▁পশ্চিমবঙ্গে	-11.4806
▁এশীয়	-11.4807
▁বঙ্গোপসাগরে	-11.4811
▁হাতেই	-11.4813
36)	-11.4814
▁আসত	-11.4818
নু	-11.4818
▁উর্দু	-11.4818
▁অস্ত্রোপচারের	-11.482
▁সঞ্চালন	-11.482
▁অপরিচিত	-11.482
▁সুফিয়া	-11.4823
▁Rahman	-11.4824
▁জাতিসংঘে	-11.4831
▁সেরকম	-11.4832
▁এককভাবে	-11.4835
▁পাহাড়ী	-11.4836
ল্যান্ড	-11.4841
▁দার্শনিক	-11.4843
!!!	-11.4843
▁চেন্নাই	-11.4843
▁ভালোবাসেন	-11.4844
▁লতা	-11.4847
▁ইয়েমেন	-11.4847
▁ইসহাক	-11.4849
ব্য	-11.4849
▁নেপালে	-11.485
▁খালেদার	-11.4852
▁জানাযা	-11.4856
▁বারো	-11.4856
▁চ্যাম্পিয়নশিপে	-11.4857
▁মাদার	-11.4857
দেশে	-11.4858
▁উচ্চতর	-11.4859
▁খেসারত	-11.486
▁জেসমিন	-11.486
▁অকেজো	-11.4863
▁গর্ভপাত	-11.4863
▁স্থিতিশীলতা	-11.4865
output	-11.4866
▁ট্রাইব্যুনালে	-11.4867
▁তোলপাড়	-11.4869
▁চটি	-11.487
▁মওলানা	-11.4872
▁পাঞ্জাব	-11.4873
▁জয়দেবপুর	-11.4874
▁মজিবুর	-11.4876
▁পুনর্গঠন	-11.4876
▁বসবে	-11.4879
▁জৈব	-11.4879
▁খেলছেন	-11.4887
▁সুষ্ঠুভাবে	-11.4888
▁মনিটরিং	-11.4892
▁সরকারিভাবে	-11.4892
▁শফি	-11.4894
▁ভোলার	-11.4895
▁দ্বন্দ্বের	-11.4896
▁অ্যাকাউন্টগুলি	-11.4899
▁আফতাব	-11.49
▁খেললে	-11.4901
▁মাধবপুর	-11.4901
▁প্রমূখ	-11.4902
▁আইনানুগ	-11.4905
▁new	-11.4907
▁ব্রেক্সিট	-11.4907
▁ব্রিটেন	-11.491
▁কাঁঠাল	-11.491
▁জামালপুরের	-11.4911
▁সেক্টরে	-11.4912
▁ইন্দিরা	-11.4912
▁তামিল	-11.4913
▁অনিয়মিত	-11.4913
▁জেট	-11.4913
▁ভিত্তিহীন	-11.4914
দেব	-11.4914
mw	-11.4915
▁নিঃশ্বাস	-11.4915
▁রসূল	-11.4918
▁শিখা	-11.4921
▁কাম্য	-11.4924
▁নির্দোষ	-11.4925
▁কয়েকজনকে	-11.4929
▁বেবী	-11.4934
▁বান্দরবানের	-11.4935
▁মিলান	-11.4935
▁করবার	-11.4936
▁গণভোট	-11.4936
▁এনবিআর	-11.4936
▁ইউনূস	-11.494
▁তুরস্কে	-11.4941
▁বিপিএল	-11.4941
▁প্রত্যাশিত	-11.4946
▁দলিত	-11.495
▁চাচাতো	-11.4955
▁সিঙ্গাপুরে	-11.4956
▁জায়েদ	-11.4957
▁মাদকবিরোধী	-11.4957
▁প্রভু	-11.4958
▁গুদাম	-11.496
▁চিন্তায়	-11.4963
▁চেয়েছিলাম	-11.4963
▁জন্মদিনে	-11.4963
2,	-11.4964
ধর	-11.4966
▁সুকুমার	-11.4966
শক্তি	-11.4967
▁জবাবদিহি	-11.4968
▁সিলেবাস	-11.4968
▁মেসিকে	-11.4968
সংবলিত	-11.4969
▁পেনশন	-11.4969
▁কানের	-11.4972
▁কর্পোরেট	-11.4972
1,	-11.4975
াত্‍	-11.4977
▁ব্যক্তিবর্গ	-11.4977
▁হয়েছে৷	-11.4981
PY	-11.4981
▁অ্যাফেয়ার্স	-11.4982
parser	-11.4982
▁উত্তপ্ত	-11.4984
▁আলোক	-11.4984
▁গ্রিক	-11.4984
▁অভিনয়শিল্পী	-11.4986
60)	-11.4986
▁ছক্কায়	-11.4986
▁লায়ন	-11.4992
▁নিকটতম	-11.4993
ঝিনাইদহ	-11.4997
▁রানি	-11.4999
▁প্রশস্ত	-11.4999
GN	-11.5002
▁টেক্সাস	-11.5005
▁অাপন	-11.5005
▁স্কুলছাত্র	-11.5008
▁জাগো	-11.501
১নং	-11.5014
▁লাফিয়ে	-11.502
▁উমর	-11.502
▁অ্যাপটি	-11.5028
▁হরি	-11.5028
▁আমের	-11.503
৭৯	-11.5031
▁দিনভর	-11.5034
▁রিপোর্টার্স	-11.5035
▁নিয়া	-11.5036
▁বিআরটিএ	-11.5039
সকাল	-11.5039
নয়টার	-11.504
ানন্দ	-11.5042
▁সূচকে	-11.5042
3,	-11.5043
▁আধার	-11.5043
▁ধ্বংসের	-11.5045
▁নরসিংদীর	-11.5045
▁ঐতিহ্যের	-11.5047
▁মতন	-11.5048
▁প্রকট	-11.505
▁রাষ্ট্রবিরোধী	-11.505
▁লিখুন	-11.5053
▁পোস্টের	-11.5055
▁ব্রহ্মপুত্র	-11.5056
▁other	-11.5056
▁ফজর	-11.5057
▁জেলেদের	-11.5058
▁অভিবাসীর	-11.5059
▁একাডেমীর	-11.5059
▁ক্রিয়া	-11.5059
▁এক্সচেঞ্জের	-11.506
▁পাছা	-11.5061
▁New	-11.5061
▁ইরানি	-11.5062
▁গ্রেট	-11.5064
▁আটটায়	-11.5066
▁সেভ	-11.5066
▁হোস্টিং	-11.507
▁প্লেয়ার	-11.507
খা	-11.5071
▁গৃহকর্মী	-11.5071
▁নিবে	-11.5073
▁ржрж	-11.5075
▁ফ্লাইটে	-11.5075
▁উচ্চতায়	-11.5076
▁বিন্দু	-11.5077
▁বিলবোর্ড	-11.5077
▁এগোতে	-11.5078
▁সন্ত্রাসবাদ	-11.5078
▁হাতির	-11.5084
▁এদিক	-11.5085
▁সাদ	-11.5087
▁দাঁতের	-11.5088
ীন	-11.5091
্ব	-11.5094
▁প্লাস্টিকের	-11.5095
▁ধস	-11.5095
▁খাই	-11.5095
cs	-11.5096
▁বৃটিশ	-11.5098
বোঝাই	-11.5101
""."	-11.5102
▁প্রদর্শনীতে	-11.5103
▁রাসুল	-11.5104
▁ফাইবার	-11.5104
▁প্রাচীর	-11.5104
▁পূর্বদিকে	-11.5105
▁ক্রৌ	-11.511
Y	-11.5111
▁ভিক্টোরিয়া	-11.5113
▁ফ্রিল্যান্সিং	-11.5113
▁গাল	-11.5113
▁গণধর্ষণ	-11.5114
▁আহ	-11.5122
▁দাতা	-11.5124
1-	-11.5125
▁গোল্ড	-11.5129
▁চীফ	-11.5131
▁Star	-11.5131
▁১৯৮২	-11.5132
শফিকুর	-11.5133
▁প্রতিবেদনটি	-11.5137
▁স্বর্ণের	-11.5138
▁স্যারের	-11.5138
CH	-11.5139
▁ইউজার	-11.514
en	-11.514
▁মধুপুর	-11.5143
▁উয়েফা	-11.5145
▁লাউ	-11.5145
▁চেতনার	-11.5145
▁নাইন	-11.5146
▁মঞ্জু	-11.5147
▁//	-11.5151
▁শ্রোতাদের	-11.5152
▁রাশিফল	-11.5153
▁একাত্তরে	-11.5153
▁বিশ্বজিৎ	-11.5153
▁৭টায়	-11.5157
▁সিস্টেমের	-11.5157
▁অসামান্য	-11.5159
▁মোটরসাইকেলের	-11.5161
▁ইন্ডিয়ার	-11.5164
▁সাংবাদিকরা	-11.5167
▁প্রোগ্রামের	-11.5167
সাতক্ষীরা	-11.5167
▁পার্টনার	-11.5171
▁পায়রা	-11.5172
▁জলাশয়ে	-11.5174
▁ততক্ষণে	-11.5174
▁ব্যাংকগুলোর	-11.5176
কর্ম	-11.5176
ধারা	-11.5179
▁শ্বাসরোধ	-11.518
মুসলিম	-11.5181
▁সর্বোপরি	-11.5181
▁পিরামিড	-11.5184
/%1	-11.5185
▁পিএনএস	-11.5187
▁বন্দোবস্ত	-11.5188
▁৪টায়	-11.5188
পু	-11.5188
৬০৬	-11.5189
▁ফুলপুর	-11.5189
▁দুর্গন্ধ	-11.5189
▁লেডি	-11.5192
▁গীতিকার	-11.5193
▁আফসোস	-11.5194
▁আচমকা	-11.5196
▁প্রণীত	-11.5196
▁অকাল	-11.5197
▁আখাউড়া	-11.5197
▁পপ	-11.5198
▁উবার	-11.52
▁খাঁন	-11.52
▁সর্দার	-11.52
তাই	-11.5201
ভো	-11.5202
▁ধ	-11.5203
▁উত্ত্যক্ত	-11.5204
▁বিতরন	-11.5206
▁জাতক	-11.5206
▁দফতরে	-11.5207
▁সাংবাদিকের	-11.521
প্রশাসন	-11.5212
▁চাপাতি	-11.5213
▁মেহের	-11.5213
▁জন্মদিনের	-11.5213
▁মেদিনীপুর	-11.5213
নং	-11.5216
▁ধোঁয়া	-11.5216
▁বিশ্লেষক	-11.5219
▁একতরফা	-11.5221
▁বদরুদ্দোজা	-11.5222
ানোর	-11.5222
▁হাওরে	-11.5224
▁ব্যাংককে	-11.5224
▁শিগগির	-11.5224
▁ফু	-11.5225
▁সৈয়দা	-11.5226
▁পেইজ	-11.5233
▁স্পেনে	-11.5234
▁%2	-11.5235
▁দেশী	-11.5236
▁কারিনা	-11.5236
▁উচ্ছ্বসিত	-11.5238
▁যাবত	-11.524
▁ডেমোক্রেসি	-11.5241
▁স্টার্লিং	-11.5244
▁এনডিটিভি	-11.5244
▁বিরোধীদের	-11.5246
▁গল্পটা	-11.5247
▁পেরু	-11.5249
▁১৯৮৮	-11.5249
▁রায়পুর	-11.525
▁লেফটেন্যান্ট	-11.5251
▁সূচি	-11.5251
▁বিদেশের	-11.5251
টক	-11.5252
▁প্রার্থিতা	-11.5252
▁ব্রাজিলিয়ান	-11.5253
নেট	-11.5255
▁ভোটারের	-11.5256
▁সামলে	-11.5257
▁ফাহিম	-11.5257
শার্ট	-11.5259
▁সংগীতের	-11.526
▁জনসন	-11.526
▁''	-11.5265
▁আন্দোলনরত	-11.5266
▁এনার্জি	-11.5267
▁ঠিকাদারি	-11.5268
▁ফলাফলের	-11.5269
▁উদ্ধারে	-11.5269
▁কাদেরিয়া	-11.5269
▁বিবাদ	-11.5272
মানুষ	-11.5272
▁am	-11.5275
▁একটানা	-11.5275
▁about	-11.5276
৭২	-11.5277
▁দায়িত্বরত	-11.5277
▁উচ্ছ্বাস	-11.5277
▁পত্রের	-11.5278
▁অবস্থাতেই	-11.5278
▁দ্বিতীয়ত	-11.5279
▁বিচরণ	-11.528
▁সংখ্যালঘুদের	-11.528
▁Islam	-11.5281
▁ভিত্তিপ্রস্তর	-11.5281
▁জাগে	-11.5281
▁বারে	-11.5282
▁কমিউনিটির	-11.5283
▁সানজিদা	-11.5284
▁v	-11.5285
▁কাউন্টি	-11.5286
▁অদূরে	-11.5287
KR	-11.5288
▁ইস্টার্ন	-11.5292
▁জসীম	-11.5294
▁আনবে	-11.5296
▁টাইগাররা	-11.5297
▁পূজার	-11.5297
▁মধ্যপ্রাচ্যের	-11.5298
▁ট্যাব	-11.53
▁মালিকেরা	-11.53
গু	-11.53
▁বায়ার্ন	-11.53
▁রাস্তাটি	-11.5302
▁বিশ্বযুদ্ধের	-11.5302
▁বোরখা	-11.5302
▁তরুণেরা	-11.5304
▁ড্রিম	-11.5304
মেন্ট	-11.5304
অাপনার	-11.5305
▁গণজাগরণ	-11.5306
▁উপন্যাসের	-11.5308
▁ভবিষ্যত	-11.5308
▁বালা	-11.5308
▁সেনের	-11.5309
▁বগি	-11.531
▁অগাস্ট	-11.5312
▁রিসোর্ট	-11.5313
▁কাশ্মীরের	-11.5315
▁ভরপুর	-11.5315
▁পর্বত	-11.5315
▁খাঁটি	-11.5318
৩৫০০	-11.532
▁ভিয়েতনাম	-11.5321
▁আয়াতের	-11.5322
টেন	-11.5322
▁বংশ	-11.5323
▁মেষ	-11.5323
▁দণ্ডিত	-11.5324
▁তত্‍	-11.5324
০০১৩	-11.5326
▁বিশেষায়িত	-11.5327
▁নেড়ে	-11.5328
৯০	-11.533
▁বাঁড়ার	-11.533
▁সদস্যসচিব	-11.5333
▁মাফ	-11.5333
▁বোয়ালখালী	-11.5333
▁মালদ্বীপ	-11.5334
▁সর্বমোট	-11.5334
▁গাঢ়	-11.5337
▁মনজুরুল	-11.534
▁বক্সে	-11.5341
বিজয়	-11.5341
▁অপরকে	-11.5343
▁জিম	-11.5345
▁কপাল	-11.5345
▁কেস	-11.5345
▁পরনে	-11.5349
▁গভীরে	-11.535
▁যথাসময়ে	-11.5351
▁রাজিব	-11.5352
▁চিঠির	-11.5353
▁মুন্সী	-11.5355
▁আত্মবিশ্বাসী	-11.5356
▁বাংলালিংক	-11.5357
▁রূপালী	-11.5358
▁ডানা	-11.5358
▁প্রেক্ষাগৃহে	-11.5359
▁র‍্যাবের	-11.5361
▁পাত্রে	-11.5362
কুড়িগ্রাম	-11.5362
▁ভার্সন	-11.5363
▁স্বয়ংক্রিয়	-11.5364
▁ভাগ্যের	-11.5368
▁মেজাজ	-11.5371
▁গলার	-11.5372
▁শুটিংয়ের	-11.5373
▁ওইদিন	-11.5373
▁শত্রুদের	-11.5373
▁ধোনির	-11.5375
▁অবতীর্ণ	-11.5378
▁তিল	-11.5381
▁আবাহনীর	-11.5381
▁বিয়ার	-11.5382
▁প্লেট	-11.5385
▁সম্ভাবনার	-11.5387
▁কোমল	-11.5388
▁লক্ষ্মী	-11.5389
▁re	-11.539
▁হীরা	-11.539
▁মেগাপিক্সেল	-11.5391
াই	-11.5391
সিটি	-11.5395
▁কৌতূহল	-11.5396
▁কুসুম	-11.5398
▁লীগকে	-11.5398
▁মিথ্যাচার	-11.5398
▁অভিনয়ে	-11.5399
▁স্থানীয়ভাবে	-11.5399
▁চিকেন	-11.5401
▁আন্দোলনকারীদের	-11.5403
▁সাবান	-11.5403
▁পুরষ্কার	-11.5404
নোয়াখালী	-11.5404
▁বুদ্ধিমান	-11.5407
▁দাঁড়িয়েছিল	-11.5408
▁পুরোটা	-11.5408
▁ব্যাটসম্যানরা	-11.5409
▁নারাজ	-11.5413
▁লোকটি	-11.5415
▁চঞ্চল	-11.5416
▁গণপূর্ত	-11.5419
▁সন্তুষ্টি	-11.5419
▁Tags	-11.5421
▁আশংকা	-11.5422
▁মহাখালী	-11.5423
▁তরিকা	-11.5423
▁নিপুণ	-11.5428
▁তুচ্ছ	-11.5429
▁মাহবুবে	-11.543
▁দোকানপাট	-11.543
▁জীবনানন্দ	-11.5435
▁পরিমাপ	-11.5436
▁মিথুন	-11.5437
▁হাউজিং	-11.5438
▁তাক	-11.5439
▁ব্লকের	-11.544
বলি	-11.544
▁বিষয়কে	-11.5444
▁ইদানীং	-11.5444
▁প্রহার	-11.5447
▁সাংবাদিককে	-11.5447
▁Download	-11.5448
▁মোগল	-11.5449
ছিনতাইয়ের	-11.5451
বাসস	-11.5452
▁টেলর	-11.5452
খান	-11.5453
▁পোনা	-11.5455
▁সরোয়ার	-11.5456
ধরনের	-11.5458
যুবদলের	-11.5459
▁অজস্র	-11.546
▁নিকটবর্তী	-11.546
▁উৎক্ষেপণ	-11.5461
▁পর্যবেক্ষক	-11.5462
▁তীব্রতা	-11.5462
▁৮৮০	-11.5462
৮৮৭০	-11.5463
▁চুষা	-11.5463
▁মেঘের	-11.5466
▁মন্ত্র	-11.5467
▁শেখানো	-11.5469
▁পাটের	-11.547
▁ভ্রাম্যমান	-11.5474
▁আবেদ	-11.5475
▁প্রবাদ	-11.5476
▁আইওএস	-11.548
▁চামড়ার	-11.5482
ভোলা	-11.5482
▁আমিরাতের	-11.5482
▁নেওয়ায়	-11.5483
▁ওয়াসার	-11.5484
▁ওয়ার	-11.5485
▁লিওন	-11.5485
▁দলমত	-11.5485
▁সুইডেনের	-11.5487
▁বাজি	-11.5487
▁ইলেকট্রনিক্স	-11.5488
▁কুইজ	-11.5489
▁দেখভাল	-11.549
▁মেক্সিকোর	-11.5491
6,	-11.5493
online	-11.5494
▁বঙ্গ	-11.5495
▁সংরক্ষণাগার	-11.5498
▁অধিদফতরের	-11.5498
▁নীলফামারীর	-11.55
▁মোমেন	-11.5502
▁জেরা	-11.5502
াইল	-11.5502
▁লোকাল	-11.5502
▁অর্ধশতাধিক	-11.5503
▁অক্ষয়	-11.5503
▁প্রতিজ্ঞা	-11.5504
▁চাচ্ছেন	-11.5504
""-	-11.5504
▁স্নেহাশি	-11.5506
▁ছোটখাটো	-11.5507
স্বীকারোক্তিমূলক	-11.5513
নীতি	-11.5514
▁দাপট	-11.5515
▁ভ্রমন	-11.5516
▁ফটোগ্রাফার	-11.5517
▁আরমান	-11.5517
▁হিন্দুধর্ম	-11.5517
▁ট্যানারি	-11.5518
▁বহুনির্বাচনি	-11.5518
▁এপ্লিকেশন	-11.5519
▁উদ্ধৃত	-11.5522
প্রতিষ্ঠানে	-11.5526
▁কবরে	-11.5528
▁রঙে	-11.5528
ال	-11.553
▁গৃহপরিচারিকা	-11.5531
▁কুমিল্লায়	-11.5532
▁পুনরুদ্ধার	-11.5532
▁পীরগঞ্জ	-11.5533
▁অজ্ঞান	-11.5535
পো	-11.5535
▁পরিহার	-11.5536
▁লাভজনক	-11.5536
▁আবির্ভাব	-11.5537
▁পূর্বক	-11.5538
▁কতদূর	-11.5539
▁ডলারে	-11.554
▁লোড	-11.554
▁কাটানোর	-11.5541
an	-11.5542
▁চক	-11.5543
▁জুয়া	-11.5544
▁চু	-11.5545
▁প্রাদেশিক	-11.5546
▁আকন্দ	-11.5546
▁ফিলিস্তিনের	-11.5547
▁পরাজয়ের	-11.5547
▁বিতরণী	-11.5547
▁ইতর	-11.5547
▁আইপিএলে	-11.5547
▁নন্দী	-11.5549
▁সুইডেন	-11.5549
▁অধ্যাদেশ	-11.5549
▁শোভন	-11.555
▁সহীহ	-11.5551
▁খানিক	-11.5551
প্রত্যাশীদের	-11.5552
▁ভালোবাসে	-11.5552
ূ	-11.5553
▁অফিসিয়াল	-11.5553
▁প্যাক	-11.5554
▁desh	-11.5556
▁টিটু	-11.5557
▁চলন্ত	-11.5558
@,	-11.5558
▁ফেলছে	-11.5559
▁দূষিত	-11.5559
▁উপচে	-11.5561
▁ঘাড়	-11.5561
▁দ্রষ্টব্য	-11.5561
জোরপূর্বক	-11.5562
▁কেশবপুর	-11.5562
মতে	-11.5564
55)	-11.5564
▁প্রতিযোগী	-11.5565
▁জায়গাটা	-11.5566
▁An	-11.5567
▁আদলে	-11.5568
▁ভূইয়া	-11.5569
▁দুর্বৃত্তদের	-11.557
"")"	-11.557
▁সমুদ্রে	-11.557
▁তরুণের	-11.5571
▁হাশেম	-11.5573
▁মধ্যদিয়ে	-11.5575
▁টোকিও	-11.5577
▁উকিল	-11.558
▁ইতোমধ্যেই	-11.5581
▁অধ্যুষিত	-11.5585
▁কালা	-11.5585
▁হবো	-11.5588
▁পার্বতীপুর	-11.5591
▁উঠলেন	-11.5591
▁বেড়ায়	-11.5595
▁স্থলে	-11.5597
▁চরিত্রটি	-11.5597
▁দিনগুলোতে	-11.5597
▁দুষ্ট	-11.5598
▁মন্ত্রিসভায়	-11.5599
▁অ্যাপলের	-11.5599
▁লুঙ্গি	-11.56
▁চাবি	-11.5604
▁গ্রাহকরা	-11.5605
▁২২টি	-11.5605
▁হুয়াওয়ে	-11.5606
কালো	-11.5607
▁ধোবাউড়া	-11.5611
▁অনুলিপি	-11.5612
▁girls	-11.5615
ii	-11.5619
▁বিপর্যয়ের	-11.5619
▁প্রাণহানি	-11.562
▁হাঁটা	-11.5624
▁গ্রন্থাগার	-11.5624
বারে	-11.5626
▁মৈত্রী	-11.5627
বঙ্গবন্ধু	-11.5627
▁দূরত্বে	-11.5628
▁ফিরলেন	-11.5628
▁বোনকে	-11.5628
▁কথোপকথন	-11.5628
▁গাছপালা	-11.5629
▁সর	-11.563
▁গলি	-11.563
▁গাংনী	-11.5631
▁বু	-11.5633
▁ইয়াসিন	-11.5634
কুষ্টিয়া	-11.5637
▁আলোচ্য	-11.5637
▁আব্বা	-11.5637
বিডি	-11.5639
▁নৃশংস	-11.5641
েশ্বর	-11.5642
▁আইকন	-11.5643
▁প্রেক্ষাপট	-11.5643
▁ফুটপাতে	-11.5644
▁বাউন্ডারি	-11.5644
খলিলুর	-11.5644
উপাচার্য	-11.5645
▁পুর	-11.5645
▁প্রতিবেশীরা	-11.5645
▁সিংহভাগ	-11.5646
▁এসো	-11.5647
▁পড়লাম	-11.5647
▁la	-11.5647
▁রোদে	-11.5649
▁ভয়েস	-11.5649
▁জনস্বাস্থ্য	-11.565
▁শান্তিপূর্ণভাবে	-11.5651
▁ঘেঁষে	-11.5651
▁খাতায়	-11.5651
▁সংসারের	-11.5656
▁সংস্করণে	-11.5659
▁তোমায়	-11.5659
▁পুরসভা	-11.5659
▁সিজদা	-11.5659
▁পিএসজি	-11.5662
▁উদ্বেগের	-11.5662
▁ফারিয়া	-11.5664
▁খোন্দকার	-11.5669
দো	-11.567
উপসহকারী	-11.5671
▁বন্ধুসভার	-11.5672
▁বিলটি	-11.5675
▁দেখলেই	-11.5678
▁সারির	-11.5678
▁আমন্ত্রিত	-11.5679
▁কোরিয়ান	-11.568
▁চালালে	-11.5681
পুরের	-11.5681
▁ওপারে	-11.5683
সভাপতিমণ্ডলীর	-11.5684
ছা	-11.5684
▁এঁরা	-11.5686
▁সাম্প্রদায়িকতা	-11.5687
▁দাবিদার	-11.5688
▁নিপীড়নের	-11.5689
▁ফ্রক	-11.5689
▁পার্টিতে	-11.5692
▁তনু	-11.5692
▁মানবসম্পদ	-11.5694
▁ব্যাংকগুলো	-11.5694
▁বিপর্যস্ত	-11.5694
▁দাড়ি	-11.5696
▁পিরোজপুরের	-11.5697
ছড়ি	-11.5698
▁১৯৪৮	-11.5698
▁বিনিয়োগকারীরা	-11.5699
▁ফিলিস্তিন	-11.5699
▁দিনমজুর	-11.57
▁নভেম্বরের	-11.5703
▁বায়তুল	-11.5703
▁প্রশ্নটা	-11.5703
▁সংগঠনগুলো	-11.5703
▁মৌজা	-11.5703
▁মিউচুয়াল	-11.5707
ঙ্গা	-11.5707
ভারপ্রাপ্ত	-11.571
▁কার্যকারিতা	-11.5711
▁আফরোজা	-11.5713
কবলিত	-11.5714
জামায়াতের	-11.5714
াদি	-11.5714
▁রাশিয়ান	-11.5715
▁আত	-11.5715
▁তের	-11.5718
▁অনুকূল	-11.5719
▁ভুইয়া	-11.5719
hsc	-11.572
▁বানিজ্যিক	-11.572
▁পিন্টু	-11.5722
▁জাতীয়করণ	-11.5723
▁যাহা	-11.5726
▁বিকাশে	-11.5727
▁টোল	-11.5727
▁রাজিউন	-11.5729
▁ডেল	-11.573
▁ওবামার	-11.573
▁রাষ্ট্রপক্ষে	-11.573
▁স্মৃতির	-11.5733
▁সরাইল	-11.5733
▁মুস্তাফিজুর	-11.5734
▁মঞ্জিল	-11.5737
▁হৃদয়ের	-11.5738
▁খাসোগি	-11.5739
▁পড়বেন	-11.574
▁অনুশীলনে	-11.5743
▁উই	-11.5744
▁দ্রুতই	-11.5745
▁গৌরনদী	-11.5745
cn	-11.5746
▁সিবিআই	-11.5747
▁পায়ূ	-11.5747
িস্ট	-11.5748
পরিদর্শক	-11.5749
▁রায়কে	-11.5749
▁ছিটিয়ে	-11.575
▁ভোটকেন্দ্রে	-11.5751
▁শটে	-11.5752
মার্কিন	-11.5754
▁জঘন্য	-11.5754
▁সোমালিয়ায়	-11.5755
সেরা	-11.5756
▁পৌল	-11.5756
▁খালে	-11.5759
▁চাঞ্চল্যকর	-11.5759
▁নিরলস	-11.5761
▁কাঞ্চন	-11.5762
▁দাবানল	-11.5765
▁মহেন্দ্র	-11.5766
▁কারিগর	-11.5766
▁মঞ্জুরুল	-11.5766
▁শোকের	-11.5767
▁বাকিটা	-11.577
▁চ্যান্সেলর	-11.577
▁সামুদ্রিক	-11.5771
▁প্রবন্ধে	-11.5774
▁হইলে	-11.5775
▁লাগলাম	-11.5775
▁মুয়াজ্জিন	-11.5776
▁ট্রাম্পকে	-11.5781
▁কাফের	-11.5781
▁মিরপুরের	-11.5783
▁ভিড়ে	-11.5784
রায়	-11.5786
▁ফুটবলারদের	-11.5788
▁হায়াত	-11.5792
▁অ্যাটাক	-11.5792
▁চেয়ারে	-11.5794
▁টুল	-11.5795
▁গ্রাস	-11.5797
জামালপুর	-11.5798
▁গফুর	-11.5801
▁মোস্তাক	-11.5801
sangbad	-11.5802
▁শাসনামলে	-11.5804
▁সিডি	-11.5805
▁জাকারবার্গ	-11.5806
▁আসেননি	-11.5806
▁কাজকর্ম	-11.5806
▁নিরাপত্তায়	-11.5809
▁ভাবছি	-11.581
ssc	-11.581
▁অনুষ্ঠিতব্য	-11.581
▁সভাকক্ষে	-11.5811
সুরা	-11.5811
▁জুলাইয়ে	-11.5813
▁নকিয়া	-11.5813
▁বাঁধন	-11.5813
▁রিও	-11.5816
▁যতো	-11.5818
▁রাকাত	-11.5818
▁মজবুত	-11.582
▁বৎসর	-11.5821
▁রাখলেন	-11.5821
▁মালিবাগ	-11.5821
▁১৯৮৯	-11.5823
▁রজব	-11.5824
▁হত্যায়	-11.5825
▁নামেই	-11.5825
▁কাগজের	-11.5827
▁ডঃ	-11.5828
▁জেড	-11.5829
▁মনো	-11.5831
▁মেগা	-11.5832
▁এলোমেলো	-11.5833
▁Ali	-11.5835
▁জন্মবার্ষিকী	-11.5838
▁ইয়াহিয়া	-11.5838
▁আন্তরিকভাবে	-11.5838
ation	-11.5838
▁মাপের	-11.5842
▁সাথী	-11.5843
▁অতিবাহিত	-11.5843
▁ব্যঙ্গ	-11.5845
▁বঙ্গাব্দ	-11.5848
▁সেকেন্ডের	-11.585
▁কনফারেন্সের	-11.5853
▁বৈচিত্র্য	-11.5853
▁আক্রমণাত্মক	-11.586
▁বাহন	-11.5861
মারা	-11.5862
▁ইভেন্টে	-11.5863
কল	-11.5863
▁বাইপাস	-11.5864
▁ফিরছিলেন	-11.5864
▁সুখে	-11.5867
▁গির্জা	-11.5867
▁পেস্ট	-11.5867
▁শিক্ষাগত	-11.587
▁প্রতীকী	-11.5872
পথ	-11.5874
▁মতামতের	-11.5877
▁১০১	-11.5879
▁বোল্ড	-11.5881
▁১৯৫২	-11.5882
▁হবেনা	-11.5882
GBP	-11.5885
▁আখ	-11.5886
▁প্রত্যেকেই	-11.589
▁খোকা	-11.5893
▁দেবাশীষ	-11.5898
▁সাবিনা	-11.5898
▁নিজেদেরকে	-11.5899
▁জান্নাতুল	-11.5901
▁এটিএন	-11.5901
▁পোড়ানো	-11.5902
▁কৃতি	-11.5903
চ্ছে	-11.5903
▁ভাবনার	-11.5904
▁সবশেষে	-11.5906
▁সোলায়মান	-11.5907
▁নিখোঁজের	-11.5908
▁শরী	-11.5911
▁হানাদার	-11.5911
পেশার	-11.5912
▁সিদ্ধ	-11.5913
▁ভর্তুকি	-11.5913
▁সুবর্ণ	-11.5914
▁জায়ান্ট	-11.5915
▁শয্যা	-11.5915
▁পুরস্কৃত	-11.5917
▁সুন্নাত	-11.5918
▁মহাপরিদর্শক	-11.5919
প্রদান	-11.592
▁লালবাগ	-11.5923
▁সংকলন	-11.5923
▁ব্রাশ	-11.5924
▁19,	-11.5924
▁তৌফিক	-11.5925
▁জিতেছিল	-11.5926
▁দানা	-11.5927
▁ডাকসু	-11.5928
ডার	-11.593
▁দোতলা	-11.593
▁উম্মত	-11.5931
▁দুজনে	-11.5931
▁করিমের	-11.5932
▁স্মৃতিচারণ	-11.5932
▁খুনি	-11.5932
▁আমিরুল	-11.5933
▁১৬০	-11.5934
▁বাধার	-11.5935
▁দেখল	-11.5936
▁পর্ন	-11.5936
▁যাত্রাবাড়ী	-11.5938
▁ময়মনসিংহে	-11.594
▁গুনাহ	-11.5941
▁দ্বিতীয়বারের	-11.5942
▁সঞ্চালনা	-11.5942
▁বাফুফে	-11.5944
▁গানগুলো	-11.5946
▁পথেই	-11.5948
▁মেটা	-11.5948
▁ফাইভ	-11.5949
▁গ্রামীণফোনের	-11.5949
▁11	-11.5949
রহঃ	-11.5951
▁খাইয়ে	-11.5951
▁Re	-11.5952
গভীরভাবে	-11.5953
▁অন্তঃসত্ত্বা	-11.5954
▁ইনস্টাগ্রামে	-11.5954
খাগড়াছড়ি	-11.5955
▁সবকিছুর	-11.5955
▁প্রসারিত	-11.5957
▁অনায়াসে	-11.5959
▁ক্রু	-11.596
▁দিনগুলি	-11.596
▁নিষ্ক্রিয়	-11.596
▁চাকুরি	-11.5962
▁সেগুলি	-11.5968
▁ইংরেজী	-11.597
▁হাব	-11.5971
.)-	-11.5973
;"	-11.5973
▁তরমুজ	-11.5973
▁আলীম	-11.5975
▁ফেললে	-11.5978
নেত্রকোনা	-11.5979
▁রয়টার্সের	-11.598
▁নীতিমালার	-11.598
▁কেঁদে	-11.5981
▁তিশা	-11.5985
▁মনটা	-11.5987
▁নায়েক	-11.599
▁ভীত	-11.599
▁উক্তি	-11.5991
ভারতের	-11.5995
বিদ	-11.5997
িতা	-11.5998
▁নবীনগর	-11.6002
▁মরা	-11.6002
▁বিনিয়োগকারী	-11.6003
▁যাত্রায়	-11.6005
▁ক্যামেরায়	-11.6007
রাজনৈতিক	-11.6007
পিরোজপুর	-11.6008
▁তাৎপর্য	-11.6008
▁খ্রি	-11.6015
▁একশ	-11.6015
▁নলকূপ	-11.6016
▁টেক্সট	-11.6017
▁অংশগ্রহন	-11.6017
il	-11.6017
▁নাচের	-11.6018
▁আংটি	-11.6018
▁অংক	-11.6019
গাইবান্ধা	-11.6019
▁ওল্ড	-11.6021
▁কোন্দল	-11.6025
▁সচিবালয়ের	-11.6033
▁হারুনুর	-11.6035
▁x	-11.6035
▁টানতে	-11.6036
▁পরস্পর	-11.6036
▁গুড়	-11.6039
▁স্ট্যান্ড	-11.6039
ওয়ার	-11.604
▁ভাইদের	-11.604
▁সফ্টওয়্যার	-11.604
▁বিস্তর	-11.6041
▁অসাম্প্রদায়িক	-11.6041
▁প্রতারক	-11.6044
▁কর্মশালার	-11.6044
২০১৩	-11.6046
বর্তমানে	-11.6047
৪৬	-11.6047
▁আলোতে	-11.6048
▁বয়সেই	-11.6049
▁ছাত্রাবাস	-11.605
▁সৌভাগ্য	-11.6054
▁আগ্রাসন	-11.6058
জনৈক	-11.6059
▁বেগমকে	-11.606
▁ধীর	-11.606
▁জরিপের	-11.6061
▁টুপি	-11.6066
di	-11.6068
▁adv	-11.6079
▁ভাবেন	-11.6079
▁মূল্যস্ফীতি	-11.6081
▁বিকল	-11.6082
▁অপচেষ্টা	-11.6085
▁আযম	-11.6087
▁দেখো	-11.609
▁অসাধু	-11.609
▁এখানেও	-11.609
পুরুষের	-11.6091
▁তাজ	-11.6091
▁বাজিয়ে	-11.6091
July	-11.6092
▁তারাকান্দা	-11.6093
▁গোলাপগঞ্জ	-11.6094
▁13,	-11.6094
▁আহলে	-11.6098
▁স্নান	-11.6099
▁অনির্দিষ্টকালের	-11.6099
▁মোস্তাফিজ	-11.6102
▁পরিধি	-11.6103
▁বিধায়ক	-11.6103
▁জুটির	-11.6104
▁মোহামেডান	-11.6106
▁তালিবান	-11.6107
▁সাম্রাজ্যের	-11.611
▁ফ্ল্যাটে	-11.6111
▁হত্যাকারীদের	-11.6111
▁প্রকোপ	-11.6112
▁পেরেছিলেন	-11.6112
▁সদা	-11.6113
▁হজ্ব	-11.6113
75)	-11.6114
সেইসঙ্গে	-11.6114
▁দেল	-11.6116
▁ইকবালের	-11.6118
▁চেইন	-11.6119
▁যন্ত্রের	-11.6123
▁আদনান	-11.6125
▁ফিলিপাইনের	-11.6126
▁পুল	-11.6128
▁মুজাহিদ	-11.6131
▁স্রেফ	-11.6131
▁অন্যকে	-11.6133
▁উপগ্রহ	-11.6134
▁সাশ্রয়ী	-11.6137
▁দোআ	-11.6138
▁সেক্টরের	-11.6139
▁দুর্ভাগ্য	-11.6139
▁সহজলভ্য	-11.6142
▁নিরীক্ষণ	-11.6144
▁সাইনবোর্ড	-11.6145
▁ব্যয়বহুল	-11.6145
▁ফেলি	-11.6146
▁তুলবে	-11.6147
▁রেলস্টেশন	-11.6148
▁প্রদর্শনের	-11.615
▁হিলি	-11.615
▁অনুপম	-11.6152
অ্যা	-11.6154
▁নুন	-11.6155
▁বেড়েই	-11.6158
ভেদে	-11.6158
▁দৌলতদিয়া	-11.6159
▁মেয়াদি	-11.6161
▁আলহাজ	-11.6161
▁সর্বোত্তম	-11.6162
▁বাসস্থান	-11.6162
▁সাইদুল	-11.6165
▁সেশনে	-11.6165
▁ভাবলাম	-11.6166
▁নিউজচিটাগাং	-11.6167
▁জমজমাট	-11.6167
▁ভিআইপি	-11.6172
▁প্রস্রাব	-11.6173
▁শহীদুল্লাহ	-11.6173
▁উজ্জীবিত	-11.6174
▁কায়দায়	-11.618
গুলোও	-11.6181
▁সহিত	-11.6182
▁ইয়াং	-11.6182
▁সাইদ	-11.6183
▁খাবারে	-11.6187
▁কাচ	-11.6188
▁সুতা	-11.6188
▁গলে	-11.619
▁ছোটবেলায়	-11.619
▁নিহতরা	-11.6191
▁ভাঙতে	-11.6192
এখানে	-11.6194
▁আত্মীয়স্বজন	-11.6196
▁প্যাসিফিক	-11.6197
▁জঙ্গির	-11.6198
▁ইনস্টল	-11.62
ঈশ্বর	-11.62
▁মাওয়া	-11.6201
▁জাহান্নাম	-11.6204
▁ধোয়া	-11.6206
▁মেরিন	-11.6208
tp	-11.6208
▁ছিটমহল	-11.6212
▁অজুহাতে	-11.6212
▁কোনভাবেই	-11.6212
▁টিকিয়ে	-11.6213
▁নারকেল	-11.6213
bd	-11.6214
▁মণি	-11.6217
O	-11.6217
▁রূপগঞ্জ	-11.6218
▁ট্যাক্সি	-11.6218
▁রুমা	-11.6218
▁ঘোষণায়	-11.6218
৫৭	-11.6219
▁চোদা	-11.6221
▁টেলিকম	-11.6222
৫২১৫	-11.6222
▁মহল্লার	-11.6228
মিন	-11.623
ফেনী	-11.623
▁ছেলেমেয়েরা	-11.6232
▁প্রমান	-11.6232
সো	-11.6232
লোক	-11.6233
কেউ	-11.6235
▁চ্যাট	-11.6235
▁শ্রেণীতে	-11.6236
▁বেলুন	-11.6236
.....	-11.6237
▁এন্টি	-11.6239
পূজারি	-11.6239
▁BR	-11.6239
▁ভ্যাটিকান	-11.624
▁মেমোরিয়াল	-11.6241
▁আকৃতি	-11.6242
▁শিশুবিবাহ	-11.6243
▁choda	-11.6243
▁জুস	-11.6243
ীমূলক	-11.6243
▁১৯৮৭	-11.6245
ঝালকাঠি	-11.6248
▁কুখ্যাত	-11.6248
▁ভোটাধিকার	-11.625
▁১৯টি	-11.6251
▁দেবো	-11.6252
৬৬	-11.6253
▁বিল্লাহ	-11.6254
▁আইজিপি	-11.6256
▁এলজিইডি	-11.6256
▁কন্টেন্ট	-11.6257
হান	-11.6258
১৩৫৫	-11.6258
চাঁপাইনবাবগঞ্জ	-11.6259
▁চুলে	-11.6259
▁নজরুলের	-11.6263
▁সত্যজিৎ	-11.6263
▁সম্ভাবনাকে	-11.6264
▁অলৌকিক	-11.6264
▁শ্যামলী	-11.6266
▁উষ্কান	-11.6267
AUD	-11.6268
ভালুকায়	-11.6268
▁হতাশার	-11.6268
▁লেজ	-11.6269
ফার	-11.627
নড়াইল	-11.6272
▁অচেতন	-11.6273
▁মুসলমানরা	-11.6275
পন্থী	-11.6276
▁নালা	-11.6277
▁উত্তরণ	-11.6277
30)	-11.6277
▁বহুবার	-11.628
ক্ষণ	-11.628
▁ঢোকানো	-11.6282
▁অনিশ্চয়তা	-11.6283
▁বাথরুমে	-11.6284
টিই	-11.6285
▁কয়েকজনের	-11.6285
▁নাটকটির	-11.6286
▁What	-11.6286
▁বৃদ্ধিতে	-11.6287
United	-11.6289
▁ক্যাপিটাল	-11.629
▁পেশাজীবী	-11.629
▁জাহাজে	-11.6291
▁সেটিই	-11.6292
▁এশিয়ায়	-11.6292
১২৫৫	-11.6293
▁তাঁত	-11.6295
২নং	-11.6296
▁বিক্রম	-11.6296
▁অ্যাটলেটিকো	-11.6296
▁০২৪	-11.6297
▁এঁকে	-11.6303
▁নিম্নমানের	-11.6304
▁পথচলা	-11.6305
▁যাতায়াতের	-11.6305
▁সবসময়ই	-11.6307
রাজনীতি	-11.6307
▁সপরিবারে	-11.6307
▁গুদামে	-11.6308
▁হান	-11.6308
▁কুড়ি	-11.6308
গুণ	-11.6309
▁গোলটেবিল	-11.6313
▁খ্রিষ্টধর্ম	-11.6313
▁তলার	-11.6314
▁নিবেন	-11.6316
ঠাকুরগাঁও	-11.6317
▁বেগে	-11.6317
▁চাচ্ছে	-11.6317
▁সংস্থাগুলোর	-11.6318
▁হাদিসে	-11.6321
▁চাদর	-11.6322
▁হরিয়ানা	-11.6322
▁বাঁচানোর	-11.6324
▁সুপারের	-11.6327
▁গল্পটি	-11.6327
৪২০২	-11.633
▁বইতে	-11.6331
▁দফার	-11.6331
▁ব্যাটিংয়ের	-11.6332
▁হামাস	-11.6332
▁গম্ভীর	-11.6333
▁চালককে	-11.6333
৩০৪০	-11.6336
▁শত্রুতা	-11.6338
▁my	-11.6338
▁কাটছে	-11.634
▁সবশেষ	-11.6341
▁ধর্মকে	-11.6343
▁অনাপত্তি	-11.6343
▁পুনর্বহাল	-11.6344
সিনেমা	-11.6346
ar	-11.6346
▁অস্বস্তি	-11.6347
▁খা	-11.6348
হবিগঞ্জ	-11.6348
দেবী	-11.6349
▁০১৮৪	-11.6351
বিনোদন	-11.6352
▁দুর্যোগের	-11.6352
▁অনার	-11.6353
১৬৮৫	-11.6354
▁এসএ	-11.6355
ার্স	-11.6358
▁so	-11.636
লাভ	-11.6362
▁খাতুনের	-11.6362
▁আফ্রিকায়	-11.6364
▁প্রাচ্য	-11.6365
▁নিরাময়	-11.6367
▁মিসবাহ	-11.6367
▁কোম্পানিতে	-11.6368
▁স্ত্রীদের	-11.6368
▁১৯৮৩	-11.637
ুল্লাহ	-11.637
▁অ্যালকোহল	-11.6371
▁পুন	-11.6371
▁আরেকবার	-11.6371
▁বুট	-11.6372
▁আকাঙ্ক্ষা	-11.6372
▁ব্যাক্তি	-11.6373
▁ইহুদিদের	-11.6373
▁গড়িয়ে	-11.6374
▁Choti	-11.6375
য়ো	-11.6377
▁আবেদিন	-11.6382
▁মহাজোটের	-11.6382
▁সৌজন্যে	-11.6382
গড়	-11.6384
▁এমপিওভুক্ত	-11.6388
▁ভিন্নতা	-11.6388
▁শাহাদত	-11.639
▁কুশল	-11.6392
▁জাম	-11.6394
▁কুড়িগ্রামের	-11.6394
▁তাঁহার	-11.6398
▁স্বভাব	-11.6399
কন্যা	-11.6399
▁শ্লোগান	-11.6403
▁মানবতা	-11.6403
▁আশ	-11.6403
বাগেরহাট	-11.6404
▁ইসরাইলি	-11.6407
▁মহানগরীর	-11.6407
▁তৎ	-11.6408
ইন্না	-11.6409
▁ফোঁটা	-11.6409
▁সারাক্ষণ	-11.641
▁আসমা	-11.641
▁ডজন	-11.6412
▁নামটা	-11.6413
▁ক্রোয়েশিয়ার	-11.6415
▁ছিন্ন	-11.6423
▁মর্যাদায়	-11.6424
▁ছয়টায়	-11.6424
▁এলেই	-11.6425
▁বেসিস	-11.6426
স্থান	-11.6426
২য়	-11.6427
▁একরকম	-11.6428
▁কণ্ঠশিল্পী	-11.6428
▁চলো	-11.6431
শূন্য	-11.6433
▁ছোটো	-11.6434
▁ফিরলে	-11.6436
হেল্পফুল	-11.6436
▁মহাজোট	-11.6437
▁মুস্তাফিজ	-11.644
▁ফারহানা	-11.644
ভালো	-11.6441
▁গর্তে	-11.6442
▁বিকশিত	-11.6442
্রুশ	-11.6443
▁আসবাব	-11.6445
▁দেবতা	-11.6447
▁’‘	-11.6449
▁তারপরে	-11.645
▁মোতালেব	-11.645
▁গঙ্গোপাধ্যায়	-11.645
অপারেশন	-11.6451
▁কবুতর	-11.6453
▁পেট্রল	-11.6457
▁ইটের	-11.6457
▁নৈরাজ্য	-11.6457
বাড়িয়া	-11.6459
▁ম্যাক্স	-11.6461
▁ইঞ্জিনিয়ার্স	-11.6464
▁এস্টেট	-11.6465
▁রাণী	-11.6466
▁দাশগুপ্ত	-11.6467
▁সুফিয়ান	-11.6467
২০২১	-11.6467
▁প্রশিক্ষক	-11.6468
▁প্রদানকারী	-11.6468
▁শিল্পমন্ত্রী	-11.6469
শ্রম	-11.6469
▁জুনায়েদ	-11.6471
▁সংঘের	-11.6472
▁অভ্যর্থনা	-11.6473
▁তারকারা	-11.6473
▁যোদ্ধা	-11.6474
খানি	-11.6474
▁গর্ভে	-11.6474
▁রকিব	-11.6476
▁ভিউ	-11.6477
▁ফারুকী	-11.6479
▁লিপিবদ্ধ	-11.6481
▁ব্রীজ	-11.6484
▁শাহজাদপুর	-11.6485
▁পরগনা	-11.6486
▁জানালার	-11.6486
▁any	-11.6486
▁মস্কো	-11.6486
করণের	-11.6487
▁জেলের	-11.6487
▁কর্ণধার	-11.6487
সিইসি	-11.6489
▁একাকী	-11.649
▁রেগে	-11.6491
▁জুডিশিয়াল	-11.6491
▁কোনোভাবে	-11.6494
▁জাভা	-11.6496
▁যেনো	-11.6497
নীল	-11.6497
▁বাকিরা	-11.6498
▁প্রবীর	-11.6498
▁তেলাওয়াত	-11.6498
▁মিলিমিটার	-11.6499
▁নির্ধারণের	-11.6499
▁ঢলে	-11.6501
▁অর্থমন্ত্রীর	-11.6502
▁মেদ	-11.6504
▁গ্রহণযোগ্যতা	-11.6504
▁পর্যবেক্ষণে	-11.6505
▁মনোযোগী	-11.6507
িনী	-11.6507
▁রেস্তোরাঁ	-11.6508
▁ভয়ানক	-11.651
▁বুদ্ধ	-11.6511
▁কলাপাড়া	-11.6511
▁বিজিএমইএ	-11.6512
▁উদ্বোধনের	-11.6512
▁কেরালা	-11.6515
▁ওড়না	-11.6517
▁পাঁচবার	-11.6518
▁উপজাতীয়	-11.6519
▁EUR	-11.6521
▁খেল	-11.6524
▁সুবিধার্থে	-11.6524
▁ক্যাডেট	-11.6525
াতে	-11.6525
জো	-11.6526
PR	-11.6526
▁হইচই	-11.6527
▁সাধু	-11.6528
▁আমতলী	-11.6528
▁বিশ্বসেরা	-11.653
▁কেন্দুয়া	-11.653
▁বুখারী	-11.653
▁আম্পায়ার	-11.653
▁জটিলতার	-11.653
▁সমতায়	-11.653
▁শিথিল	-11.6532
▁থমকে	-11.6532
▁ঘেরা	-11.6534
▁তরুণকে	-11.6536
▁গুপ্তচর	-11.6537
▁সম্বলিত	-11.6538
▁রাখায়	-11.6539
▁অগ্রহায়ণ	-11.654
▁সুইস	-11.6544
প্রতিকৃতিতে	-11.6545
▁আসনটি	-11.6545
▁pd	-11.6547
▁পেত	-11.6552
▁মহাকাশে	-11.6554
▁প্রযুক্তিগত	-11.6554
▁ক্ষয়	-11.6554
▁স্বজনরা	-11.6554
আল্যা	-11.6554
▁রহিত	-11.6555
▁লর্ড	-11.6557
▁স্বাভাবিকভাবে	-11.6558
▁মিশনে	-11.6558
▁রাজ্যপাল	-11.6558
কাজ	-11.6559
হত্যা	-11.6562
▁জার্নাল	-11.6563
▁গবেষকদের	-11.6566
▁লোগো	-11.6566
▁পন্থা	-11.6567
▁গুরুত্বারোপ	-11.657
▁চৌরাস্তা	-11.657
▁অগ্রগতির	-11.6571
▁সাই	-11.6572
▁সুমি	-11.6572
▁জারির	-11.6574
▁হার্ডওয়্যার	-11.6574
▁রাইট	-11.6574
▁ফেয়ার	-11.6575
▁১৯৭৮	-11.6577
▁স্রোত	-11.6577
▁উচ্চপদস্থ	-11.6577
▁কাচের	-11.6578
পঞ্চগড়	-11.6578
▁এমনিতে	-11.6578
▁টপকে	-11.6579
▁নৌবাহিনী	-11.6579
সূচক	-11.6581
▁সবুর	-11.6581
▁জার্সিতে	-11.6584
Sinha	-11.6587
৭৩	-11.6589
▁পাকিস্তানী	-11.659
নবী	-11.6591
▁বিয়ানীবাজার	-11.6591
▁নেমেছেন	-11.6593
▁ওঠেনি	-11.6594
স্বভাবতই	-11.6594
▁তুলি	-11.6597
▁জাজিরা	-11.6598
▁ট্রাস্টি	-11.6598
▁চন্দনাইশ	-11.6599
▁মেটানো	-11.6599
▁শ্যাম	-11.66
মাদারীপুর	-11.6601
শ্রমিক	-11.6601
▁We	-11.6602
▁আমু	-11.6602
▁কমিটিকে	-11.6603
▁সাধারণভাবে	-11.6603
▁সাপের	-11.6604
লেস	-11.661
▁রেশ	-11.661
▁বেশ্যা	-11.6611
▁গ্রন্থের	-11.6611
▁সেটিকে	-11.6611
▁September	-11.6613
▁এতিম	-11.6614
▁মেঝেতে	-11.6614
▁মুসলমানের	-11.6614
বিশিষ্ট	-11.6615
▁উধাও	-11.6617
বৃন্দ	-11.6618
▁জান্নাতে	-11.662
▁প্রথমআলো	-11.662
বদ্ধ	-11.6622
▁কন্যার	-11.6623
▁জর্ডান	-11.6623
▁লেখকদের	-11.6623
▁শেল	-11.6626
পুত্র	-11.6627
▁পুষ্পস্তবক	-11.6627
▁ফার	-11.6628
▁শহীদের	-11.6628
যার	-11.663
বাংলাদেশে	-11.6632
▁রক্ষণ	-11.6633
▁আমন্ত্রণে	-11.6633
▁উপাধি	-11.6634
▁রাজন	-11.6635
স্ব	-11.6636
কেন্দ্র	-11.6641
▁হরমোন	-11.6642
▁সেদ্ধ	-11.6642
79)	-11.6643
▁ক্লাসের	-11.6645
23)	-11.6645
▁চওড়া	-11.6647
▁জ্যামাইকা	-11.6647
▁নৌপথে	-11.6648
▁সিংহের	-11.6648
▁তাহসান	-11.6649
▁এমদাদুল	-11.665
▁প্রিন্সিপাল	-11.665
▁কর্তা	-11.6652
14)	-11.6653
▁চিনে	-11.6653
▁শোনান	-11.6653
▁গড়েন	-11.6656
▁ষোলো	-11.6657
▁মুমিন	-11.6658
▁সাম্রাজ্য	-11.6659
▁শতাব্দীতে	-11.6659
জয়পুরহাট	-11.6661
▁নাফ	-11.6662
▁রিফাত	-11.6663
ভাঙ্গা	-11.6664
▁মাথাপিছু	-11.6664
▁শামসুজ্জামান	-11.6665
ছো	-11.6666
▁বুঝলাম	-11.6667
▁ডেট	-11.6667
▁ভয়ভীতি	-11.6668
▁টিক	-11.6668
▁লিচু	-11.6669
▁লাফ	-11.667
▁শামীমা	-11.667
Answer	-11.6672
▁এনটিভি	-11.6675
ঞ্জ	-11.6677
▁যতদিন	-11.6677
লালমনিরহাট	-11.6678
▁আশির	-11.6679
▁এতটুকু	-11.6679
▁আয়রন	-11.668
▁নাস্তা	-11.6682
▁পাশা	-11.6682
▁RU	-11.6683
▁She	-11.6684
▁অন্যান্যদের	-11.6687
▁পায়ুসংক্রান্ত	-11.6688
▁জাভেদ	-11.6689
চর্চা	-11.669
▁বর্ষার	-11.6691
▁খানা	-11.6693
▁হামলাকারীরা	-11.6695
▁এএফসি	-11.6695
▁ফিফার	-11.6695
▁পন্য	-11.6697
সবথেকে	-11.6697
▁টেলিফোনে	-11.6699
যারা	-11.6699
সংখ্যা	-11.6699
▁বাড়ীর	-11.67
▁রাত্রি	-11.6703
০১৭১৩২৪০৭	-11.6704
▁শব্দটা	-11.6704
▁ফাঁদ	-11.6704
▁বাগ	-11.6704
▁মনিটর	-11.6706
▁চাষী	-11.6707
▁বহুজাতিক	-11.6707
▁ভান্ডার	-11.6709
▁রুমানা	-11.6709
▁রাষ্ট্রায়ত্ত	-11.6709
নওগাঁ	-11.6709
▁নির্বাচক	-11.671
▁ফিরবেন	-11.6712
▁ব্যাপারী	-11.6713
▁মার্কা	-11.6715
▁ধ্যান	-11.6715
▁অনেকাংশে	-11.6716
৪০০	-11.6716
▁মুস্তফা	-11.6718
৫৮	-11.6718
▁আন্দোলনকে	-11.6719
ল্লা	-11.6722
▁আলোচক	-11.6722
শী	-11.6723
▁১৯৬০	-11.6724
আমিন	-11.6725
৬৪	-11.6725
▁সাজু	-11.6726
▁দীপু	-11.6727
রিয়া	-11.6728
গুনতে	-11.6729
▁ডাই	-11.673
▁মুহুর্তে	-11.6731
▁পারলেই	-11.6734
▁পুরানো	-11.6735
▁অনুষ্টিত	-11.6735
▁হাস্যকর	-11.6736
▁দারিদ্র	-11.6738
▁গুহ	-11.674
▁ফেরে	-11.6741
▁কুয়াশা	-11.6741
▁জনগনের	-11.6743
সেহেতু	-11.6746
▁জাতিসত্তা	-11.6746
▁মোস্তাফা	-11.6747
▁খাদ্যের	-11.6747
▁বানু	-11.6748
▁খেলেছি	-11.6749
▁জাগিয়ে	-11.6751
▁বলাই	-11.6751
মিস	-11.6752
ূর	-11.6753
চুয়াডাঙ্গা	-11.6755
▁মিটিয়ে	-11.6757
▁ছন্দ	-11.6757
▁ফিলিপ	-11.6757
সম্পর্কিত	-11.6757
▁তুলেছিলেন	-11.6758
▁গজারিয়া	-11.676
▁গতানুগতিক	-11.6761
▁খেলাফত	-11.6762
অনুষ্ঠান	-11.6763
▁দর্শকেরা	-11.6763
▁জায়েয	-11.6765
▁সংগ্রামে	-11.6767
▁ড্রাইভিং	-11.6768
▁রাশেদুল	-11.6769
▁দিচ্ছিলেন	-11.677
▁দাঁড়াই	-11.6774
▁হাজেরা	-11.6776
▁জু	-11.6776
▁অনুভূত	-11.6777
▁Off	-11.6778
▁প্রাণে	-11.6779
▁ডিভাইসের	-11.6782
▁ব্যাকটেরিয়া	-11.6783
▁জিএম	-11.6784
▁পিকনিক	-11.6784
▁পুরুষরা	-11.6785
মেন	-11.6785
▁সদস্যপদ	-11.6786
▁নক্ষত্র	-11.6787
▁গিটার	-11.6789
▁ভেজে	-11.679
▁হিমশি	-11.6792
▁নিট	-11.6795
▁প্রস্থ	-11.6796
▁পার্কিং	-11.68
▁সাংবাদিকেরা	-11.6801
▁ডিউটি	-11.6801
▁অধিদপ্তরে	-11.6802
▁অন্ত	-11.6802
▁রহিমের	-11.6803
▁ভূমির	-11.6803
▁ঘোষের	-11.6806
▁বুদ্ধদেব	-11.6809
7,	-11.6812
গাছ	-11.6813
▁গ্র	-11.6813
▁আসামে	-11.6814
''	-11.6815
▁সমাধি	-11.6816
▁আজহা	-11.6816
8,	-11.6817
▁রেফারেন্স	-11.6818
▁ডেন্টাল	-11.6818
▁her	-11.6819
▁পরিপন্থী	-11.6819
উন	-11.682
▁সনাক্ত	-11.682
▁মুনির	-11.6822
▁১৯৮৫	-11.6822
▁মরতে	-11.6824
▁ওপরের	-11.6824
▁ইনভেস্টমেন্ট	-11.6827
▁নিয়মিতভাবে	-11.6827
হাব	-11.6827
▁ঢাল	-11.6827
▁কোটায়	-11.6829
▁বিজ্ঞানীদের	-11.6831
▁স্তূপ	-11.6832
▁মাজহারুল	-11.6834
▁১৯৮১	-11.6836
▁পোষা	-11.6836
▁চারপাশ	-11.6836
▁সজাগ	-11.6837
সূত্র	-11.684
▁১২৫	-11.6842
▁পেয়ারা	-11.6842
▁নেত্রকোনার	-11.6846
ড়ে	-11.6846
হু	-11.6847
পূর্বক	-11.6847
▁বিব্রত	-11.6848
▁জ্যোতি	-11.6848
▁অনুসন্ধানী	-11.6849
▁মুস্তাফা	-11.685
80)	-11.6851
▁আসলো	-11.6852
▁18,	-11.6852
▁কেনাবেচা	-11.6852
▁সমৃদ্ধি	-11.6854
▁সংস্কৃত	-11.6854
▁টেন্ডুলকার	-11.6857
ওয়ে	-11.6858
▁মাহমুদা	-11.6859
▁বাকিদের	-11.6859
▁ইনস্টিটিউশন	-11.686
▁প্রত্যাবর্তন	-11.686
▁ব্রোঞ্জ	-11.6861
▁বেকারত্ব	-11.6861
▁দোহার	-11.6861
▁বাক	-11.6861
▁জুমার	-11.6862
নিছক	-11.6862
▁উদয়	-11.6863
▁কারাদন্ড	-11.6864
▁মানুষটি	-11.6865
▁চারবার	-11.6867
▁ব্রেক	-11.6867
▁অজুহাত	-11.687
▁মেখে	-11.6871
▁জুভেন্টাস	-11.6871
পরে	-11.6872
জিডি	-11.6872
▁মিলার	-11.6873
▁যোগাযোগমাধ্যম	-11.6874
▁অ্যালবামের	-11.6876
▁ওয়েলস	-11.6877
▁ওস্তাদ	-11.6877
জল	-11.6879
বাজারে	-11.6881
▁বিবর্তন	-11.6883
▁অযথা	-11.6884
their	-11.6886
▁মিড	-11.6886
▁ফ্রান্সে	-11.6887
▁এনায়েত	-11.6888
▁পৌঁছা	-11.6888
▁মশার	-11.6888
▁শাস্তিযোগ্য	-11.6888
▁আবহ	-11.689
এবার	-11.6891
▁জানো	-11.6895
▁রয়েল	-11.6895
▁প্রাসঙ্গিক	-11.6895
▁চরে	-11.6897
খ্যাত	-11.6897
▁ক্রিকেটারের	-11.6897
হারা	-11.6899
ুম	-11.69
▁আইপিএলের	-11.69
মী	-11.6906
আলম	-11.6907
৩য়	-11.6907
?"""	-11.6909
▁পৃষ্ঠায়	-11.6909
▁মংলা	-11.6909
▁বীরশ্রেষ্ঠ	-11.691
▁দৃশ্যে	-11.691
▁মাথাব্যথা	-11.6913
▁নাজনীন	-11.6915
▁কর্মচারীরা	-11.6916
▁মন্তব্যে	-11.6917
▁হুট	-11.6918
▁আসুক	-11.6919
▁যত্রতত্র	-11.692
▁বহর	-11.6921
▁সৌন্দর্যের	-11.6921
▁জননী	-11.6923
▁সাঈদী	-11.6926
TM	-11.6929
▁কওয়া	-11.6929
▁one	-11.693
▁রামপুরা	-11.693
▁ব্যাগে	-11.6931
▁ব্রাদার্স	-11.6933
▁গভীরতা	-11.6934
▁হেনা	-11.6936
▁মশলা	-11.6936
alj	-11.6938
▁১৬৪	-11.694
▁রেহানা	-11.6942
z	-11.6943
▁টিউব	-11.6944
এমনকী	-11.6945
▁টিআইবি	-11.6946
▁results	-11.6946
▁একাংশের	-11.6948
▁আপস	-11.6949
▁অভ্যুত্থান	-11.6949
▁পেলো	-11.695
▁অন্যটি	-11.695
▁শারীরিকভাবে	-11.695
মন্ডলী	-11.6952
মেয়ে	-11.6954
▁ফেলল	-11.6958
▁লেবানন	-11.6959
▁নতুনভাবে	-11.6959
িয়	-11.696
▁কাদা	-11.6962
▁১৯৭৯	-11.6963
AR	-11.6964
দ্বিতীয়	-11.6965
▁স্বর্ণপদক	-11.6966
▁মারপিট	-11.6969
▁সিরামিক	-11.6969
▁বো	-11.6973
▁ফার্মা	-11.6974
মেহেরপুর	-11.6976
▁বিমা	-11.6977
▁ভূমিকার	-11.6981
▁দর্শকরা	-11.6981
▁সাবমেরিন	-11.6983
▁গান্ধীর	-11.6983
▁বেড়াচ্ছে	-11.6985
▁ক্ষতিগ্রস্থ	-11.6987
▁অশ্বিন	-11.6987
▁উত্তাপ	-11.6988
সাংস্কৃতিক	-11.6988
সংযোগ	-11.699
▁সঙ্গত	-11.6991
▁সেভেন	-11.6992
▁সদরঘাট	-11.6992
▁স্বাধীনভাবে	-11.6996
▁বিচারাধীন	-11.6997
▁একাডেমিতে	-11.7001
▁সারিতে	-11.7001
▁স্টোরেজ	-11.7002
▁যেতাম	-11.7002
তখন	-11.7003
▁২৮টি	-11.7005
আঃ	-11.7008
▁রাজনৈতিকভাবে	-11.701
র্ধ্বে	-11.7013
▁মৌসুমি	-11.7014
ছোট	-11.7015
▁ভাটা	-11.7016
▁ফেরানো	-11.7016
▁নির্দলীয়	-11.7019
▁ব্যাঘাত	-11.702
▁আন্তঃ	-11.7023
▁ব্যয়ের	-11.7025
▁ময়দা	-11.7025
▁এক্সিকিউটিভ	-11.7026
▁টেলিকমিউনিকেশন	-11.7027
▁কানাডীয়	-11.7028
▁তুলছে	-11.7028
▁দাঁড়ান	-11.7028
▁স্প্রে	-11.7032
▁পিটিআই	-11.7032
▁use	-11.7033
▁যুক্তিতর্ক	-11.7034
▁সিগন্যাল	-11.7035
▁সরানোর	-11.7036
▁Pro	-11.7038
▁প্রতিপক্ষকে	-11.7041
▁কৃষিবিদ	-11.7042
লির	-11.7044
ব্যবস্থাপনা	-11.7045
▁প্রশ্নটি	-11.7046
▁সার্কুলার	-11.7046
▁পরকীয়া	-11.7048
ডিএমপি	-11.7049
▁আনু	-11.7051
W	-11.7053
সন্ধ্যা	-11.7056
ননি	-11.7059
▁চোটে	-11.706
▁ফিল্ডিং	-11.706
▁বড্ড	-11.706
51)	-11.7062
▁নামছে	-11.7064
▁সোনারগাঁ	-11.7065
▁বোঝে	-11.7065
▁উপাত্ত	-11.7071
পনিবেশিক	-11.7073
মাগুরা	-11.7073
▁ল্যাবরেটরি	-11.7073
ালো	-11.7076
▁বরকত	-11.7079
▁শর	-11.7082
▁অংশটি	-11.7085
▁পলিটেকনিক	-11.7085
▁০১৮৪১	-11.7086
▁বসছে	-11.7088
▁বাল্য	-11.7088
▁খাগড়াছড়িতে	-11.709
▁দুটোই	-11.7091
▁বিচ্ছেদের	-11.7092
সান	-11.7096
▁জন্মভূমি	-11.7098
▁ট্যুর	-11.7099
▁ব্রণ	-11.71
▁আটা	-11.7101
▁ক্রেস্ট	-11.7102
▁সরেজমিন	-11.7104
▁অন্যজন	-11.7106
চালিত	-11.7107
স্কয়ার	-11.7107
▁বিনয়	-11.7107
▁মন্টু	-11.7108
▁কালিহাতী	-11.7109
▁শিলা	-11.7109
▁কোনদিন	-11.711
▁আঃ	-11.711
▁তথ্যমতে	-11.7112
▁ভিজিয়ে	-11.7115
সরকারি	-11.7117
▁সৌর	-11.7119
▁মুজিবনগর	-11.712
▁সুমাইয়া	-11.712
কারি	-11.712
▁মেইন	-11.712
মানের	-11.7122
▁ভেতরেই	-11.7125
▁দেরিতে	-11.7125
▁গুণী	-11.7125
▁সহিংসতায়	-11.7126
▁জায়গাটি	-11.7127
▁অতিথিরা	-11.7127
▁অনুগত	-11.7127
▁বাজারজাত	-11.7128
▁আড্ডায়	-11.713
৫ম	-11.7131
▁কলার	-11.7133
▁সিরীয়	-11.7136
▁মিন	-11.7136
▁ওয়াসিম	-11.7141
▁IN	-11.7143
▁মালিককে	-11.7144
▁অনেকখানি	-11.7144
▁নেদারল্যান্ডস	-11.7144
▁they	-11.7145
▁ব্যাথা	-11.7145
▁very	-11.7146
মিষ্টি	-11.7147
▁বিপিএলে	-11.7147
[...]
